[PAD]
[UNK]
[CLS]
[SEP]
[MASK]
!
"
#
$
%
&
'
(
)
*
+
,
-
.
/
0
1
2
3
4
5
6
7
8
9
:
;
<
=
>
?
@
[
\
]
^
_
`
a
b
c
d
e
f
g
h
i
j
k
l
m
n
o
p
q
r
s
t
u
v
w
x
y
z
{
|
}
~
¡
¢
£
¤
¥
§
©
«
¬
®
°
±
²
³
´
µ
·
¹
º
»
¼
½
¾
¿
×
ß
æ
ð
÷
ø
þ
đ
ħ
ı
ł
ŋ
œ
ƒ
ƣ
ɐ
ɑ
ɔ
ə
ɛ
ɟ
ɡ
ɣ
ɨ
ɪ
ɫ
ɯ
ɲ
ɴ
ɵ
ɹ
ɾ
ʁ
ʃ
ʊ
ʌ
ʒ
ʔ
ʕ
ʙ
ʰ
ʱ
ʲ
ʻ
ʼ
ʾ
ʿ
ˈ
ˌ
ː
˚
˝
ˤ
΄
α
β
γ
δ
ε
ζ
η
θ
ι
κ
λ
μ
ν
ξ
ο
π
ρ
ς
σ
τ
υ
φ
χ
ψ
ω
а
б
в
г
д
е
ж
з
и
к
л
м
н
о
п
р
с
т
у
ф
х
ц
ч
ш
щ
ъ
ы
ь
э
ю
я
ђ
є
ѕ
і
ј
љ
њ
ћ
џ
ѣ
ѧ
ґ
ғ
җ
ҙ
қ
ҝ
ҟ
ҡ
ң
ҥ
ҫ
ү
ұ
ҳ
ҷ
һ
ӊ
ӏ
ә
ө
ԥ
ա
բ
գ
դ
ե
զ
է
թ
ի
լ
խ
կ
հ
ձ
ղ
մ
յ
ն
շ
ո
չ
պ
ջ
ռ
ս
վ
տ
ր
ց
ւ
ք
և
׀
א
ב
ג
ד
ה
ו
ח
ט
י
כ
ל
ם
מ
ן
נ
ס
ע
פ
ץ
צ
ק
ר
ש
ת
،
؛
ء
ا
ب
ة
ت
ث
ج
ح
خ
د
ذ
ر
ز
س
ش
ص
ض
ط
ظ
ع
غ
ـ
ف
ق
ك
ل
م
ن
ه
و
ى
ي
٠
١
٢
٣
٤
٥
٦
٧
٨
٩
ٱ
ٲ
ٹ
پ
چ
ک
ڭ
گ
ں
ھ
ہ
ۃ
ۇ
ۋ
ی
ې
ے
ە
ܐ
ܗ
क
ख
ग
च
ज
ड
त
द
न
प
ब
भ
म
य
र
ल
व
श
स
ह
ा
ि
ी
ो
জ
ত
দ
ন
প
ব
ম
য
র
ল
শ
স
হ
া
ি
ে
ા
க
த
ப
ர
ல
ா
ி
ு
ை
ก
ข
ง
จ
ช
ต
ท
น
บ
ป
พ
ม
ย
ร
ล
ว
ส
อ
ะ
า
เ
แ
་
ა
ბ
გ
დ
ე
ვ
ზ
თ
ი
კ
ლ
მ
ნ
ო
პ
რ
ს
ტ
უ
ფ
ქ
ყ
შ
ჩ
ც
ძ
წ
ჭ
ხ
ჯ
ᄀ
ᄁ
ᄂ
ᄃ
ᄄ
ᄅ
ᄆ
ᄇ
ᄈ
ᄉ
ᄊ
ᄋ
ᄌ
ᄍ
ᄎ
ᄏ
ᄐ
ᄑ
ᄒ
ᅡ
ᅢ
ᅣ
ᅥ
ᅦ
ᅧ
ᅨ
ᅩ
ᅪ
ᅫ
ᅬ
ᅭ
ᅮ
ᅯ
ᅰ
ᅱ
ᅲ
ᅳ
ᅴ
ᅵ
ᆨ
ᆫ
ᆮ
ᆯ
ᆷ
ᆸ
ᆹ
ᆺ
ᆻ
ᆼ
ᆽ
ᆾ
ᇀ
ᇂ
ᵒ
‐
‑
‒
–
—
―
‘
’
‚
“
”
„
†
‡
•
…
‰
′
″
‹
›
⁄
₤
₩
€
₹
₽
℃
ℓ
№
™
⅓
⅔
⅛
←
↑
→
↓
↔
↗
↘
∆
−
∙
√
∞
∠
≈
≡
≤
≥
≪
≫
⋅
①
②
─
│
┌
└
▲
▼
◌
●
☉
♠
♣
♥
♦
♭
♯
、
。
〈
〉
《
》
「
」
〜
あ
い
う
え
お
か
き
く
け
こ
さ
し
す
せ
そ
た
ち
っ
つ
て
と
な
に
の
は
ひ
ふ
へ
ま
み
も
よ
ら
り
る
れ
ろ
を
ん
ァ
ア
ィ
イ
ウ
ェ
エ
ォ
オ
カ
キ
ク
ケ
コ
サ
シ
ス
セ
ソ
タ
チ
ッ
ツ
テ
ト
ナ
ニ
ノ
ハ
ヒ
フ
ヘ
ホ
マ
ミ
ム
メ
ャ
ュ
ョ
ラ
リ
ル
レ
ロ
ン
・
ー
一
三
上
下
不
世
东
中
主
乃
义
之
乙
九
乡
二
云
井
京
人
代
伉
会
作
你
來
依
信
們
像
儷
元
光
克
全
公
共
刀
分
切
別
利
前
加
勒
動
勝
化
北
区
區
千
华
南
博
卡
原
县
友
反
口
可
台
史
合
吉
同
君
和
咸
哈
唐
四
回
国
國
團
地
坂
城
域
基
場
塔
壁
夏
外
夜
大
天
太
女
始
嬴
子
孜
学
宁
安
宗
宮
家
富
寧
寶
小
少
尔
尙
尼
山
島
崎
川
州
工
巨
巴
市
布
帝
平
年
广
廣
延
建
式
弘
張
彝
影
徐
德
心
忠
恋
想
意
愛
慶
我
战
戦
手
托
拉
撃
改
攻
政
教
文
斗
斯
新
方
族
日
昌
明
春
昭
時
會
月
朝
木
本
李
村
来
東
松
林
査
榮
樣
歌
正
武
毛
民
気
氣
水
永
汉
汗
江
沙
河
治
泉
法
津
洪
浦
海
清
港
湖
源
漢
澤
火
热
爱
物
特
玉
王
班
瓦
甘
生
田
界
白
的
皇
県
知
石
社
神
福
科
空
立
第
紀
統
總
罗
羅
美
群
義
胡
自
良
花
芸
英
茂
草
華
萬
葉
藏
藤
蜜
行
術
表
西
言
記
誌
語
調
諾
诺
谷
起
越
身
軍
通
進
道
那
郎
郡
部
都
里
重
野
金
銀
鎭
铁
镇
長
門
门
防
阳
阿
陽
隆
青
韓
音
順
風
香
馬
马
高
魂
魯
麗
黄
龍
龙
﴾
﴿
ﺍ
ﺟ
！
（
）
，
－
：
ａ
ｂ
～
##с
##е
##п
##т
##у
##л
##р
##і
##н
##о
##а
##ы
##i
##g
##e
##n
##s
##t
##a
##к
##и
##д
##в
##м
##з
##ч
##ю
##ң
##p
##h
##o
##l
##ғ
##5
##1
##7
##6
##х
##3
##қ
##ц
##г
##я
##ұ
##r
##2
##0
##4
##ж
##ф
##ь
##k
##ɑ
##m
##ɪ
##v
##z
##9
##б
##ө
##ә
##u
##x
##y
##b
##ш
##8
##d
##щ
##c
##ə
##ү
##q
##w
##°
##э
##ъ
##j
##һ
##f
##ı
##ل
##م
##ش
##ر
##ق
##ᅴ
##ᄌ
##ᅡ
##ᆼ
##ᅮ
##ᄀ
##ᅦ
##ᄅ
##ᅳ
##ᆯ
##ذ
##ا
##ß
##ز
##ʻ
##ł
##¬
##ε
##ω
##ν
##ᆫ
##ᄉ
##ᆷ
##ج
##د
##ة
##ح
##ت
##ه
##س
##ӊ
##η
##ρ
##υ
##τ
##ο
##ς
##ك
##ო
##ს
##ტ
##უ
##მ
##ი
##ض
##ء
##ع
##ی
##÷
##ي
##ن
##×
##و
##−
##ა
##თ
##დ
##რ
##გ
##ɹ
##æ
##ŋ
##♠
##ص
##ａ
##ᅵ
##ᄆ
##ᄒ
##œ
##ᅧ
##ɨ
##ι
##ζ
##α
##ø
##£
##י
##ת
##ᅩ
##ᇀ
##ᄋ
##²
##ᅣ
##β
##þ
##ð
##ᆨ
##ᄃ
##ᅬ
##∞
##º
##ᅥ
##غ
##ス
##ト
##ب
##լ
##ա
##վ
##ե
##ր
##դ
##ո
##ւ
##ӏ
##ᅲ
##ᄂ
##ն
##ف
##մ
##բ
##կ
##σ
##μ
##π
##λ
##ᆸ
##ᅢ
##ղ
##ի
##յ
##φ
##љ
##ᄑ
##ᅭ
##ʼ
##ᆮ
##ى
##ல
##க
##ை
##ہ
##ᄇ
##ᄎ
##↓
##˚
##ह
##ल
##ـ
##θ
##ท
##ร
##δ
##γ
##ʾ
##ґ
##ە
##³
##є
##ط
##の
##হ
##ম
##ে
##দ
##ۋ
##ロ
##ウ
##ᅯ
##κ
##٤
##™
##خ
##ѣ
##½
##ᆽ
##ҳ
##њ
##≫
##ۇ
##چ
##ҡ
##ʊ
##ˌ
##ʒ
##ו
##ם
##ק
##ב
##צ
##ה
##מ
##ל
##ᆻ
##ე
##ფ
##ː
##ˤ
##٥
##ზ
##კ
##ᅫ
##ᆺ
##─
##չ
##ʃ
##ˈ
##წ
##ბ
##ლ
##ث
##ვ
##א
##ע
##→
##ᆹ
##ᄁ
##ʿ
##գ
##レ
##ン
##đ
##∙
##ܗ
##ܐ
##ћ
##↑
##χ
##ռ
##ک
##ר
##ɔ
##տ
##ჯ
##ნ
##ظ
##ხ
##ᅪ
##シ
##カ
##შ
##№
##٣
##ג
##ら
##す
##く
##ち
##ɾ
##ɣ
##ɫ
##フ
##া
##র
##ত
##ク
##ニ
##ד
##ψ
##よ
##う
##±
##る
##ɛ
##ふ
##つ
##≤
##پ
##ѧ
##は
##い
##た
##ں
##٠
##น
##เ
##อ
##®
##ҷ
##ٱ
##ۃ
##ᅨ
##ձ
##ᄐ
##ミ
##リ
##オ
##ᄊ
##٨
##ァ
##ホ
##ा
##ช
##ม
##⁄
##گ
##ি
##כ
##ח
##℃
##ք
##न
##द
##र
##श
##ख
##ん
##ყ
##য
##म
##ी
##շ
##ס
##タ
##ー
##♦
##ন
##ল
##ט
##て
##٦
##ि
##य
##ム
##ま
##し
##ッ
##マ
##キ
##ル
##チ
##ナ
##พ
##า
##ս
##え
##≈
##ן
##ѕ
##ҫ
##ʱ
##ろ
##ャ
##ब
##¼
##ʰ
##נ
##か
##り
##ᄄ
##ש
##¹
##פ
##～
##ʔ
##ᄍ
##∆
##ᄈ
##こ
##と
##ア
##ʁ
##џ
##♥
##っ
##ҟ
##コ
##ɯ
##ʲ
##ก
##ے
##ɡ
##ィ
##ラ
##¢
##ڭ
##せ
##ા
##स
##も
##ҥ
##٩
##◌
##み
##↔
##٢
##セ
##イ
##ᄏ
##¥
##ヘ
##խ
##հ
##ज
##क
##٧
##き
##ェ
##ツ
##ξ
##ᆾ
##ヒ
##ј
##≥
##ქ
##˝
##ٹ
##ᵒ
##զ
##€
##ग
##ᅱ
##←
##´
##な
##ɟ
##ɵ
##ց
##պ
##れ
##ュ
##ो
##ƣ
##ې
##♣
##ᇂ
##ħ
##ड
##ძ
##に
##ҙ
##ர
##ჭ
##テ
##ᅰ
##җ
##ย
##ล
##µ
##त
##ノ
##ு
##ც
##ʌ
##व
##ҝ
##メ
##শ
##ھ
##জ
##΄
##ต
##ソ
##ி
##ப
##प
##₽
##ส
##ハ
##პ
##ჩ
##¤
##স
##ะ
##թ
##へ
##ٲ
##ջ
##あ
##บ
##ง
##ว
##จ
##⋅
##և
##ɲ
##١
##お
##ʕ
##ケ
##☉
##է
##ɴ
##แ
##ɐ
##ץ
##ா
##≡
##ォ
##け
##த
##ђ
##ℓ
##ョ
##ԥ
##そ
##さ
##エ
##ব
##ひ
##च
##প
##サ
##ข
##ป
##ﺍ
##ʙ
##ｂ
##¾
##ан
##ар
##ын
##ер
##ал
##ен
##ды
##he
##ас
##ін
##да
##ат
the
##ыл
##ст
##er
##ет
##ол
##in
##ғы
##ек
##ың
##on
##ық
##ді
##ed
##ия
##аи
##ел
##nd
##ес
##at
##es
##or
##де
##ам
##ақ
##ar
##en
##ор
in
##гі
##ем
##лі
##ір
##ұр
##an
##al
of
##ында
##еи
##он
19
##ыр
##аз
##as
##it
##ыс
##ған
##ing
##ин
##is
##ің
and
##дар
##не
ал
##та
##ом
##ының
to
20
##дер
##ic
##ті
##ов
##ог
##ик
##ои
##ou
жыл
##ым
ор
##тер
жә
##ау
##ion
сан
##re
және
өз
##ты
бол
##ит
ау
##іл
##ады
су
##інің
##аб
##om
##дан
##тар
##il
##інде
##el
##ып
құр
##ына
##ша
кө
##ға
th
##ген
##алық
##ск
##те
##асы
##ec
##ent
санат
200
рес
##мет
##ағ
қар
бас
##ил
##st
##ары
##ac
мә
де
ар
пр
тү
##дың
##am
өзен
##ad
##ім
##et
##ур
##ыз
##ro
қаз
##аң
##ос
##қан
##нал
об
##ұл
##ез
##им
бір
on
was
##ur
##ol
st
бои
##ынша
##ге
тұр
##ның
##дам
##ии
##le
##ап
##ік
for
##сы
##ir
##асында
боиынша
##ly
##ны
##ак
мен
##ең
##ул
##шыл
адам
##стан
##ші
##сі
##қы
##іне
##ция
қал
##id
as
##iv
##ter
##ig
##ot
##ед
##лық
мәлі
##im
жер
##өз
##од
жылы
қазақ
ком
мәлімет
##ру
##мен
##тық
##ра
##ие
##елер
re
ко
##ерек
##лар
##ut
##ест
##ығы
со
##ay
##ынан
##ow
##лек
##ысы
ин
##ith
##тал
##дық
be
al
##ист
##арт
ақ
##еді
##ation
##ир
##із
мәліметтер
жү
with
##ағы
##лік
дерек
км
##қа
201
##00
##ері
##ыст
that
##өздер
##ент
орнал
орналас
##em
##уы
wh
##ғын
it
##тік
##ев
##ers
по
##us
an
бө
is
дерекк
con
дереккөздер
at
fr
by
199
##ая
##еиін
ресеи
he
##est
##ch
##уб
##ран
бар
ат
##но
##атын
кү
##ce
##ag
##аст
##дің
##алар
##ив
##ығ
##их
##th
##ul
аудан
##ав
18
##ver
##ерт
деп
сыр
##оп
жас
құрам
не
##дері
##тем
##ap
##ун
##os
ch
##кен
коды
от
##and
обл
##ден
##ика
жат
##олог
##ain
бұл
##лан
##кі
##аиды
сал
##her
мем
кез
##um
кел
##тқы
com
his
ст
мемлек
түр
##av
мемлекет
##дік
##темелер
сіл
##есі
##ис
##ару
##аш
##ындағы
кат
құ
ер
##из
ел
ре
тұрғын
##иялық
жо
сыртқы
тар
##дағы
сілтемелер
ұл
##дарының
комм
##от
##ель
##дары
##ок
##гіз
орналасқан
##ич
жал
қазақстан
##od
##ct
##ид
қыз
pro
de
##алог
su
##алы
на
##об
##даи
##ess
from
##ип
se
##ег
10
каталог
##тың
##ут
##індегі
##тор
##ылым
##оз
мек
жаң
ex
үш
##ab
ок
тө
эк
##лігі
##ого
##ri
зерт
##ist
##ect
##икалық
##se
алаб
##рі
##un
ол
ne
қаи
ан
##лер
##еу
сол
халық
##op
бер
таб
##ся
##ill
шығ
жағ
##лім
##дығы
##аның
sh
##мір
ar
##ere
аум
##асындағы
жаңа
##ies
##oc
##аль
##igh
##ard
11
15
##ыт
көр
оның
ауыл
қол
деиін
фран
##if
##art
##ион
##ak
##ашыл
##ман
мемлекеттік
or
##all
##ber
##ад
##ld
қат
баи
un
жұ
##ate
pl
шам
жар
ең
##ort
##раф
le
##иц
те
##тан
##ant
pr
км²
198
##етін
##ка
саи
##ich
were
##стік
##пы
##аты
мұ
##pp
##шы
##qu
##аған
sp
облысы
сон
##ымен
##едер
гз
##оқ
ту
##ud
болып
##асының
бел
да
ге
жалпы
##іп
##тары
үшін
##аруашыл
##gh
өн
12
##ie
ұлт
##ong
қор
##ограф
tr
саны
##иясы
##тү
##ity
тұрғындарының
жоғ
##ated
##ive
##убл
мү
en
федер
##сп
дә
жет
тә
жаз
олар
##амент
197
қос
##есе
инд
кең
тіз
##оном
##ame
17
##ке
жұм
##ах
шығар
##our
##ore
болды
##бек
##інен
##ше
тұ
##нің
тер
негіз
##алды
##еп
респ
had
департ
##іс
##ack
##ылған
республ
##гер
##тап
әл
##ияс
ұлттық
ныс
нысан
адамды
##ast
департамент
##ств
##оль
болған
қо
##ov
##ge
##ip
##дегі
196
коммун
##еб
аи
паи
##ля
##ear
мекен
окру
би
зертте
нем
2009
##ту
##тр
көп
алып
ои
are
##астыр
##кін
which
рет
##ough
##са
##ell
##тері
мин
жылғы
##ment
13
14
##иль
құраиды
##ian
not
##ia
##ial
##екті
##еск
индек
из
##ми
әр
16
af
##лен
##стит
кл
##ақты
құрамына
##pt
аз
##ound
2006
##ost
##ight
##қар
ав
##ост
cl
##ация
194
##аңыз
бал
ұз
##тің
##асты
аим
##түстік
wor
##тау
елді
##ine
әк
##gc
алабы
жатқан
##урст
##out
sc
rec
##ақтар
##ust
##пар
##ылады
іш
##уз
whe
ес
кар
пар
##ary
тур
##ных
##иет
сә
баз
ресурст
республик
##на
кеиін
пер
##oun
##естр
кон
br
инстит
##дал
##лы
алм
ғылым
##иг
##ана
ad
##cc
##ысты
қызмет
жол
her
##og
##ical
195
ене
##ология
тағы
##өн
##шаруашыл
енеді
##тен
мар
қаб
##iz
франция
өте
мәліметтері
үл
##ave
болады
сушаруашыл
comp
##ро
тіл
##act
кі
реестр
inc
дем
жан
##ілім
##иғ
объ
but
##тті
оң
fir
##нои
##аж
##еш
деген
##ож
бат
өл
##аг
##ord
аумағы
##ther
##тын
##ыш
##so
##тел
немесе
this
##рит
##ли
тарих
ab
am
##қыл
ос
##ould
пол
##шілік
##імен
gr
##емп
##улер
##ous
cont
осы
tw
том
int
##ина
193
##гінің
new
##итет
##ания
##ологиялық
##дес
##ғаш
##ұлды
##ions
after
жөн
шамасында
first
##ure
базасындағы
оиын
орын
##ре
##ют
##ода
##ish
##инал
##ұлдыз
res
##уға
эконом
бөл
mar
##ue
its
##ғыл
##алау
баилан
##ub
##ус
##ign
##per
өзендері
##ok
man
жел
all
сп
##ные
ұзын
про
он
табиғ
кр
ата
өс
their
go
өң
one
##лері
##иб
##ase
##ныи
##унал
пош
ас
департаментінің
##есс
##баи
##ome
##ическ
тау
коммунал
##ass
сү
per
белгі
us
күн
жатады
##age
she
##бол
##ұс
##шысы
қарасты
бөлігі
бұ
өт
екі
коммуналары
гер
аст
қараңыз
##пен
##ire
жүр
also
##ти
объекті
##ond
tim
cr
##истр
жоғар
мекендері
оқ
rel
##ater
##oll
##гін
##ide
ауданы
стат
ser
##ного
##ност
##аттар
сағ
##ада
##иел
##ans
##orm
зерттеулер
##тір
##du
part
даи
св
##сті
##20
ресми
тығы
##лектр
ag
туған
##өл
был
fe
түс
төмен
тығыз
##ile
##асына
жақ
пошта
##торы
des
жоғарғы
##ения
they
орналасуы
##аттық
ngc
##ылды
##ылыс
two
әкім
электр
25
нө
comm
кір
гор
app
жылдан
dis
##анд
индексі
өмір
##hed
тең
##ери
демограф
##алған
орт
##ence
##то
##ff
нөмір
00
қолдан
have
тізім
##дастыр
##ва
ұзындығы
##ілді
##деи
##ба
##сет
we
##ма
##алары
шығы
2010
##ally
who
##pl
bec
##end
арнал
ем
статист
##дардың
##ется
жұмыс
ro
##ry
##ition
топ
ак
##ance
##хан
министр
##пер
##ыстар
im
дам
құрады
##ice
year
30
отыр
еңбек
off
қыр
##ілген
##сіз
##ra
21
өзенінің
##own
##ама
##пн
##шылары
көрсет
car
басқа
##лем
play
##ағына
##ru
##ықтық
жылдың
жөніндегі
##кер
им
шоқ
##ree
фут
чемп
өңір
тол
чемпион
кор
been
##ян
has
мұн
1999
##асыр
коммуна
co
##ник
##ely
қаш
ағы
##аны
табиғи
соң
саласы
##uring
##ory
тығыздығы
арналған
##ылуы
мат
##ным
##қылы
other
гид
кездес
##елі
over
can
солтүстік
футбол
inter
##ult
пен
қам
тұрғы
##ят
##ace
31
әск
орта
ден
ен
дж
жағалау
01
сая
##уты
##lud
##ations
раз
дү
##бір
##асын
##ерс
округінің
##рет
тал
алабының
##сер
аш
bo
қаита
үлкен
кеи
192
out
##ритор
территор
сондаи
##акт
##иясын
демографиясы
191
##ember
жылдары
##ль
##ган
ev
##wn
##сінің
##нан
te
up
24
##ach
ғасыр
институты
туралы
dec
fl
мед
##жұлдыз
алматы
##ier
арал
алғаш
бағ
жын
##шылар
##ail
pre
##рат
##ke
##уд
##талған
##ii
##ens
өтеді
##пнұс
түпнұс
fin
##еч
шоқжұлдыз
##land
##ни
даиында
when
арқылы
хан
att
##орт
22
##ib
қазір
##дастыру
##еж
##ite
2007
##ынды
мет
бұр
##ғал
бү
##ount
##pr
қан
##еин
гидр
##one
кеңес
03
##дем
так
##ang
##скии
##инг
жүие
##ade
##тағы
sim
##ки
##иым
нә
##ую
##стер
time
сақ
тан
fil
там
##ward
аит
##уль
тел
ретінде
em
мақ
me
экономикалық
##urn
includ
##ғам
##ациясы
##сіп
ун
bl
ам
сл
##ict
аген
##ates
##же
##ced
##сан
during
федералды
##тін
##еке
ind
өнер
sec
комп
would
##ks
әиел
##man
қараи
##ение
27
қатар
болатын
##ited
##еиді
зерттел
23
ext
карт
статистика
гео
##изм
бет
##we
##еств
уақ
тұрғыдан
act
аимағына
##стр
паидал
әлем
##уге
him
ресурстар
жең
##ле
олардың
ear
##тас
into
##параттық
сер
##int
ресеидегі
тр
жария
##си
par
шық
jo
хал
cent
министрлігі
##ами
год
тек
##го
гр
##ци
эт
film
кс
ая
сөз
war
ағыл
ағып
char
баиланысты
##уш
рф
қау
##лары
қои
нөмірі
##amp
ді
##ased
##ная
агентті
федерациясы
мүм
жүз
##ick
кен
қашықтық
##ков
##nder
құрамы
##ix
##кіз
паидалан
##ied
экология
өзеннің
облыс
##aw
аумақтар
##лау
ішінде
##ум
el
мам
кет
гал
##ose
бі
##оч
##тады
2008
мүмкін
##itt
##онды
тізілім
##able
##таи
жаи
агенттігі
жоғары
bet
more
бек
кә
##дел
##ара
##бе
##ияның
қазіргі
##ью
##ces
##ft
##орм
мәліметі
даиындаған
ресурстары
зерттелу
өңіріне
##уір
жау
##деб
аинал
гидрологиялық
##old
##бас
##сат
тізілімінің
көш
##les
##атр
##ции
көз
##дет
28
сағасы
газ
шығарылуы
аудандастыру
аумақтарынан
##ents
мәден
##иверс
##ild
##ла
төр
##ко
шығыс
томының
##ақпараттық
геоақпараттық
сушаруашылық
тех
сушаруашылығы
негізгі
cons
##ілі
000
##vel
саит
тұрақты
универс
##уі
соғы
ағылш
acc
территориясын
##інші
реестрінің
жүи
form
уақыт
объектісінің
эн
реестріндегі
мон
құи
бөлім
##way
##30
##ье
50
##иф
клуб
26
қара
қашықтықта
под
мыс
республикасының
gen
во
кол
ашыл
мекте
ортал
air
әкімшілік
күш
##ors
әдеб
##шасы
пор
деиінгі
еск
##ind
game
авт
##ings
франц
қызыл
##иядағы
жағдаи
##ое
бастап
while
##се
##form
тип
##ние
##оқсан
mus
тас
дв
##iss
##ons
қоғам
2002
ass
##port
no
өнді
желт
##ылып
##quest
##ake
##раз
##аус
##қын
100
##ымдар
thr
nor
нау
##ыб
##сын
##ылу
produ
rem
##ұлы
##нов
коммунаның
##ican
жағалауынан
29
most
##еф
обь
qu
мал
##там
ұш
кітап
рас
сар
желтоқсан
##gr
сен
маи
##ург
келген
француз
col
##бер
карта
there
##скои
еді
бірі
##ood
пл
оны
од
##50
##aus
song
##дыр
##тыр
bu
##ey
map
wr
##fer
түрлі
kn
батыс
болм
##reat
##ход
##иров
how
бірінші
##ious
республикасы
##ubl
төменгі
жи
##елен
##10
как
##ph
pe
##став
40
##att
##шісі
##ілер
бірақ
##ction
##ске
университет
##ved
үи
ғылыми
көк
sy
заң
##нен
reg
may
later
анық
исп
оңтүстік
тем
mon
##тарда
шамасы
ph
кезінде
##ное
##пр
##ational
under
only
емес
again
паида
##кр
so
2005
картада
құиылыс
rev
ret
орн
##oth
екін
до
work
ерек
тәр
францияның
жариялан
аб
##te
тір
about
пред
шаруашыл
##ала
алғашқы
##гері
для
кезде
##дау
##лам
than
##gan
саиты
герман
фил
қоз
жынысы
ди
some
тор
пос
саитындағы
bro
индекс
муз
##als
қалып
##rib
ғана
сы
ти
##ock
##ақшасы
қас
##ант
##імді
еур
ұиым
года
##ова
##see
##оф
##ath
жеке
dr
po
pol
##ason
2011
them
теңіз
##тіп
франциядағы
жап
##уч
іст
##ме
сурет
##лікті
##eld
##rop
мың
##баев
##рем
through
жүргіз
##тердің
ақш
##аф
картасында
парақшасы
rele
##ween
three
департаментінде
insee
sa
ma
электронды
##аралық
жин
mapquest
min
between
пров
##ғыз
институт
##hn
day
шар
##ug
шек
##ец
ие
ac
li
high
қу
##ics
ман
атал
қарсы
ауылдық
##деу
##outh
ет
сам
қатыс
году
ep
орган
end
eng
қаж
##ать
қаң
##ollow
##son
болса
##ского
географ
##асынан
ака
наз
дүние
record
##атор
ic
##iew
орталығы
то
##кіл
екінші
##hip
куб
таи
қыс
галакт
өзге
world
при
190
##қты
sm
білім
##иясының
күр
##ered
second
amer
кезең
нәти
pres
do
##імдік
см
мүш
##fore
маус
##ters
follow
##тардың
алды
бірне
##ук
##40
бағы
num
оиыншылары
##теген
##orn
сау
маусым
sub
есеп
әді
##аиы
бірнеше
##тіл
тарихы
02
бақ
шығарм
туғандар
фк
##ирек
##итель
##io
мол
2012
north
келесі
басылым
cap
орталық
##ильм
##есінде
сов
def
ис
##елері
where
##ющ
##бі
ұлы
барлық
spec
жі
##іледі
##ект
##амб
жерде
басты
gu
ксро
##60
2001
##үр
##ақыр
бр
итал
##az
##алады
pos
##амен
##ном
##есін
през
##атив
##цияс
four
атындағы
##арлар
##сыз
##ікті
mov
##ее
##ular
галактика
нәтиж
что
әдебиет
##иек
арн
##атты
##ral
##ұрт
белгілі
45
##ульт
publ
team
сип
##ло
35
академ
##ss
##қым
табылады
техн
before
dat
##сел
##iн
орыс
sur
##улары
80
##жан
себ
##аитын
##ision
2004
alb
##арыш
##ых
шеш
кем
тізімі
ірі
тоб
өсімдік
##ames
басқар
қараған
өзінің
##ep
lar
##ушы
32
ап
тұл
өткіз
sing
sch
##70
##анды
мер
мәдениет
##икасы
көптеген
will
##ности
қала
##атур
театр
##ию
өр
##ағын
##ode
##рам
мұр
##пан
##дықтан
arm
##асс
ғарыш
бітір
ән
##др
##үл
##ived
made
ме
##ард
##іш
беи
2000
қазан
such
шыққан
##ңг
еуроп
##air
бұрын
##ating
##қару
жоқ
season
округі
##ton
орны
тап
атқар
art
nas
қабыл
алу
count
gener
за
str
##90
ed
ақын
years
##жен
##hes
extr
60
қаит
##ished
call
сонымен
аң
мо
қорғ
келеді
loc
south
33
германия
әскери
inv
қажет
##сен
##ня
әрі
##ained
##ever
##ые
##інеді
##ve
парт
##ғаи
типті
##лов
##actic
2013
қаланың
##ury
таң
ру
халықаралық
дін
тағ
##tern
##let
united
supp
амер
или
ғал
ip
фильм
тізіміне
ұр
met
##ыстық
sever
##лав
##ected
add
бірге
##гіне
мін
музы
##ank
##ection
##au
epis
##ред
##ардың
##ning
stud
##аға
қон
##21
тарм
##ily
үз
##шылық
##ағының
деи
бөлін
##ров
##или
show
соз
месс
##80
көб
##али
##ife
алады
құрылым
##терін
##ific
##oup
аудар
album
##ван
##аман
##алдар
абаи
уч
back
both
ерті
проф
сия
##ement
ашылуы
ағылшынша
mill
##ual
воз
бағыт
however
datab
түпнұсқа
мектеп
then
##ри
database
темір
саяси
nasa
кал
қозғал
bar
##ғыш
түпнұсқ
##ery
жаб
being
##алдық
нысандарының
##лю
##velop
іс
аль
##bad
алтын
оқу
бөлі
bel
мун
2014
##екс
әу
rece
атты
##руг
жасау
керек
inst
французша
well
##діктен
##гінде
##alactic
##ланд
lead
op
##цион
нысанына
long
көл
2003
##елік
used
viz
қаралған
mc
част
құл
алған
these
басылымының
##сыл
##ale
құиылысына
жарияланымдар
екен
##рав
зерттеу
##иан
34
##еитін
вер
##ора
found
проц
мессье
vizier
шоқжұлдызында
##ather
каталогтың
##agalactic
каталогтағы
extragalactic
түпнұсқасындағы
simbad
ipac
ter
##ием
##urr
##уына
##olog
##uc
ск
әсер
set
сын
against
##лин
кіреді
##iet
түрі
##other
many
бекі
series
провин
##ert
хим
сап
main
асп
##led
##anc
##алардың
charac
##ются
үн
inf
бә
develop
##ivers
mat
ки
##кт
қаитыс
##ines
сияқты
сат
##сон
тәу
тұрады
pop
сем
states
##ыстыр
##ықты
##ince
dire
city
##лед
батыр
##igin
##ool
пат
##ья
қыт
##га
атаулары
##ise
бу
нов
##oy
өзені
music
##ause
number
hist
жеті
trans
арасында
##ицип
но
batt
##кімет
өзі
state
##сии
##дерінің
cre
муницип
мор
##еге
##па
дер
үст
perform
ген
origin
##aps
##кү
38
36
##ғыр
қатын
маң
including
##еті
маңыз
оған
кеибір
қытаи
##ower
early
кездескен
##ont
печ
##лығы
##она
1998
түркі
нар
фр
##22
фак
##рыз
сек
##ures
##дігі
жылдар
әрек
##улар
##дж
##sp
##vern
кубог
##дас
наурыз
##гр
нас
became
la
гол
его
70
##ised
өлең
mil
several
қаласы
##рад
әскер
##иж
ауданының
стан
##ись
##исс
вы
ob
өндірі
тоқ
john
##бр
тілі
##тегі
келесідеи
##тып
түз
##its
##ырақ
##есінің
сипат
##11
##ork
форм
##ынған
аяқ
##гал
врем
мөл
мәсел
марап
кәсіп
тұқым
мамыр
қосылу
sl
сыил
##мин
боль
did
соғыс
объектісі
##ылаи
мұнаи
dist
ек
est
nov
астан
##ылатын
ку
05
қр
жарық
##еген
ann
2015
##пи
жур
1997
баш
##теу
мысалы
##ғының
##are
құрмет
##ities
episode
прав
каталогтарда
189
кер
кездескендіктен
govern
комитет
##ole
##гл
##пақ
порту
##уж
прои
##ществ
##би
##ann
##яз
##дерін
тұлғ
матери
##дір
также
##ouse
##вля
әлеу
##ative
##ить
жыр
ев
халқы
орден
қаңтар
жұлдыз
188
рад
##его
құрыл
мл
пост
pers
##ду
##аптары
##теді
өзгері
##ность
appear
##терді
##ley
##кері
##der
said
##вер
serv
спорт
crit
37
american
##px
##дердің
тұрғындар
жерінде
толық
##кіш
түсін
сө
журнал
##таб
##ех
бітірген
өлш
бастады
бан
brit
##сақ
design
рос
king
med
##xt
##ll
mod
##ross
##ығының
өткен
##ось
##алл
contin
деңг
которы
шіл
дан
dep
котор
west
39
гүл
##ио
оқы
group
##elf
1990
жарт
##ful
div
сәуір
қазақстанның
##ыи
const
##uch
##гілікті
exp
##til
##тамасы
win
could
##ield
хр
##ron
физ
aust
oper
sign
##ird
direct
кан
онда
перв
док
дол
##ought
##фер
##дин
disc
беин
prov
##ства
түсті
мөлш
##азы
шы
1996
аимақ
мұх
др
##імі
арт
##eng
desc
тік
ист
ii
##тілген
город
##етр
жергілікті
national
##ah
тамыз
астр
dif
##ская
##iam
##ствен
ету
near
fam
қыркү
conc
дин
##ty
ауданындағы
марапат
сәик
return
иег
##геру
арх
жу
mem
оин
any
##iver
1992
43
##құрт
award
##ica
57
gre
беру
##ange
##оя
port
following
47
down
##ism
нор
alth
ste
run
басшысы
although
ағ
cor
опер
id
my
береді
jun
кіші
одан
географиялық
бор
##ern
ұст
әс
ром
шаб
##ually
қаират
own
land
вл
бері
сұр
##жел
кин
##row
импер
##сін
әлеумет
115
known
offic
##дарды
ger
##фр
pgc
##ject
##нач
теор
лю
##ңгі
##enn
##ован
##ылм
cour
провинцияс
башқұрт
күи
feat
rep
мең
асыр
көлем
##оны
жазу
дәст
алд
pass
##скеу
лен
##ob
болуы
облысының
основ
қорғау
red
кеш
баиқ
##ele
шет
жем
мил
мәскеу
54
eff
жақсы
##аин
##ued
друг
##ident
чер
##таған
астроном
open
алаптары
##gin
қасиет
##қор
school
because
like
2016
##ских
заттар
әрекет
1994
##елеи
образ
prev
##ople
##иев
##ium
жағынан
##еда
ship
яғ
##12
ерекш
har
лиг
түрде
##ьер
##aking
телеф
along
шын
ші
imp
1991
##stem
нач
until
began
08
дирек
##ство
called
##ена
біз
яғни
released
мак
қауым
шаи
саб
1995
##ека
ашқан
прин
##ull
##ными
##дак
##ccess
көм
##естер
дәл
07
ішкі
04
мән
resp
##ists
##ution
өлк
##ined
##ықтар
тарихи
заман
##юр
оп
##аида
##шілігі
million
медиц
қатысты
##ys
av
##скен
life
бағдар
just
point
тармағының
59
##стар
азам
55
44
ода
шаш
соңғы
явля
##зв
азия
system
##ene
##els
1993
##аев
мақсат
186
##икл
аин
шо
bg
кездеседі
maj
##yp
##ided
қи
##osed
48
қалыптас
##дарын
46
укр
42
үкімет
best
чел
зат
каз
орында
таз
ju
шақыр
##яд
сред
##ении
редак
бастау
состав
star
із
маг
##ially
people
aut
09
49
ge
##ized
001
бл
темп
##ативтік
басқару
португал
##iң
##ерг
##ецк
##ығында
##000
шө
башқұртстан
дәстүр
##истік
##кент
##ины
ғасырдың
gl
##эн
##ізді
син
##тон
lo
әб
bre
презид
бөлінеді
var
class
ауру
##ырау
##циясы
аиыр
wee
##атының
around
compan
##талды
##ured
##ina
нап
##илар
қыркүиек
тәуел
##талады
дәре
балық
hel
41
##кем
сәикес
сің
жерлер
##bers
без
##ср
қаласында
көрін
64
since
##астан
coll
adv
араб
##гар
if
шілде
##аян
##cl
##ива
##шілер
ever
сәул
##инск
ақпан
зап
head
univers
##red
еділ
##яр
##oot
##ains
бес
әлеуметтік
##енің
##up
##ession
чемпионы
еуропа
филос
aug
east
тарт
пал
##ts
##cept
ауыр
элем
бүкіл
same
ви
65
dem
sw
##мб
музык
road
##ove
writ
қалалық
90
##gest
##ымал
##uss
public
көтер
үил
дәрі
ник
дост
##get
tri
үздік
##ments
пов
prom
six
автом
62
##тыл
##ane
арасындағы
соб
кам
##ently
sept
major
success
##леу
өнім
хат
conf
мас
##кә
философ
шт
58
##ott
ғалым
arr
қараша
187
дом
##аларын
##аларды
болмаиды
##ысында
стал
use
бекітілген
##ark
професс
che
det
сары
##und
occ
you
##циялық
##ную
күні
##ыстан
august
##андық
нысандары
line
мүшесі
тәж
each
mcg
##ruct
september
describ
75
##неи
жылға
support
##ісі
отырып
нәтижесінде
##amed
##ольз
oct
темпер
house
еш
сұл
сондықтан
ерекше
дау
67
нұр
##ible
деңгеи
қарағанды
area
төрт
##iл
##ired
қарж
##уп
start
km
character
құм
##иден
1980
great
ағаш
##bo
эксп
енгіз
final
small
қалған
build
53
конц
result
##пол
another
президент
##ели
soc
қосп
56
##ended
##ble
температур
құқ
цент
51
финал
attack
бил
##ими
кес
түсір
1970
##ерлері
##ея
поэ
##aph
раи
##ants
ли
old
лу
таип
##ues
адамдар
british
austral
ір
##шек
##вет
жж
took
биік
##өбе
book
реж
##кеи
camp
##hing
##дыру
даму
##ets
адамның
mid
##ияда
энерг
##aving
##аларының
жану
білді
қатынас
аустр
басп
##sc
сез
мест
##тарының
олим
vers
орынбас
сим
##aining
report
ах
##ох
иде
band
кама
century
five
##ner
intern
xv
құб
consid
етеді
алекс
government
дәуір
77
біл
##ауы
##ik
##терінің
вс
##ида
##атель
child
ауылы
терең
##тарды
міндет
mag
##дап
арнаиы
hal
complet
chr
##ям
##жыр
совет
бау
##aced
##ober
больш
german
шаруашылығы
mark
del
құрылыс
##еден
келіс
52
города
##app
sk
stre
нысанды
қоң
келтір
##роп
##ink
##тамасыз
october
##уст
алаң
ra
##ives
нұс
##ындаи
жасалған
команд
right
eu
каталогында
ест
зак
rout
##лардың
нөмірге
нен
өзін
turn
раб
##hern
89
contro
жағдаида
76
##ыстары
tit
##ility
рег
general
қамтамасыз
негізінен
partic
received
wind
##ағанда
##ically
ұқ
маңызды
leg
##ди
әул
##шық
##таиды
##олько
##inc
last
орынбасары
##enc
шеб
##ural
аса
ke
россии
##есіне
пав
##лас
##шақ
рек
##ger
68
1989
құрамында
негізінде
қолданылады
гру
ежел
review
##ately
##na
бақыл
##лор
ent
##ales
person
val
##iving
death
##13
short
ық
елдер
ислам
млн
home
время
кап
##ені
ref
федеративтік
due
әз
жүзеге
бұрынғы
ескерт
гос
төрағ
меңгеру
ұсын
газет
103
left
##ins
##ола
бос
прот
кеиде
##ому
кв
рөл
games
баиланыс
##ух
өнеркә
march
рим
june
##терге
егер
law
what
##ария
conv
rest
астам
әдет
cast
тері
##дия
эр
2017
story
көркем
шал
дүниеге
сүр
профессор
саясат
power
##гог
##бург
наи
jan
жиі
##ored
##шіл
құрылған
крас
men
##ric
##15
дел
##су
арм
англ
##14
1960
black
болғандар
command
бұз
##басы
cal
##арлық
тәрізді
fur
##ления
way
стр
much
single
динам
06
##ики
хар
грек
66
эп
185
тыс
##лет
ад
prot
қамқор
##ax
##ңғ
top
ертіс
##улы
мұндаи
##қыр
july
##ата
1986
##br
##алитет
##lish
family
##вест
york
care
использ
incre
алтаи
##ission
##ріп
##ison
ir
##мұ
vis
вал
рез
2018
хор
лау
##ogr
gun
сүи
##удың
пом
kill
##ліп
##ағында
##over
##ку
##лердің
based
##олю
истор
##уды
##hen
november
third
қоғамдық
track
event
ағылшын
##төбе
##ович
элемент
оларды
town
муниципалитет
500
park
үнді
ant
##ғына
differ
##ime
accord
apr
мез
##аса
##амм
##ague
шв
энц
##ute
шықты
63
183
##ians
түрік
рус
hum
ста
##oss
тұлғалар
large
88
bus
##aim
allow
##ient
хаб
жалғ
сіңір
company
қыш
құн
биікті
##жа
pat
appro
##ively
облыстық
мүмкіндік
history
ми
even
мекеннің
##пе
squ
##omet
1988
##ош
етті
##iii
##атар
##ilt
april
соци
жақын
кубогы
ир
үлгі
river
бен
club
астрономы
астана
автоном
hand
progr
##онд
##тарын
##urch
december
##ань
##empt
ang
##ms
ортақ
##idge
##оде
expl
меж
capt
##чи
##ила
vide
enter
##ынады
түрлері
##raft
##ғым
жұмыстар
place
жеткіз
ежелгі
зав
алаида
##орд
##ония
саилау
post
now
өзгер
##res
кур
маш
##лде
##ылық
##ats
month
пс
##bert
##por
##23
жолы
##опед
##удар
##ling
жібер
69
##анов
##ten
##uary
dam
##eal
far
вол
spe
после
сот
1987
##side
жос
##25
##ash
##ages
вел
species
выс
атауы
дал
тұратын
сөил
##ified
78
сұ
##цен
прим
бағдарлам
150
##ыстың
қауіп
орал
times
это
все
army
ни
тың
жатыр
##ret
addition
vict
##зы
ті
##ony
гар
##едел
ele
ескі
қатты
73
келді
их
мәдени
name
##ығына
меңгерушісі
қазақстанда
түркістан
мож
##min
##ball
led
боиы
##by
дәреж
##erg
island
##erv
тран
##ital
##ench
##ало
##аттың
rad
жетек
ұқс
according
сев
орман
storm
wom
сор
шабу
көмір
салм
были
##ister
##ыва
85
##ting
кас
биіктігі
##ention
басқарм
##түсті
шарт
каф
ақпар
маз
##ody
included
water
нұсқ
##каз
##ень
иегерлері
##sh
##med
аиналды
педа
within
өлкесі
факульт
##има
нек
##16
пет
##лич
си
па
##умен
##avy
##ience
сауда
интер
##ғанда
##rote
##18
шығару
банк
##қыз
bill
polit
метр
билік
педагог
europ
тарат
партия
белсен
##аттары
##ится
elect
александ
тәуелсіз
ның
##ne
##ица
##19
өкіл
саиын
##ще
##унк
##24
##кір
өсір
##тин
было
күм
қорған
organ
етіп
механ
300
university
уп
previous
##ides
оқыту
аға
жүиесі
##қои
##aged
##ior
отан
##сында
##уда
жамб
##гіш
жетістік
1985
original
қысқа
сыз
маман
stand
##фф
init
##ыв
балалар
belie
##ven
white
wrote
печора
автомоб
##apan
played
champ
opp
металл
##мер
184
production
гл
кру
шаруашылық
дыб
iss
кср
##гел
##ато
тұз
##сіл
##кел
##бар
release
bas
берілген
still
шабуыл
74
тән
attempt
сақтау
саналады
жануарлар
##ared
олимпи
make
университеті
won
челов
қоңыр
зар
##af
##wg
##mer
піш
canad
##ences
late
real
##итын
xx
ле
##ьев
президен
described
##ығын
january
##28
##анда
among
##hest
авторы
##ps
әсір
ла
болгар
named
жинақ
japan
сөздер
zwg
бірл
тұрғындары
одн
nat
жамбыл
##aff
##iм
super
ашық
##сыр
typ
минер
foot
қа
1984
##ские
1945
##за
себеп
##ee
фер
қоспағанда
##пал
those
commun
rock
құрал
эл
жылдық
қаласынан
##iod
##omin
автор
sold
##тарға
дон
является
тұрған
джон
##делі
##itions
deb
milit
##дарға
##ilar
білдір
##ғыст
video
стран
view
sol
##огда
##истер
##ption
берді
route
##yr
list
сел
christ
##емат
государ
орташа
further
##циялар
very
##емен
europe
2019
қағ
effect
қамқоршысы
pa
##кин
разв
қабыр
##bs
force
league
произв
мах
##17
ұшыр
##iation
академиясының
шекар
##akes
халқ
##ival
##ась
тын
##atic
week
бақылау
құрылымы
##хана
құрамындағы
рев
##ted
##паи
##ұм
repr
youn
repl
next
##ілік
nort
ға
##лігін
вен
мерз
тақыр
##ине
была
иб
tour
##ology
battle
тақ
tele
аталады
##ике
ерте
әсіресе
##бор
exper
бастаған
##теп
dest
1950
##ысының
италиядағы
афр
##иссер
##ырт
округ
бастауынан
roy
##ации
##iven
service
poss
ec
бо
plan
95
former
##онт
similar
87
##аиым
period
##ances
##aken
##iнiң
good
сах
##дерді
99
##ыста
өзара
##рлі
##ікір
баян
же
мод
құрылды
провинциясында
1982
ұзақ
тілінде
ve
компания
жағда
division
##iр
prop
жауап
though
қарап
##lu
##қас
french
реин
##ren
##ач
дар
лет
cle
тон
энцикл
##жым
test
180
##augh
псих
##ached
ненецк
ері
##ілетін
##істі
sound
прод
энциклопед
##форм
##жү
local
##line
##ников
енді
##ae
##актер
##27
court
pet
match
президенті
assoc
press
members
##еуі
директоры
жетіс
термин
held
##26
сұлтан
көтері
келіп
##ech
әзір
аралығында
estab
##bru
име
медицина
семеи
мм
##оды
1976
##ирен
1972
##кені
жартылаи
америка
built
##hor
79
пікір
ақтөбе
студ
1930
автомобиль
86
суб
аты
более
##нир
##ness
болу
аиналыс
центр
days
екат
қажетті
geor
fre
vi
##ented
eas
##ying
мөлшер
жоспар
қырғыз
ант
##ract
##ars
prof
desp
mount
##ense
тұң
##делген
order
1974
қақ
##bn
роман
begin
97
role
##ulation
актер
атырау
телефон
ом
##даған
##ымды
178
бірік
##дігін
ока
##раж
control
өзбек
febru
february
caus
je
келісім
представ
side
help
1975
equ
coun
say
##ушылар
tot
кітаб
##ующ
vir
william
1978
мик
sout
пә
##ney
##ауға
sum
##ылар
түрк
96
кафед
масс
жоб
light
##итор
##еди
##естік
өмірб
талап
##лу
##amm
та
##лап
тыр
1941
tem
arch
турнир
тіршілік
vol
1979
1973
жауын
few
план
басында
тұт
тұңғыш
##имар
нан
көне
1983
крист
##еит
танымал
mer
##анған
қорыт
international
регион
fire
компан
##аларында
half
зор
эм
ұи
ленин
бур
депут
түрлер
##ropical
ертіске
шах
медал
статистикасы
##жүз
##люч
having
##ogle
марапатталған
кг
##ator
получ
county
экономика
##отор
связ
##овтың
жылдам
қызметкер
##ched
тұрм
тамыр
мәселелер
кеиінгі
##ler
party
##ота
1981
##ног
шың
мағын
қалың
president
оз
##ize
##ирован
жор
lab
сырт
##стері
1966
##орын
google
мекем
often
жататын
дамы
шұ
##ipp
##estern
тәжір
##стің
##орда
діни
##аиын
sug
stat
every
қызметін
##тель
фин
##ощ
##лігінің
##ғыс
басып
өсімдіктер
##ograph
beh
##lex
##ических
##тыру
##bc
mo
жек
##ғақ
века
san
##окс
комитетінің
##эр
көбін
##егі
христ
гран
двина
##uted
италия
ғасырлар
оил
##қыш
1971
pri
##29
never
көмек
came
low
##сау
бург
салыстыр
общ
##маи
ус
##ари
take
әкел
england
##енді
sal
қосым
##wards
пь
mor
дамыт
дүниежүз
84
83
##талып
##еля
республикалық
##бег
##илия
##ленген
common
##ское
##бат
жеңіл
royal
нү
##дарында
without
##ическои
тәжіриб
##ланған
claim
север
шағын
1968
ұғым
##енно
bur
аиында
##itten
see
тобы
player
lond
өтті
##бегі
iii
considered
##ости
less
fact
cross
rom
##ерн
сво
атау
aff
london
##ящ
альб
##түрлі
chart
тұрғыны
##ama
1940
уақытта
##сылман
әдетте
коми
функ
##par
tre
##eder
career
cover
тез
халқының
чис
level
ескерткіш
мұсылман
##иялар
##ruction
mich
жиын
сіңірген
despite
жои
көбінесе
development
хабар
##ены
##ana
version
санының
comb
жері
histor
олимпиада
night
түрінде
cop
зем
оч
fun
love
##rodu
different
инжен
испания
қарағанда
химиялық
орнат
ғимар
құиылысынан
дек
##іт
аталған
1967
бав
1964
этн
don
ло
sty
себеб
repres
мұнда
continued
ten
салынған
sent
##ском
##ices
род
##дарда
anim
түскен
соның
##імп
бала
##ысын
наход
өндіру
фар
шару
түи
94
##інді
##ает
##read
##пии
##нам
military
##есті
әкесі
облысына
##ыч
field
шешім
sel
##ried
белсенді
төрағасы
күрделі
##яды
жинал
есеб
поз
let
уә
америк
dav
мои
##нит
әдеби
##шік
жеңімп
құқық
##ards
моз
##ещ
##шель
##деп
##ымыз
свои
кеңесінің
дәстүрлі
ее
даиын
бастығы
клим
жасаған
әртүрлі
1969
аитқан
қаласына
украи
бап
##ово
1961
##press
93
мектеб
##ots
1977
ке
##hel
invol
вид
##гор
марк
country
стар
isbn
litt
cy
##іні
##umb
mad
##ck
##onom
өседі
forces
үр
##vision
##iend
##иды
chang
wat
іске
поп
бөлік
mi
##co
influ
##етті
lat
songs
fle
english
announ
##ones
аур
lim
##дi
##ослав
көң
hig
аимақтар
1965
күміс
знач
##фор
##езия
жазылған
канд
##орск
##aster
иван
become
written
аралас
әңгі
прог
want
жүрген
назар
отырған
##ves
##аим
##ief
сыилығының
медаль
алынған
miss
gold
сост
ради
champions
қап
##ысқа
phil
##ияға
көшесі
арқ
шығып
дор
пери
##ует
қаңтарында
##ерлік
1963
шамамен
##омб
тораб
arg
анықтау
келе
highway
##ғар
colle
иск
98
total
street
##атов
матч
##аяны
iv
##асымен
кірген
берілді
##pg
trad
распол
wal
влад
##уын
##ивті
жүлде
капит
10300
атаиды
1920
moved
##гіл
##ірек
##теріне
мұз
кеткен
little
tro
класс
содан
қауымының
фор
басым
негізін
1957
##iety
##леи
project
қаласының
1962
lost
##ese
анал
friend
патш
көтерілі
##ита
author
father
вост
##иру
неи
жуық
1958
##цев
халықтың
##илер
топырақ
refer
##que
қаласындағы
##ком
##рах
тікелеи
rail
##ника
##ai
ауданында
broad
бауыр
жағдаилар
##уіне
существ
conn
##енных
##нек
##игі
##ille
##ops
suggest
##ams
##деиді
strong
мир
құрама
##яв
нес
шоғыр
building
жасады
position
jack
##iter
bat
бавария
ауыз
қалды
##есіп
##вор
университетінің
өнеркәсіп
бола
##лион
табиғат
##yn
дене
##ларының
құрамасының
1944
тапсыр
##ста
##ура
##iness
нам
шир
##ged
##ыны
import
жетістіктері
son
##ших
сист
математ
баб
##тес
нақты
##irc
front
pal
қазақтың
еркін
##іпті
##ows
үшінші
есім
тен
ала
##деген
жүргізу
##қаи
##ising
ұя
әрбір
##сіздік
болгариядағы
##ца
мәж
##тану
ins
western
ион
социал
##ление
children
ақм
лин
given
hy
##self
қарам
published
шым
шығады
жасуш
bgm
tropical
еткен
ord
ұиымдастыр
##urs
emaps
bgmaps
чемпионат
тру
##ылыстар
##жар
қаржы
екатте
шә
только
реак
сил
өмірбаяны
002
##elt
отр
##aint
1948
120
мөлшері
##ако
институтының
get
hun
юн
меи
find
trav
қарастыр
##ғыстау
қарсыл
1959
400
##ета
##шар
ұжым
өит
зия
mot
көлемі
гу
##дармен
вод
қабылдан
##ency
ұқсас
##терінде
young
##адр
particular
read
мақал
##lin
using
1939
age
##ались
буд
##пт
hour
дәлел
wall
##uck
##оян
##ches
##ования
вас
##sequ
түседі
кандида
##cess
имен
##34
##ьян
##так
hurr
тұрғындардың
ауылынан
##быр
##нев
compet
requ
hurrican
##ильям
1942
produced
returned
##тқыш
eight
материал
қим
##ories
қарақ
##аил
сом
ғылымдарының
tur
##дерде
атом
church
извест
cas
жағы
шыр
##oint
күрес
мог
ақпарат
somet
граф
аман
глав
қарат
ғасырда
official
##ыми
##ham
##ха
комисс
одағының
critic
russ
##ысына
##қоим
##арту
##ef
автономиялық
өиткені
vo
жүк
атқару
##оген
##асти
меші
каль
##дерге
құрамдас
павло
##ald
дұр
шот
әкімшілігі
##гi
##истрі
include
1938
net
##echn
біздің
##rew
##дарына
христиан
performance
##нос
1956
players
тегі
du
##ева
ықпал
дүниежүзілік
ball
маусымда
кеңесіне
gave
суқоим
сүт
себебі
free
асс
##ага
вос
##гель
##ford
reported
cіл
went
surv
##един
##бан
television
ететін
қаираткері
need
##ailed
пан
center
cілтемелер
орнына
popular
##me
stated
губ
моңғ
александр
##lo
маңғыстау
cost
мұғал
interest
бог
special
дет
кәсіпорын
cult
доп
моңғол
earl
dev
##ическии
##гінен
61
##станов
құж
mass
қостан
атқарды
производ
xix
докторы
лит
қола
throughout
идея
##osp
гершель
##лады
республика
бiл
уильям
##35
жетісу
миллион
##ead
бю
##еим
1943
тағам
##38
күл
circ
manag
энциклопедиясы
оф
ег
киім
##ание
көрсету
central
бөлшек
women
иль
сәт
револю
ұсақ
##терде
культ
##оло
##ларын
1946
қызылорда
hot
жазушы
полит
live
##қаш
зан
қыл
1954
depart
grand
##ably
2020
ap
ын
##ploy
should
179
техникалық
мәр
әлемдік
тәсіл
sat
##used
sun
систем
##ократ
hall
##дықтар
көрсетеді
##xim
туынды
political
қосымша
дө
әуез
aud
##dom
кент
##дылық
барысында
##ress
демографиялық
сұи
ерекшелік
defe
музыка
никол
техник
##бет
hom
coast
##аларға
өзгерісі
қостанаи
##aign
павлодар
techn
##ологиясы
prim
##остран
берген
##ларды
72
мих
либ
ground
дос
өзіне
present
fac
қалады
қышқыл
upon
##гімен
ugc
suff
осындаи
australia
жасал
ауа
ду
gir
##ицы
region
##зия
неміс
роб
уез
introdu
##play
fall
##ape
алатын
71
елдің
once
музыкалық
##36
қалыпт
көзқар
cam
раст
characters
##vers
##овои
мұраж
вып
##дерінде
шығармашыл
dou
атанды
жен
campaign
язы
##талар
##ические
каспии
##iмдер
күз
сағасына
making
station
нәр
terr
өлшем
sn
прив
fem
##ges
himself
brother
hor
жазған
аиқын
##ефа
саз
ауыс
динамикасы
қатысқан
hol
##дады
##абр
recorded
ru
атап
##alth
тарал
##ries
паидалану
некотор
қорек
##ино
кино
##көл
##іліп
мног
эст
қалп
##тасы
шөл
ян
##изн
деиств
башқұртстанның
160
##тауы
##iment
печорск
мақс
produc
##ael
##егион
cro
ажыр
promot
##сты
двинск
hit
құрметті
қызметі
қабат
championship
боя
фон
электрон
##орон
##ensive
fav
##day
көрген
##осфер
провинциясының
ао
тиіс
сеи
супер
тұқымд
кот
hurricane
aver
муниципалдық
##до
организм
ядр
##iting
1947
##rict
america
bi
##лерінің
африка
across
##craft
hold
##ущ
##нии
ill
қылм
##ring
##шии
может
қаин
поч
awards
европ
##ритания
writing
бірлік
works
##дор
ибн
соқ
econom
modern
шетел
##евич
full
signific
##ked
##ябр
салық
##ett
cat
james
##егор
ит
##itive
office
иран
лауре
##37
##ества
особ
тіпті
акт
developed
##ned
di
карьер
қиын
##yl
##ius
##істер
##деріне
спир
##iк
various
##ықтың
enc
опр
петр
##ска
non
ақмола
big
##ration
##стру
паидаланылады
indust
##ength
##ument
доб
құдаи
істеиді
##вин
1937
##ғында
human
instead
##иясында
мына
гип
##ұқ
алдың
кеңесi
business
лим
##есте
##ингия
##екул
##iмдерiнiң
##иция
әдебиеті
қарапаиым
bri
каб
title
##ался
жасап
sen
##нер
украина
шер
окато
мозель
аспап
красно
##65
беретін
1918
бiлiмдерiнiң
назван
насел
##acy
жаилы
announced
##қаз
##лом
destro
##48
көлік
sea
born
##сының
##ымы
ur
cond
составля
##дения
thought
##дов
##еннои
ереж
сте
##имер
key
жеріне
сак
##стық
body
наш
англия
дұрыс
##цип
ide
##стың
жапыр
##ither
композ
##түстігінде
sym
##мент
уефа
remained
ft
fif
се
pra
created
мазмұ
поль
адамдардың
шір
too
struct
кіш
##гіт
которые
зам
1917
obs
есептел
look
кав
##ография
послед
институтын
ін
жасаиды
оқиғ
##бин
seven
анасы
base
curr
өрі
##ость
аталатын
##далған
екенін
put
##елерінің
##ығымен
тиімді
құс
бастапқы
##иш
##енко
сирек
southern
жерге
барлығы
##гов
1936
##мат
died
түн
футболшылары
аңыз
втор
sil
##гу
генер
##ering
еңбегі
northern
##ақтары
relations
которыи
быт
сі
hill
##дарынан
george
##елердің
аустрия
тои
##ened
noted
жанр
кәсі
секілді
vill
##45
##дығын
браз
болж
##сия
вн
##егда
mac
өңдеу
##тат
##ациялық
##ращ
1955
##olution
дүни
thom
бөлініс
велик
##бен
көңіл
##держ
##itted
mm
төң
##ического
шебер
##енныи
areas
kingdom
##ағат
den
jpg
##ara
##ушілер
мұхит
felt
1949
##сек
архе
қабіл
##уде
вар
драм
##fic
##иттер
sit
decl
телефоны
##шілері
##тек
между
##erc
кос
##iction
aircraft
months
race
бүр
##field
11530
вз
##work
жалғыз
бөлімш
##ерк
наурызда
ident
период
они
hon
fort
бірдеи
##ализ
er
##orts
brown
нәтижесі
away
god
таш
1953
##arch
қож
eg
сос
seen
тараған
eventually
los
##ality
##илл
que
егін
case
##idence
қабырғ
кеп
##iec
өркен
молекул
редактор
сәулет
style
meet
машин
##елерін
жүрек
agre
химия
wood
әлі
бөлімінің
однако
##елек
esc
##ститу
кетті
lou
теңізі
волог
##оид
##ники
canada
##tain
miles
##альнои
##utes
##ple
алдында
дамыған
##ino
##кл
##ици
аудандық
process
construction
##кои
##most
человек
деиді
кеиіп
social
jour
##итр
bom
rich
лат
range
mean
хол
civ
әуезов
##уші
football
hard
toget
invest
##нет
##аммед
артық
ван
stri
институтында
together
атақты
##isted
кері
пром
##ements
ships
алдыңғы
бірқ
##ization
фот
сәуірде
##ият
алқ
served
осылаи
saw
австр
text
activ
##қызы
250
significant
bow
reached
resear
португалияның
successful
81
##еся
##егионының
##ено
##особ
откр
доктор
различ
1952
жән
##термен
##elling
grow
журналист
қақп
sus
lang
ul
шат
сүиек
##ауыт
қоса
##39
асты
##ways
rh
##raw
130
##таль
ұиымдастыру
killed
fight
taken
агр
##ecut
жұмырт
##діру
heavy
##ects
afr
атқарады
##мек
өндіріс
неск
мерек
##жыл
performed
өзгерістер
істер
##сар
алуға
##ходит
girl
mix
word
action
сатып
беинел
древ
##иков
##етикалық
college
##тандыру
соғысы
фрег
аппар
##але
##ома
establ
пон
##ометр
шап
##cent
конститу
does
иегері
алаш
проб
белгісі
##47
басқ
##даиды
располож
мәс
##шылардың
қорытынды
##ids
норман
82
ма
##ster
іл
кетеді
##аться
##аларда
режиссер
стад
тәрб
одақ
##аун
зер
алла
##герлік
##ирық
##эль
adm
david
cert
орындары
discover
cut
##малы
##тез
көктем
біріктір
кеңінен
member
##iated
##мон
португалиядағы
губерн
mur
##ena
##bur
патша
отырады
##ному
бұрыш
##шіп
қаираткер
директор
##енные
##дат
абс
император
ұн
##егін
##кан
әиелдер
үндістан
edu
нің
практ
##іміз
##лерін
followed
tom
қоры
squad
1951
91
jud
inform
##отов
creat
ақша
##ностью
##be
жапырақ
established
##ынып
##иканың
мақсатында
ном
келетін
жабдық
фрегезия
##меи
becom
проис
director
##иса
денсау
норм
engine
радио
midd
көме
##еров
стол
қалыптасқан
mother
плат
ыр
салып
бүгін
нью
##ox
істеді
соврем
hop
##head
сю
destroy
##ектор
таралған
участ
points
өк
##геи
##енті
commission
reb
##ateg
pred
impro
принцип
magaz
бе
ям
originally
бастаиды
карл
indep
features
##уан
92
##odes
виз
##itar
mal
##ании
түсіп
france
##цы
##аяу
others
##стен
australian
әңгім
##den
##ақтың
##пор
##тығы
##oph
mater
ital
##ви
##альных
хатшысы
##вол
robert
субр
##адан
##ba
##опр
##ample
independ
##ani
##ским
кеңесі
маңызы
тақырып
регионына
##ature
субрегионының
##кии
футболшы
тағаиын
##ило
жетеді
шу
слов
wid
сог
деректер
##ять
represent
tax
жетті
лиц
құрылысы
cur
##илі
лонд
эв
able
дес
entire
caused
##cil
бұдан
студент
mic
бірт
##лерді
оларға
appeared
rather
қыркүиекте
зв
көбеи
##58
сонда
компью
insp
ур
##меиді
жүн
michael
ог
##ript
##жаи
located
петер
##aval
болғандықтан
##ество
feder
дала
##eth
voc
сібір
educ
шығармалары
subsequ
ыды
##wood
unc
##рес
##33
civil
##ground
gar
1934
сақталған
##emy
беткеи
bal
##құл
өлшеу
##66
характер
##асу
green
tal
брит
ут
prem
фактор
washing
princ
site
##уа
iras
##тарына
этом
ven
див
##удің
1928
зал
##ился
##осы
feet
люб
1932
кир
##ville
population
қоныс
##iers
mart
##иясына
паид
билеу
әмір
##enth
paul
##реч
боз
өлім
heart
critics
radio
ағын
против
лауреаты
біріне
выч
rac
##гіндегі
##фа
##cher
##оне
владим
##enced
##отр
білдіреді
ран
желез
ток
secret
төб
sam
өндір
сағат
##дақ
өлтір
қана
##ico
кале
ыл
eastern
демократ
ver
жөнінде
наст
177
##мы
жапон
қою
палат
мамырда
##44
stone
спек
sour
ақыл
##ительно
моск
##анс
толқын
украин
fund
ауыстыр
архит
развит
отб
процесс
##go
playing
өндірістік
жасыл
interv
##берг
##ogn
свер
қандаи
peak
##дә
иор
##imin
##ование
##ышев
сезім
norm
ұстан
шілдеде
ноб
вологда
##here
##aker
медицин
##яс
111
минут
bridge
##нем
##аилы
japanese
washington
кит
ұлыб
##жет
аралық
added
##меген
important
##вел
##ера
stage
жам
леи
##спен
1929
орденінің
scene
цел
көмегімен
##уді
##алия
clos
round
##вар
600
жив
аф
нев
rank
распр
##илищ
мешіт
чемпионатының
##to
1935
formed
##аққа
##алось
##олық
know
мел
exc
март
##ыты
##ament
вин
##55
fa
прем
ұлыбритания
програм
татар
шк
1933
soon
примен
желтоқсанда
напр
bay
алат
union
футболдан
того
tor
бұиым
басы
##aves
decided
pot
мыр
остр
қалдыр
police
##cast
almost
##осьва
магнит
кафедр
##itor
алдын
##ze
##ального
жыныстар
##ландия
neg
культур
киров
өту
##ве
##ально
republ
initially
ташкент
fell
mult
нақ
fourth
стандар
average
аурулар
баиқалады
cup
казах
##68
records
##шен
қызы
серік
мұхаммед
##лігіне
өзбекстан
pit
##omm
##oney
##альныи
##ades
earth
started
случ
алдымен
жастар
күшті
der
##less
часть
әулие
сух
дип
rob
003
##раи
##далды
##49
қолдау
##уля
арыстан
вк
жары
клубы
mel
команда
dut
##ma
##аби
##ющих
реал
қорша
использу
behind
##ivid
париж
completed
guns
көшп
времен
ты
chief
ho
един
өмірі
laun
##ается
##куб
ey
чемпиондары
которых
аиырм
rap
ниж
##эм
inn
pan
цвет
##ламент
около
благ
қалпына
host
реи
##юс
құралдар
hen
comment
қаңтарда
техника
қазанда
драма
##маған
##образ
##ув
след
қағаз
##emb
##тация
құру
material
негізделген
нидер
##еци
##рен
140
орынбор
product
мәрте
вик
proble
шик
организ
груп
строи
##яч
##asion
парламент
##хани
wife
##тты
ham
көрсеткіш
нормандия
саилан
##ators
1919
один
қысым
##далады
жеткен
лондон
##аушы
##ились
cho
ber
когда
өнері
сит
ул
уст
##жи
##әр
тарап
##medi
суы
##аларына
uk
лог
##оц
стадион
inj
құқы
сент
ост
фл
эф
##шет
##ending
ішіндегі
маидан
##mp
##ияны
scre
съ
infant
##уществ
##жол
leading
##дель
тамызда
##iff
##ios
lack
еңбектері
bir
##гінді
над
research
##istic
относ
council
орда
мүи
баласы
қарашада
##аһ
##авр
жағында
тобыл
государствен
##тикалық
өрнек
langu
шымкент
топыр
##board
sex
көше
кубогының
quar
бірқатар
opened
damage
##овка
барлау
working
саласындағы
педагогикалық
макс
##шая
ені
сиыр
least
colon
##мақ
##арда
individ
га
##ological
##imes
атқарған
1931
запад
##uit
fut
##істік
##олит
##iding
example
геологиялық
##кс
worked
media
break
таулы
##ift
через
жалғастыр
кач
1924
других
социалистік
##uk
appoint
тасымал
wanted
##igned
##reek
foc
##уляр
вычегда
##asing
express
мінез
esp
##ceed
tradition
зауыт
юр
##ату
##оның
quick
материалдар
музеи
bank
##итіп
архан
высок
қимыл
fig
treat
mary
##тама
ach
жұмыстары
##унд
өзенін
##aur
городе
этого
smith
eso
негізі
rul
где
пам
##кім
brought
##юн
кездесетін
сөитіп
өзіндік
magazine
жұрт
##oon
әрті
жүлдегері
##рд
##абы
символ
loss
news
##огы
қатарына
ханның
charles
diffic
##иелі
ауылындағы
difficult
вст
тұрақ
transport
association
piec
шақ
room
##ги
өзг
##ятель
##хран
паиғам
phys
ірг
##ells
angel
бөлігінде
әуе
түб
accept
##ілу
вес
##aper
##pression
pen
pur
дың
территории
сир
must
close
бағынады
лив
##вад
рухани
nomin
сараи
##rug
талдау
1925
##сіне
қатысу
estim
vot
##46
sett
##anch
##eter
110
округіне
ыстық
##king
priv
##іру
##мож
##chest
separ
дерб
past
##дігіне
кеиіпкер
grad
relationship
түлек
сырдар
корея
шығын
алты
хаи
surf
ахмет
әигі
салу
тұжыр
##ическая
бөлігін
лев
##сср
boy
тамақ
шаң
##аулы
nar
сосьва
studio
summer
таза
проблем
құрғақ
##аттардың
society
avail
бот
иелен
трансп
бак
frank
теп
эль
ави
ханты
##icle
step
employ
қазақтар
weeks
involved
##ват
бюдж
жүріп
rain
чех
##реи
көрді
##цию
redu
##тов
##uel
##ential
тұтын
events
мүшелері
crew
көрсетті
мұра
##рас
sequ
##альді
называ
хром
соңында
тірк
әдістер
##лон
fleet
##itz
roman
towards
уг
##oul
shot
##antic
tar
өтіп
##aut
##таитын
generally
middle
##57
неб
proper
fly
еще
brig
##нее
ұрпақ
##етінің
табылған
абд
district
қоректен
##ице
жік
##сика
1921
салмағы
1922
provided
##бүр
есімі
технология
either
ана
конк
мансии
выр
жасында
respect
атм
создан
лес
cred
манс
pac
##иств
type
##ферен
шең
адамға
дамуы
әигілі
басталды
##альные
специ
география
пир
speed
##li
##ене
##даның
сн
##эт
жерлерде
бапкер
dark
қарамастан
##osition
board
operation
allowed
дөңг
код
көпшілік
recording
##енного
##астың
##улық
##ming
акв
қосылған
биология
бик
отбасы
чемпионаты
ұм
способ
бұқар
жасауға
шаиқас
көзі
##ination
өкімет
##tim
troops
##ибышев
170
johnson
recogn
мерзім
##беков
##ving
уса
шол
торабына
##инград
распростран
##tr
инф
андр
##роф
800
navy
обыч
plat
##итания
doct
##56
##бұр
куибышев
қалыптастыр
мағ
##ардия
шөгінді
##ago
шығу
##егінде
му
части
былаи
infantry
##тім
assist
change
featured
hours
яр
орденімен
##ғылар
зиян
##алась
##тарында
##ышлен
мом
##gn
##ыла
dro
##оним
құрамасы
бөлімі
кана
##gar
##ston
мұражаи
##of
жазды
scored
есть
кня
color
##троп
indian
операция
scen
saint
##ray
іле
үилен
reach
training
flor
басқармасы
қолдану
##ках
european
##құ
неф
designed
пу
мәтін
franc
##ольк
cm
##овых
тілінің
prior
##fall
##арх
##ems
она
ауданға
жолын
архангель
##лым
##жу
##анның
кеиіннен
1926
быть
##ауыл
##ятся
бөліп
краснояр
азаматтық
thomas
##ecutive
мәжбүр
##алан
##оля
жеңі
отар
##иннің
##ико
guitar
##естив
народ
цар
##дерімен
боиында
поштасы
##ification
чем
##ағыз
ауылында
opening
##ыққа
дамуына
believed
##ume
қазақстандағы
atl
диплом
immedi
##erous
қарым
placed
largest
##елерді
1927
regular
бәрі
сч
remov
пас
атағы
владимир
##му
market
##59
##west
staff
##duct
істеген
кезеңі
##32
құрастыр
атлет
страт
virgin
суперкуб
##палы
бастауы
кок
ғалымдар
##гір
alex
lower
food
lear
ерекшелі
қараш
беріп
соғ
scient
разр
highest
particularly
pay
вит
них
##емі
объект
коллед
төл
regard
feel
##ography
committ
аңғар
##гент
қалалар
xviii
##icated
pain
өскен
ораи
additional
##bor
scott
##біт
мәдениеті
шөп
achie
##еиц
runs
ha
бұлар
рыб
come
##78
кеиінірек
оиындары
victory
саксон
2021
еуропалық
##хож
##men
deal
шан
instit
term
daugh
окт
оқи
outside
таңда
increased
mcc
##ғылт
lake
дақ
##ақым
admin
pun
вет
##nal
contract
##ически
биіктік
мүд
металлург
жәр
earlier
##сір
аумағында
бұған
соот
дегенмен
deter
атмосфер
##масы
##ышты
ақпанда
castle
mont
##ларға
нер
название
sb
##ises
1923
battal
дәрежелі
заг
##ением
wil
виль
клет
жаиық
##след
contrib
кітаптар
аиырмашыл
##ership
exist
particip
құнды
ред
қып
мектебі
goal
##ishing
жүиесінің
дауыс
факультетін
арқасында
##ұн
атлан
процестер
физика
keep
соглас
шығарды
аитады
среди
winds
beginning
##амет
##цияның
ашылды
порт
flag
күшеи
##ush
emp
##кар
##ocr
компьютер
bird
quest
өнеркәсі
##88
болаш
appl
1000
acad
sand
##есінен
король
##key
вок
available
прис
дав
##nes
##31
##овор
threat
novel
колледж
##ped
альбом
съез
percent
wild
кешен
дивиз
қоршаған
чемпиондар
ямало
##них
mph
даң
диск
абаидың
одағы
национ
##см
##ites
торғаи
##67
doc
жердің
жеңімпазы
рә
##ka
living
account
minister
ірік
joined
11520
env
anti
##69
##овскии
дерев
##һар
calif
##хоз
##шие
постро
дәрігер
700
californ
тұрды
ресеидің
салады
түсінік
көрсетілген
meas
жеміс
кездегі
##ida
reviews
өзгерт
##ния
##иді
жазғы
виде
##лив
барып
күнге
ny
saying
##хат
conduct
##ығындағы
наб
ескер
актив
stop
taking
##альц
жұмс
литер
##ship
түлектері
viol
ps
##құм
##ky
plot
таным
мамандығы
flight
колич
phot
кезеңде
fer
##wer
беріледі
respons
length
program
possible
##onna
##ude
осыған
relig
replaced
сиг
muse
заңды
natural
промышлен
чет
жанындағы
сөзі
инженер
henry
##тым
##ha
области
қолданылатын
көкшет
түп
shar
section
құрлық
##чин
##онов
##ибир
##теиді
##орож
##лығын
вед
##hib
##ұлақ
##таң
##aces
ағз
future
##дығына
##ases
rights
сверд
пес
##пин
##ольф
басқармасының
nine
аг
##ірт
##скоп
прок
films
архангельск
осман
қоиылған
буын
kar
вил
үм
появ
жұлдыздар
##omp
қабылдау
включ
lines
дәм
дүр
anal
##ully
space
above
bad
жетілді
disp
көшіп
кеңістік
луара
көкшетау
қаған
өздерінің
млрд
міндетті
ілім
мемлекеттің
access
дыбыс
praised
##стве
свердлов
election
##щы
##aded
жігіт
мұғалім
roll
вест
басына
##erson
abs
move
hous
вои
##пеи
аиып
flood
аилар
community
патр
рав
##амыз
жүреді
##аза
клас
служ
##ta
көшір
polic
қаитар
critical
шірк
қазақша
училищ
##имен
##обы
пьес
##еуге
бул
ортасында
қорғаныс
рам
##ga
көру
фир
##оте
зеин
##anks
облысында
тоқтат
##ula
##ока
1916
##оящ
несколько
##isl
##oke
##ищ
##lement
қаитал
уль
тигіз
қосылды
алаңға
мәлім
better
science
результ
finished
профилі
##идің
told
алмады
жою
тіркел
##ула
ордені
clear
көрінеді
мүсін
экспеди
жез
тит
отлич
искус
face
швеиц
thus
қоныстан
уз
приб
жоңғ
##berg
##ларында
health
blue
lik
germany
ию
##200
субъ
commerc
positive
философия
minutes
верх
саксония
mex
роз
##ате
previously
##heast
ерк
сегіз
аимағы
gro
captain
department
##ections
##естве
limited
жылқы
##ілуі
pu
##орг
##терден
шақырым
##інше
елеу
актр
##ңгір
площ
fair
каж
##қында
dig
reveal
оинады
##некті
##зин
қалаи
беибіт
бразилия
тапты
температура
##43
ерітін
бикеш
sov
##абот
dead
дамыту
кавказ
астанасы
personal
қараж
##лерге
жанар
##телген
##емонт
ақыр
жедел
forced
units
нос
##ex
##off
conserv
##ября
##нош
##ителеи
саласында
services
##ғынан
##ано
##атқа
ауданның
уже
##мар
бөлек
parts
turned
mach
going
lyr
пирен
##hem
##ecess
chap
возмож
қауіпсіздік
фос
##ata
##оника
көпшілігі
##жылдық
kore
pil
##қал
##оме
##icket
тірі
литератур
museum
кн
##ттар
корол
box
болжам
исслед
passed
##anned
happ
тюр
##лаиды
инвест
directed
биологиялық
##тілді
нидерланд
##олн
##ung
қызметтерін
әріп
бағытталған
физикалық
##uter
бiр
әсерінен
interview
##более
##iнде
түсіндір
например
##42
2022
##pper
##ством
жапония
##амбет
lord
пот
лауаз
бюджет
##эл
бірден
enough
тура
money
лига
гим
##anish
forest
blood
жинағы
түркия
cand
қонды
##иги
мәселен
сок
1914
нүкт
##bury
құт
денсаулық
махаб
##гіп
қалалары
үлес
можно
##ergy
##back
fore
паиыз
тапқан
шеңбер
ерекшелен
наиболее
broadcast
виктор
пиренеи
profession
prob
##лении
soviet
fant
##бел
##шеи
guard
алуан
тәуелді
california
##tered
лотар
иг
пут
рел
ended
беиім
##sel
deep
##ference
тәртіп
вв
##gress
##деді
##isc
қорш
сенім
бургом
female
дақыл
сцен
суд
жиз
elements
burn
give
ot
жазық
##онда
beat
107
площад
##илась
##ability
конф
нүк
населения
bud
ете
##цент
три
бәр
эд
##тақ
##ream
spent
corn
қосып
кеңестік
##өлі
аитқанда
squadron
тат
memor
##дардан
слав
терм
қаза
театры
##arily
пог
##лих
##ющии
другие
қазақстандық
overall
minor
##астар
##дарымен
syn
square
жеңімпаз
омб
##ть
##wor
##онның
##аков
##erved
parl
восточ
тіліндегі
grant
evidence
breed
bord
жақты
##reg
заи
жарақ
sometimes
кест
##aft
##кілі
кәсіби
trib
ланд
қалдық
##бірек
##41
суда
тараз
investig
бүгінгі
если
всего
except
широк
бель
issue
салт
liter
миф
##val
study
грамм
көрініс
фестив
##pped
томск
##олют
##iron
воины
жұп
жазба
ce
##°с
##ilities
белгісіз
ordered
геология
тұсында
poor
debut
lay
еті
##рих
қосқан
##elled
қызметкері
hero
victor
ren
выб
##stand
жарты
двор
сабақ
travel
қаитадан
петербург
##for
худ
##пу
##оты
баспа
біраз
қаиыр
абсолют
киев
##сь
кеңеи
аустриядағы
лег
appearance
signed
асыл
паидалануға
сипаты
имеет
##як
обществ
уақытша
##бақ
салдарынан
үстіне
сырдария
кеу
флор
алф
қарулы
қыст
комбин
бүл
әдіс
сүрген
gi
tv
шығарған
##rated
##usion
лан
дән
tex
комитеті
мәні
##мбез
өкілдері
соответ
есебімен
бургомистрі
et
ox
your
##ериал
ба
отырды
бөлініп
өлеңдер
мақсаты
hd
анд
##лығымен
committee
lin
##ique
көшпелі
##ірім
сохран
грам
орындау
лаб
мағына
судың
capital
cer
пән
нобель
ray
гур
##еция
##иты
musical
дәреже
anc
centre
иорк
жш
пун
хот
жарат
lib
тұтас
usually
##ension
##асан
##него
##дение
круп
роберт
our
өлшеитін
administ
зеинет
қару
шикіз
деңгеиін
voice
pict
##75
clim
перм
композитор
van
мерт
domin
##oring
cycl
капитал
introduced
жүике
education
дая
acqu
жіп
микр
##asy
surface
##бит
##uation
жүиесін
история
##ypt
think
screen
ил
уд
louis
##ители
омбы
meth
температурасы
peter
ca
каи
ою
өнімді
парсы
pow
christian
строитель
жасалады
mas
##атында
language
шешен
##лаған
арнаулы
##ready
##исим
##игор
journal
viet
##98
pract
subject
queen
вм
##кон
##ашы
перев
required
ажырат
ben
руб
##раг
ғасырларда
groups
mr
approxim
күмбез
тудыр
reception
##ях
108
adap
corps
itself
кемеров
object
паидалы
выст
валь
еңбег
##саи
##ваи
##anded
внут
сән
мария
фараби
##уют
background
bomb
максим
болашақ
ut
зақым
##nel
ішек
үиі
тұжырым
дағ
рөлі
##аров
##edy
тауар
кітапхана
жетекші
баған
##гені
woman
жылу
asked
қолбас
свет
виру
##тед
##етінен
##ұрлым
##едения
##airs
constit
##дав
##итін
already
лотарингия
lu
##ану
##onse
изоб
occurr
##100
1910
##уін
прич
##баижан
аиту
network
##іі
диал
purch
##ическое
көбіне
которои
lie
ио
күші
клубының
transfer
parliam
##ores
басталады
heav
америкалық
construct
нұсқасы
quickly
##onst
бетіне
##баева
жеңіске
шығармашылық
вп
##ши
chic
score
долж
бир
##акөл
##ibility
реки
environ
қант
пласт
үкіметі
##теме
##ective
date
amb
##сем
##шама
##wh
theat
chall
jew
##kn
##кіші
ol
қош
использов
медициналық
чт
таулары
##ысу
қырым
сапында
structure
пре
occup
complete
годы
##зе
бірлесті
бокс
рак
ыдыр
##fl
посел
liber
archit
certain
жшс
parliament
##вы
whom
контр
contr
сапар
sant
саяс
students
антон
спиральді
синг
##яется
имп
horse
түсі
тіліне
предпр
камер
пьемонт
##шим
шұғыл
клин
алфав
gall
##онь
паидаланады
oly
##уден
цикл
##маиды
##asons
ленинград
рұқ
##герлері
аиналады
жатты
жазып
claimed
hosp
мынадаи
аквитания
адамз
туғыз
##опол
daughter
дис
силь
##round
##ысқан
##icles
оқып
ұиғыр
ерітінді
failed
нед
ісі
entertain
##лип
есе
compl
1905
теориясы
кітапхан
редакторы
тақырыб
estimated
##альная
plant
prison
бөлінген
wing
##олет
##метр
өтетін
үилер
##ander
impact
response
жетекшісі
қия
##mar
тұрып
##иси
larger
veh
отбас
тим
әлемдегі
##ющие
nature
қатысып
всех
canadian
jackson
дөңгелек
bul
##ают
лиш
канада
olymp
марш
decision
құбыр
might
соқты
##иции
азық
##циясының
аиларында
##дун
model
архитект
##есп
реформ
шығарады
төңкері
whose
которого
susp
size
##сү
аитып
india
discuss
премьер
минерал
##бы
edition
даяр
##ication
белая
жаиылым
крупн
establish
espec
##ками
idea
өск
испан
leader
шашын
поэт
##porary
effects
oh
federal
осыдан
industry
суперкубогы
##ny
##han
##ban
##орта
emb
кәсіпкер
##77
могут
елім
едә
хлор
##abor
кірді
commercial
fest
##реж
тауарлар
транс
ultim
battalion
қоиған
##99
##икс
shoot
##rael
құбылыстар
уров
суқоимасына
richard
especially
төлем
1912
этот
pacific
sales
##наз
астық
өткізді
running
жұмыртқа
қондыр
точ
##aries
##илии
##ado
либо
кедер
мұның
көпір
метал
jose
##61
аумақ
democr
дэ
##agon
басқарған
оинаған
letter
осылаиша
чтобы
рост
орк
ядролық
евреи
commander
##ению
1913
britain
scenes
##рукт
франк
однои
шашы
американдық
railway
self
ссср
##изма
шаруа
кандидат
##струк
жоғал
үміт
texas
##inese
қолға
##ынатын
##ste
scot
operations
frequ
##ял
модель
транспорт
bond
енген
nearly
мус
##алардан
edward
##иллер
едәуір
dom
##итер
құстар
##бах
инду
оиындарының
##сом
алмаиды
pressure
kr
заб
жариялады
алғанда
жиынтығы
нашар
got
сет
##300
##стем
алынады
бірімен
управ
becoming
##oms
##отив
##идж
teams
empire
##800
##амин
##ларда
arrived
aw
зн
піс
##қу
министрлігінің
11000
тілдері
os
ұрп
concern
юж
##atory
жерден
әбу
есептеледі
stay
кеңшар
дің
век
үирен
##балы
cru
##ішке
approximately
movie
суға
астында
##esh
аида
представля
отряд
сұиық
princip
согласно
##64
##овые
##ағаи
комплек
марапаттары
тұтқын
##wr
белгіленген
imm
тәрті
направ
##лян
writer
sem
бра
##шего
chinese
қоин
##елл
орд
governor
movement
бедері
diss
асыру
1900
brief
##илось
gard
алфавит
жазушылары
energy
азаи
carried
кітабы
ль
##erve
көрнекті
белгілері
қонақ
fifth
басшылық
##ump
много
##ғысы
deg
телев
valley
стил
қозғалыс
заттардың
kil
##оин
##ори
legisl
услов
нак
##ски
##мал
create
buildings
##кет
##вид
##асыз
емдеу
аталды
үнемі
стратег
##ғазы
##есек
лигасы
пішін
##ken
теч
балет
changes
эфф
##дыққа
surround
мәселелері
mom
рах
##une
есіл
әлемнің
remain
жасыр
қоиды
жазушылар
бургун
##сеи
##ki
оңтүстігінде
##pm
twent
кафедра
##ya
инфр
ғалам
##етика
бұлшық
вероника
админ
фе
##ker
басталып
тұн
##таж
менің
##ылы
қолаилы
органикалық
altern
құжаттар
##oor
##густ
жатқыз
реттеу
shows
ағарту
құп
draw
нез
##овая
##маны
concert
установ
##юз
##inct
emerg
stars
##лама
exam
балқаш
##53
аил
здан
##uth
##ақтардың
consider
бостан
қысқаша
territ
producer
алатау
пермь
##lict
##ағындағы
finally
двух
кім
тоз
##енц
жолмен
филип
current
елеулі
cit
ran
upper
жир
##оры
##ulated
ғылымының
сектор
хок
құрды
жаттық
intended
часто
моиын
latter
лаи
##уар
##дығының
тыиым
пис
тексер
бриг
перед
шыған
фед
катол
полож
цер
##ris
carol
tracks
destroyed
immediately
wide
вне
троп
episodes
медалі
диссер
##54
##burg
бургундия
standard
subsequently
##умб
механизм
генерал
##63
составляет
##lines
преп
##ota
cham
##ecting
жазда
ашылған
манч
кезеңінде
appointed
##bour
bey
distrib
quarter
##қаб
##альд
беине
пункт
winter
место
дербес
mos
##нич
##арод
жүл
вят
жеңіп
suggested
ылғ
трад
##сынан
##дықты
вах
собои
proposed
поэз
##теитін
script
тілін
жүзінде
закон
##che
##ros
china
облыстар
топқа
аиналған
салған
amount
##ивается
теріс
##62
married
glob
dar
##емет
##ching
##икация
related
arrang
multip
gal
##change
109
plans
birth
lad
favor
пап
түрікмен
s0
##иеи
##win
##тав
ғалымдары
вак
##ңғы
жолдары
fail
react
##озя
туында
аспан
рұқсат
жылдардың
1911
##циеи
yet
remaining
которая
winning
agreed
являются
books
method
entertainment
дәр
africa
княз
hu
шағ
ауқым
##riage
сигнал
##юган
болат
##шағы
##улері
concept
display
клубтары
influence
тәрбиел
##idents
##аттарының
awarded
windows
##тим
университетінде
ұт
##шының
##ерх
прев
trail
ens
longer
продол
дорог
дм
ломб
жерді
кірп
information
whether
орындал
##умын
atlantic
##исі
ағым
әнші
trade
##ектес
##кірт
##иктік
тұлға
##иқ
жібек
деңгеиі
худож
chicago
меншік
этникалық
les
leaving
##жении
spring
rid
##oles
##шылығы
ақсу
village
бизн
жің
##арии
##енная
крест
cann
аулау
##ette
көрсеткен
saf
experience
әбіл
кедергі
soldiers
private
forward
##ирет
өмірінің
##ties
depression
жұмысшы
мысыр
кил
эс
##иях
slow
bed
##79
##амп
атпен
##alled
мүл
compared
##серв
годов
##tained
суық
аралығындағы
defeated
мур
төз
джор
link
бру
тобының
помощ
мадр
##ткен
today
кезіндегі
shortly
әзірбаижан
##орф
##инь
##ope
intens
сухона
бактер
##сте
определ
##abit
doctor
өсіп
қамти
анықталады
##ектив
course
mountain
кіл
##mon
күие
әскері
singer
supported
реакция
веке
##алармен
coach
naval
##ител
болмаған
professional
cause
##деуі
академиясы
increasing
##ицер
dv
аргент
##ақтарының
billboard
польша
қамт
орнын
mun
##елеген
##atively
block
##няя
пале
ох
greater
##мун
проп
##рация
біріккен
аллаһ
virginia
withd
тиісті
жаман
##гүл
##алаи
unit
canc
countries
islands
кальвад
кальвадос
роль
##шт
үрді
changed
рен
##isions
##одақ
салмақ
измен
новос
mu
##генде
higher
lyrics
cele
nation
штаб
##de
қараб
attract
electric
низ
##тармен
мазмұн
##hood
entered
саиланды
jim
##ческ
##52
##ину
сақтал
үкіметінің
времени
card
draft
##асады
##ско
corpor
##меитін
оқытушы
құралдары
master
латын
твер
жид
##еленген
ұстап
coup
male
officer
sir
##com
sev
теле
аимақтық
мазмұны
pick
категор
1915
micro
лақ
##ғаны
жұбаи
dog
факультет
николаи
сель
##вард
мит
түл
покр
##баиұлы
##itting
mixed
аргентина
xvii
динамо
increase
bab
fiction
##ермен
##амаи
##ліктің
казахстан
тег
artist
environment
##вен
алабын
weap
қалыпты
##амед
қолданады
extended
1909
moving
маңында
feature
обычно
hospital
ұс
friends
номин
тағаиындалды
##aring
##ector
##герлер
рух
##сель
##ona
ара
battles
жылына
қарқар
герц
done
##hlet
##lands
аиналым
аңғ
initial
құрман
белдем
singles
шетелдік
da
nh
##уг
##жаз
##era
кісі
важ
##fact
жизни
architect
ук
##ulf
##оза
жағалауында
financ
kind
шеж
##дермен
төле
remains
нав
##стір
contem
brigade
вь
##сут
##иктер
деятель
goals
әдісі
режим
қоинау
oil
сеп
##89
арда
түгел
реш
планет
management
cust
##thing
аспир
##ақы
##igan
##естің
констан
##баевтың
provide
открыт
memorial
##илин
неп
##иза
жазб
associated
соф
өнерінің
##teen
тартып
қанат
celebr
vii
пф
##сор
##бұлақ
физи
депутаты
находится
##форма
350
сег
жаулап
##есіндегі
жарияланды
сынып
focus
ال
жасқа
берег
##het
орналасады
оқыған
##74
##ania
##чита
качестве
вятка
ғұр
##алатын
##есімен
traff
биб
жағдаиы
сөилем
##уша
regiment
сити
сала
уақыты
ким
sports
бірте
жасанды
xvi
likely
bene
##gs
басқарды
manager
egypt
martin
bring
тұрғыз
үстем
концерт
via
хир
астра
numerous
ple
дағы
чул
км2
министрі
үстінде
helped
copies
republic
##selves
эти
##деуге
##тардан
##елерге
##ологии
prince
президентінің
кішкент
бірін
бағытта
кост
жаңалық
##ысымен
##едж
planned
spir
насих
foreign
##дународ
here
ерлер
драмат
spanish
themselves
##қынды
жеңіс
өкілі
##andon
зас
дев
август
годах
международ
тю
##rison
##ands
оиында
көтеріліс
сөздік
необ
##ria
adult
мадрид
rose
хам
##oid
##light
wales
##азия
біршама
removed
нүкте
зол
##51
құралған
image
энергия
something
##шікті
##енд
revolution
манчестер
гон
два
тым
хад
##жал
##өнер
ерекшелігі
tas
түк
қазұ
conference
##quar
subst
conclud
қасиеттері
##лож
пур
touch
контин
progress
captured
##umn
dance
сюр
##uing
##терімен
##альды
талас
takes
##ental
portray
тәжік
страны
эфир
##eck
##осом
халиф
ақынның
##atives
officers
саң
фабр
always
израи
защ
yard
жағдаиында
кроме
peace
тағдыр
meeting
іріктеу
диз
қатарында
шығармалар
лок
status
220
иман
болуына
wrest
visit
кішкентаи
cab
##ресс
##жанов
паиғамбар
біреу
##опер
includes
беті
##ром
##ығу
complex
##urity
қояды
##ема
салынды
##ему
человека
economic
қамтиды
таст
##сінде
анс
шашыр
file
##71
мақта
командир
ломбардия
##андар
request
образом
problems
##дастық
approach
дүркін
ұпаи
##olic
климат
чемпионатына
шег
##інген
арттыр
оқиға
ros
нығ
##алығы
белгілен
білімі
әсері
independent
florida
inside
##есть
кореи
материалдық
машина
жауапты
probably
fox
##аются
##down
жырау
восток
второи
шіркеу
##ащ
##jected
##ari
##ously
енгізілген
mess
##etic
жалпақ
##арлықтаи
russian
fans
мг
мәңгі
соедин
тысяч
жәндік
inspired
хак
thir
боиындағы
##ify
жақс
аударм
тыныс
uns
##ографиялық
vietn
mob
##bed
##арь
##аитед
федерация
offered
саяхат
канал
##leg
созылған
юнаитед
егип
##шев
арист
##ersey
##rier
брон
collection
став
очень
классикалық
penn
ез
leave
##анып
alt
сүру
mostly
баиқау
suffered
алынды
##нож
##ыстардың
1907
hors
солтүстігінде
жұмыстарын
revealed
newsp
##rupt
чув
##эк
саиынғы
стандарт
дастан
иер
##рех
madonna
angeles
бельг
тир
##қандаи
крем
гереи
даиындау
ды
филология
махаббат
rat
##орған
ris
##ерш
airport
numbers
қасиетті
##унь
cerem
categ
wa
##лот
алға
##абон
##лікке
termin
тәуелсіздік
##раждан
temper
мағынасы
combat
wit
##reme
##hers
төлеу
түзілген
лигасының
magn
намаз
rang
##ушының
fantasy
жұмысын
schools
raised
##чев
##дами
тоғыз
шотланд
шежір
қоғамның
ерекшеліктері
till
##gen
ашты
соответств
iron
log
##ира
##итарлық
аяғында
аиналып
екеуі
фаз
##ault
ауысты
берн
постқа
die
сандық
##aches
composed
прост
аитылған
норв
11110
und
алмас
primary
##ening
##кілікті
ba
ring
прир
коммер
##аторы
поверх
dail
##iser
торгов
құқықтық
большин
double
individual
##дауға
really
оңтүстікке
бақыт
көзқарас
кін
hus
рол
академиялық
тарапынан
деб
өсімді
location
refl
##aped
##альное
үлесі
манш
начале
##нег
border
граждан
##bre
##oud
киіз
леон
##mas
халықтар
баиланыстыр
төртін
majority
баға
##ays
сона
источ
шаиқ
issued
рәс
bon
тра
##rol
қаул
launched
morn
##лығына
##73
аттан
##aging
##егеи
##теи
##ining
галер
есептеу
состоян
silver
target
fighting
occurred
##ita
##ака
өңірі
әиелі
итальян
selected
қыпшақ
##enue
congress
жасалды
аиынан
tons
санкт
баспас
бөлм
prec
issues
салыстырмалы
лишь
dvd
##астығы
корр
##янь
lived
mission
тес
##азыва
##ерлер
азамат
счита
##общ
1906
диссертация
##деитін
наг
егі
emper
әділет
скор
##тп
оңаи
daily
##ларына
жұмысы
әділ
elected
көзге
фили
шебері
тұқымдасына
археологиялық
тот
##деми
##оит
##uries
астрахан
il
##рин
ақпараттық
900
##ыстағы
возв
карьерасы
құран
##ested
mexico
даль
stad
жүргізіледі
##енттік
israel
sister
спар
қақты
##ондар
intell
culture
##chester
##ңір
reform
рөлін
attempted
демократиялық
°c
123
креп
балықтар
##87
##аяқ
жалған
насихат
концент
rod
гом
##шан
түбег
отнош
##ription
қосылыстар
1908
пример
ынтым
##iber
бағалы
шығысында
благо
##рос
##дім
##сілі
ахм
counter
kg
##жын
көлден
встреч
oce
ty
суды
shown
##ига
диаг
қырғызстан
rapid
джеим
кандидаты
андре
makes
##елеріне
##rie
алмаи
##ифор
жоңғар
twenty
##скую
athlet
даже
православ
көрінісі
##дорф
сюжет
lov
демал
некоторые
тілдер
теңге
компаниясы
francis
##zz
##строи
провод
slight
қаираткерлері
era
длин
ряд
сына
тұм
азот
сергеи
соғысқа
haw
##lor
##85
##ицион
кара
gas
##ero
жарлығымен
парк
серб
eth
зо
өзендер
##атып
салтан
conditions
cub
әдем
##тия
##цов
колумб
wound
географиясы
##гелді
фосфор
феод
мая
муж
##well
әлде
paris
жинау
медалінің
##алап
публ
шығарып
notes
полиг
qual
##uals
##ескен
қалам
комед
closed
bor
ауған
белгілер
##icted
drum
ов
executive
аитарлықтаи
собствен
festival
көрм
тауып
smaller
morning
дорд
пау
##lam
##ests
барсел
##ocks
болғанда
direction
пішіні
##нқ
##ятын
##анн
##umed
жаппаи
##қаис
ign
mol
##кал
##ела
ақыны
appears
ast
##ығынан
carry
flow
настоящ
бизнес
##енное
жиыр
әдістем
ылғалды
жіңішке
сав
##леж
приз
adop
фольк
##83
экологиялық
дмитр
##мыш
##vert
театрының
terms
аир
##ықтары
полов
аитылады
maxim
баспасөз
mind
##jo
##ияз
contains
куә
сақтап
университ
пуш
##ging
tower
##қанда
below
тұлғалары
##шекеи
төрағасының
шыңғыс
предприят
еліміз
sav
##олы
##икая
##індеп
немер
тұқымдас
жекелеген
words
mech
са
##удан
##band
армен
бөкеи
annual
##қақ
белор
эллип
zeal
шектеу
шум
##ano
қазақтардың
тізбек
медальдармен
тюрингия
төртінші
соған
шығысқа
числе
чулым
берлин
мұндағы
самар
attacks
##егород
арман
studies
cases
джордж
як
қасым
resulted
dun
fast
mul
##ees
архитектур
ice
##92
азаттық
marriage
respectively
##ями
санақ
спектак
қарама
##дении
заңдылық
созылып
na
##нь
##теледі
қысқы
қозғалысы
жапырақтары
1st
сфер
neigh
осв
смерт
defense
##верж
синтез
әліп
позв
unable
##ortun
##ogue
работ
кубок
боп
конферен
webs
аударған
##ындаиды
юг
басталған
stories
train
жарияланған
policy
compos
бағалау
1904
##андыру
көркемдік
determ
ess
##tery
incor
prevent
құбылыс
пфальц
##ысады
##rect
осуществ
consist
бух
promin
confir
admir
кул
##iences
105
қозғалтқыш
математика
competition
##ims
табылатын
аралдары
квар
м3
##еев
##iп
##400
бұлардың
анат
125
simp
means
морф
жус
мэ
день
швеция
##72
көбірек
##дықтың
sup
drive
қада
##ерв
акцион
##циясына
variety
американ
қарқаралы
фен
##1g
thumb
комсом
ali
теледи
indic
active
larg
заряд
британ
traditional
npm
##rd
##қаны
##ғали
ағасы
damaged
##aught
discovered
фольклор
үирет
##леп
schol
қасиеті
##ивает
связи
әшекеи
##шыларының
масса
лич
conflict
сша
##asc
берік
шығатын
лисс
уб
##оци
chann
inters
controvers
қабылданды
npm1g
руд
бидаи
көрсететін
scotland
дю
цит
##овал
instr
мира
##ij
##бон
##талатын
мысал
штат
source
jersey
орг
өсімдіктердің
камп
labor
мисс
храм
қоб
##ols
##исін
өсетін
##ическим
actor
этои
тағаи
көмектес
мөлшерде
##қазған
cd
##86
##ани
##стардың
баланың
этим
мех
раион
бүркі
төзімді
##лерде
recover
produce
михаил
результате
mechan
bod
##дек
жылда
albums
беинелеу
қызғылт
колхоз
strateg
процесі
қалыңдығы
nick
сена
reason
күндел
футболшысы
сақтандыру
legal
##stein
20th
мұны
жемісі
##тылар
қаржылық
тонна
largely
вог
ғыл
қарас
бөг
assigned
theme
әсем
fear
иесі
##ацион
##76
##izing
орынға
ши
##vin
отдель
attacked
тұрмыс
ансамб
гек
дания
##ғаның
түие
assemb
қуыр
ұлытау
отбасында
федор
бок
гет
famil
кис
лир
whole
ауылының
бетінде
metal
matches
блок
latin
##готов
##иялы
##anced
көкөн
##иться
lam
дир
қаланған
елге
##hold
##95
web
cin
дул
##za
қабылдады
emperor
kent
##ional
##ucle
аспирант
fal
аналық
қауіпті
question
рок
тілім
19th
1890
орынды
шартты
егіншілік
farm
өскемен
агент
##еспеч
басылып
экономик
бөлу
назв
завод
своеи
##аттарды
цен
пере
қолданылған
жүргізді
памят
##сов
minute
constant
аиналысады
шағы
мүше
vocals
purp
kenn
жағына
қатысады
headquar
моиында
##сына
##стары
##rey
coal
аяғы
монет
затем
starting
көлденең
mir
##ылымы
жүретін
батыры
профессоры
ranked
asp
индон
бекін
greatest
оркестр
дик
##евр
қуат
шоғыры
##қашан
constructed
##ych
##uments
##ріш
қызметінің
тәжірибе
габ
қис
##enant
тарту
климаты
zealand
mf
nin
##шин
бара
ram
лар
##никалық
##ners
##зен
##яж
##96
stan
матер
meant
symb
italian
слож
medical
первыи
covered
observ
инфрақ
зим
##iз
басшыл
imper
##измнің
featuring
##ipped
matt
pack
шығарылған
сипаттамасы
refused
ісінің
арк
прор
боиына
##use
әбді
стали
аиналдыр
##ысып
stra
мұқ
истории
##cing
ash
arab
георг
оинап
ешқандаи
нижегород
елде
occasion
giving
вир
contact
columb
жазушысы
cell
сад
##ниц
##эфф
##ato
жартысында
салыстырғанда
израиль
##итим
##stone
обеспеч
күріш
ability
жылдамдығы
cart
##нес
##иық
##ини
мемлекетінің
dise
disapp
программ
##кө
##ux
##шақтар
##улет
apple
##ompan
##мас
##itude
stephen
дордонь
##kin
өлген
қырт
performances
1886
атқарушы
мерекесі
hund
##уының
##инов
things
##естір
##авл
неғ
кезек
бағыты
заттарды
value
listed
ынтымақ
бедел
##ороны
##еделен
earned
қаратау
жезқазған
##ca
ауылдары
абылаи
шаралар
калифор
продук
металлургия
сх
##алып
##olk
##rial
sche
##эс
##ires
premier
норвег
джеимс
fill
##мел
##iance
өткізу
лист
жасуша
сторон
болмаса
диамет
nearby
газетінде
defeat
##track
native
tun
көріп
қалада
еркек
галерея
viii
белару
##ips
arts
дне
рын
perf
240
етуге
сүиен
williams
алма
hotel
келтіру
bbc
білген
##500
##хен
##wide
батысқа
owned
referred
лиссабон
names
бедер
зах
##ғау
әлсіз
доцент
##ancy
thick
prime
атаған
григор
достық
елдерде
jul
od
##84
##ителя
##еско
transl
здес
##82
##адыр
print
ноғаи
остров
ұсынды
financial
здесь
выз
луч
##vement
##97
түбір
франс
attention
forms
ұрыс
шынаиы
levels
needed
біртіндеп
lot
nucle
нағыз
##ылуына
артиллер
repe
##uated
##ырман
##данған
қатаң
мүмкіндігі
сауд
northwest
practice
стер
##joy
көбе
алабындағы
dism
brothers
lif
брет
кеден
tourn
қолжаз
necess
##идтер
алматыда
депутаттары
жағдаиларда
hundred
pair
##кул
менедж
қоян
expected
командалық
жинақы
спектр
шен
##oo
##81
технологиялық
##уымен
кітаптары
##фон
##94
joseph
rate
swe
##олл
accompan
еске
доллар
интернет
candid
##аю
##my
түріне
батысында
қатынастар
алынып
ашып
колон
жылдардағы
systems
кокп
diam
нет
##iest
жүру
шығаратын
аимағында
serious
оип
##cy
мемлекеті
studios
##bridge
audience
religious
##пл
костр
exhib
бүи
##ингтон
trial
sky
cold
кұр
##ава
african
##рон
##ағаш
abandon
бұх
топтық
қоғамының
выдел
ирак
некоторых
##арлы
##ахан
colour
себя
өткізгіш
екендігін
жылдарында
animals
ocean
ll
артқы
##имо
табылды
soundtrack
гуман
academy
рк
орнатылған
flying
тет
##оград
##ауи
ақындары
конце
население
##93
##ору
науч
влия
мекемелер
мәртеб
luc
overs
##сімен
иногда
бағын
begins
мартин
дель
ханы
##фср
##illy
##изация
marsh
размер
әні
palace
sr
беруге
сүз
1903
новосибир
пт
##ғап
##road
шөпт
##аметр
жылж
##ағынан
##rian
##таны
favour
терек
##ымның
стиль
соғыстан
коллек
rein
сыи
драматург
структ
жарам
##iano
михаи
крупнеи
bound
crow
chair
салды
қолына
кеме
қорғаушы
рыбинск
игер
##gl
##ini
тарихында
##ples
туы
theory
##еттер
прос
##thur
ересек
халықтары
##ails
ұшып
педагогика
propos
палатасы
аул
##ельд
##альным
өлеңдері
опера
өзінде
##скому
scr
directly
эволю
аиырмашылығы
жиронда
horses
град
елдердің
attend
значитель
dyn
rear
почти
stating
табыс
қырық
соңына
паидаланған
quality
казак
әртісі
piece
greek
хас
прик
халықтарының
attempts
хоккеи
americ
positions
rule
##ағатаи
бағдарлама
##екция
сумен
діні
##тылық
омырт
тасымалдау
неболь
ұмт
libr
администр
bell
мок
101
консерв
security
jer
саты
##жир
##инои
қосты
мұнар
##ющая
сәуле
журналистика
өнеркәсібі
жө
сері
құир
анти
шаршы
effort
видов
accepted
необход
адр
бірінен
perm
магистр
houses
es
ni
##91
имам
өсіру
organization
hyd
индустр
миров
##ingu
тәсілі
ғасырдағы
саус
##бур
көрермен
әрқаис
defend
одним
declared
##нама
константин
##асып
аудандары
seem
##ills
enjoy
құқығы
##дон
болсын
prepar
қатынасы
деңгеиінен
әдемі
гиб
##цит
област
##ипед
конструк
суретші
##ативті
произ
authority
##ябрь
визант
бастауыш
трет
cry
алдына
writers
бірлестік
snow
##рада
үиір
теориялық
механикалық
университетін
sar
имени
өсімдігі
неғұрлым
##уыз
##iate
##210
кетіп
formation
bac
1880
210
треб
тобына
##атады
басс
экран
парлам
европеи
machine
ded
ертегі
recomm
highly
officials
славян
contemporary
вогез
sle
аирық
##bit
scale
түсетін
commented
property
жәрдем
бұрғыл
қатысушы
газетінің
apart
ерекшеленеді
жұбаиы
bott
біледі
эду
##тыв
##абаи
құнан
эпиз
ss
##essed
##istics
жаңадан
жұмсақ
есен
stadium
creek
халықтық
##шее
металдар
жеңілі
россиискои
constitution
вице
##фил
##osh
search
laws
тыныш
wear
игр
##дылығы
inch
##терінен
жұқ
азат
онымен
ending
continue
үиленген
##виль
тәңір
қабылданған
ботан
ultimately
poll
rough
нал
әке
##обод
мектебін
дана
маритим
бітірді
құрметіне
citiz
нығаи
ган
чар
##пі
##ыту
движ
малаи
сарап
##қыштар
определен
lieut
fat
##uct
##эи
##rem
марна
сүие
қоим
формул
дог
кеск
хозя
chem
##лад
##ils
жасақ
марапатталды
justice
кристал
альберт
нәрсе
reduced
бах
##даитын
сәтті
managed
ондағы
лабор
##ұз
оңтүсті
юнеско
meaning
шөптесін
ow
обяз
минью
##ibly
website
гаи
миг
##естері
##лерінде
murder
choice
traffic
cu
дз
##ғол
көлі
##езд
оқуға
founded
planet
хотя
administration
кад
##isation
ауд
thous
көрсетіп
specific
responsible
##edd
түтік
ұстаз
passeng
##house
##ada
қазба
true
жүиелер
таратылған
әңгімелер
separate
##standing
sides
жердегі
##utions
##ellow
attended
кафедрасының
cath
##сал
##тауға
1901
түрлерін
purs
##оев
алыс
жерленген
свят
метод
істеу
правитель
мұхтар
kept
mention
##la
##цин
тәрбие
##cend
мекендеген
сәл
soft
presented
honor
бы
##лаи
ауыт
##алдыр
автоб
португалия
империясы
іздеу
northeast
##аск
##ород
lee
filming
incorpor
церк
##orter
##опл
раздел
сұран
оск
пок
занима
многие
territory
впер
маж
баиланыстар
potential
геометр
##ruck
жетілдіру
cyclone
##ао
жылан
##мень
##istol
корсика
кадр
түлік
strug
##дама
##oper
job
vocal
eye
birds
үдері
##olf
beaut
құда
michigan
елі
##дігінен
programm
##enge
өзендерінің
жарыс
weaken
##ковод
efforts
жасы
содерж
желіс
results
waters
популяр
mut
ың
##ғу
##форд
құрған
құралы
ему
сөздің
милли
шекарасынан
##мд
поб
##ighter
##ishop
жануарлардың
combined
##like
белорус
##ото
inches
bob
қатысушылар
партиясы
теория
николаев
электрондық
360
апр
скр
##өп
##yan
болғаны
үздіксіз
ив
член
##ких
##фильм
##ілері
appeal
##yer
##денген
##леріне
##ографиясы
resulting
тун
##gu
##беи
##енным
басын
жұмысқа
tried
дух
##жо
##ications
recent
топтары
әдебиетінің
спорттық
titled
көбею
##еміз
түрін
showed
әскерлері
домбыр
opportun
##пон
##шир
##icip
ауз
##абаев
##ентті
жолымен
академик
психология
аид
ыс
ораз
показ
##отип
relatively
marked
contrast
cities
##талы
орналастыр
жетіп
уақытқа
жабаиы
vari
армян
румын
прих
spl
##ольд
uses
аталмыш
versions
ярослав
lieutenant
row
екеу
companies
бағдарламасы
препар
диаметрі
ғиб
##700
##беу
##ura
денесі
жинап
теміржол
живот
нақтыл
strugg
##упа
lew
1902
мезгіл
құндылық
новосибирск
shift
##astic
##ube
acting
мерзімі
мектебінде
##газ
##220
hands
rating
sab
вор
диф
остав
алмастыр
1897
күиінде
тұқымдасы
peaked
вместе
headquarters
som
брат
##ати
prep
портр
лагер
##ques
sport
##ақтарын
қорғады
работа
kh
го
дру
іі
жасаитын
enemy
меирам
өркениет
тама
##беиді
weather
академи
student
империясының
сөилеу
бірлігі
экз
анг
parents
станов
elev
pieces
##шо
##itation
secretary
##ализм
##ендір
##ola
қызықты
мари
artists
үстірт
наблю
церков
рем
отын
антроп
кіретін
charge
быст
##афа
беинесі
мүдд
##аиып
##апан
иммун
жыныс
bol
хи
##ердің
##лігінде
жасө
мексика
arms
милан
dutch
граммат
шаһ
##луж
##наи
##явля
102
мектепте
бәсек
либер
органы
қыста
##шау
##аки
##unt
manchester
компаниясының
офици
қылмыстық
бун
##igr
эдуард
##uff
##don
104
feed
##phy
возду
форма
ним
коммунистік
004
бірігіп
allowing
косм
##дерден
##ранич
атын
гурьев
жерін
қағид
yards
сіз
##гин
##шықтар
ақтау
потен
оиыншы
advance
мырз
##бұрыш
количество
ағаи
зә
##ык
alone
қиыр
pier
##паиды
inh
##ауыз
distinct
ban
##ұлының
геолог
республиканың
тілді
сыилығы
толықтыр
##бал
экв
минералды
behav
ancient
doll
##rel
growth
rog
##ән
окс
##манов
compar
спор
корпор
chris
микро
январ
document
selling
өзгеру
прям
қасқыр
англии
channel
шор
##есу
атымен
құяды
әсерін
швеицария
##іле
объедин
талқан
ұшу
swed
жамыл
sac
вопр
##120
height
земли
alexander
күнделікті
tend
##еттік
manu
талдық
electron
клетк
path
шығарма
interp
достиг
сахн
актриса
cov
paper
лекс
шип
##онч
share
имя
оилап
bit
opt
ворон
##ае
салалары
##illery
конгр
respond
қылмыс
italy
фестивал
жасөсп
##gian
##ulations
күнде
presence
кіс
stock
1870
appar
деңгеиде
используется
multiple
##яб
store
қатпар
философиялық
kilomet
slightly
yellow
##ns
##вист
##ылау
қалм
##ider
түрге
газеті
portion
paid
кедеи
говор
зон
бөлімінде
seconds
мәселе
figure
analys
пісір
conver
жазады
##ounds
сенімді
cultural
четыр
gam
мықты
сдел
##жеи
мемлекеттер
жұб
nothing
балаларға
назарбаев
жағым
ix
игі
жаиында
editor
заманғы
sixth
александров
##инскии
##iles
ресеиде
туризм
interact
кешені
promoted
верс
ум
##дандыру
seg
##ностеи
actually
текст
жүргізілген
адамдарға
sources
ton
##ja
прес
ақуыз
##адақ
жоғарыда
фильмдері
collabor
##охим
golden
conducted
коэфф
демек
поли
else
##ющеи
всем
##город
маль
паль
тиб
##иент
ақиқ
##тастық
christmas
происходит
гит
фаил
##ента
chron
табан
шош
хорез
becomes
##сүиек
административ
реч
##abeth
бітім
trees
encour
аэ
адал
reign
счит
##while
игеру
қарын
сілтеме
жүиенің
возник
власти
свою
digital
неке
##бау
##дану
ұлп
табиғаты
artillery
мезень
бұқаралық
transferred
бүиір
##town
##берген
write
тарату
husband
dur
liver
лав
minim
temple
##гон
##ыну
##скими
##қыт
сыиым
жуан
roads
позд
василь
цех
##iне
##ового
саиланған
harv
үилес
ғалымы
scottish
аирықша
xi
әли
broke
фильмдер
өткізеді
жеткізу
внутрен
manufact
лор
##tv
бағынды
widely
##дімгі
пі
бірде
абсолюттік
телевиз
resc
өмірге
poet
оқыды
convention
ғұрып
jones
##ym
##ыма
проз
тастап
##ograp
freed
функция
primarily
кірпіш
bass
hers
##еиз
sud
тілдерін
араластыр
қуан
академигі
орам
##ести
content
advent
следующ
##саң
##шел
##еңк
мәдениетінің
кесен
инфрақұр
бере
қызметіне
boat
первои
1864
dropped
гем
цир
anth
происхож
nominated
белаяға
мульт
##150
suppl
тегіс
дипломат
admiral
ok
каст
compr
replac
системы
platform
spirit
жусан
##пеиді
##ысынан
менее
томас
гориз
offer
құмды
шотландия
##ceeded
##ником
кәдімгі
авток
опис
редакциясы
ионна
han
habit
аю
##oration
##оса
ерлік
trust
residents
рекорд
оқиғалар
ohio
mort
бит
##330
мүлік
weight
distance
concent
custom
pap
дат
##ror
қауымд
несие
қалыптасты
institute
aer
атынан
invasion
упом
мәжілі
вход
сериал
nob
армия
шахтер
##аунд
пои
##кср
##вал
##бл
##гершілік
##ханов
апта
экспер
закр
##велич
халыққа
паралл
маңындағы
валют
moment
жұр
##190
crown
зауы
##ңқыр
##rid
барады
көктемде
##lie
##фан
меншікті
##улардың
него
отдел
computer
кітабына
мектебінің
алқап
subsequent
ыңғаи
lic
##зас
##бран
##олов
назыв
exped
множ
##со
босат
##320
қаитып
клубына
airlines
реинланд
внеш
sher
ғаб
ғұн
##ователь
allied
##сінше
нұсқау
urban
fish
тв
sust
қабаты
істеитін
designated
##ылмалы
поэтому
concluded
##130
##алқы
onto
##қара
graph
270
pattern
кабин
біртұ
британдық
кек
##дiң
actions
қоиып
сипатталады
1885
equip
фирм
korean
battleship
бая
камен
твор
1898
older
валю
қоректенеді
cinem
зир
personnel
labour
motion
бассеин
bost
gross
рож
##ote
болғаннан
shell
article
олимп
төңір
tree
қарқынды
аталық
тарихын
компон
data
1896
қыркүие
омар
чемпионатында
##нод
монастыр
воды
##anna
bull
ib
sought
фиг
әит
мақала
монарх
drama
экспорт
трех
яха
##кие
seasons
әдістері
гүлдері
steam
баспасында
әулеті
believe
dang
бон
басынан
жөндеу
ұшақ
ұиымдар
мәскеуде
alongside
помер
очер
figures
tournament
лип
##зи
##яг
барынша
тұман
branch
серп
империи
##отреб
организации
adapt
##тастыр
disney
##тіледі
defence
demonst
encoun
xiii
түмен
қысқ
deliv
имеют
jeff
function
dan
ро
##ықтан
##шілігінің
scoring
ғылымдар
##ылдыр
emot
керісінше
##110
##140
корп
continues
шекарасына
жауынгер
historical
душ
spread
әкімі
білу
эпох
##осының
учен
өнімдері
drug
тмд
##230
##isa
алк
түзіледі
есебінен
walls
многих
маршру
prominent
450
mile
##аңқы
##ково
мерзімді
theatre
зауыты
hair
сорт
##istry
cool
клубтық
physical
телеар
cricket
білікті
енгізу
ga
ta
аэр
крит
struck
боиымен
##озои
қосылып
##шілердің
қабілетті
қорытындысы
беларусь
талдықорған
шаян
##вод
##yth
аиының
actress
сахна
animal
рәсім
##acher
этих
шалғын
глуб
situation
барселона
nel
бетін
##ню
қарыз
unf
топтың
##rawn
дүн
eliz
таипалар
себепті
identified
кәр
##овании
жасөспірім
##ғасыр
##асов
болар
атанған
##ега
толы
слово
surre
##book
тынық
problem
вещ
сүлеи
expans
viewers
observed
##тұр
қорық
революция
развития
грамот
disease
таны
##уск
##екі
берілетін
жеткілікті
metres
pros
##лением
carl
explained
тұзды
торабынан
beyond
dream
бия
##пат
albert
##лович
maximum
soul
##қо
прест
станция
линг
қарау
##ноз
табады
бөледі
ешкім
таралуы
увелич
##ьи
##ety
##ava
106
бітіріп
philos
challeng
ракет
потенци
жалп
plays
calling
returning
completely
различных
ғаж
##ket
тауы
category
коммерциялық
яд
##oe
сообщ
жақында
таким
стала
hem
sense
расп
енгізілді
oxford
бригад
vac
кыр
рич
анықтам
өткізіп
руковод
typically
медалімен
воиск
жолында
therefore
strength
қышқылы
##хр
##дерінен
##ику
аиқында
алмасу
##тоғаи
октябрь
эллипстік
##хим
##шалық
##uses
тілінен
subm
##тылығы
bowl
rainfall
haz
кои
##250
құраитын
##agn
қоиылды
foundation
meanwhile
кра
қазму
##истов
ретіндегі
атағын
плот
##нению
әзірлеу
##ьков
comic
bristol
шекара
петров
tay
бук
нару
asia
##ighth
ішіне
тұрғысынан
келгенде
постоян
дәуірінде
senior
саясаты
##деж
көбі
##iring
imag
түлкі
621
хл
##ici
comedy
туысы
cook
жағалауы
атқаратын
улы
##ча
предпол
мыңнан
власт
historian
gh
hat
қым
##oman
зерттеушілер
offensive
толығымен
құрылыстар
economy
жәні
кострома
ridge
сср
##чет
##aga
толтыр
бізге
entr
speech
influenced
прокур
продолж
кескінде
##син
##bard
##ларымен
##emic
##епов
зерттеуге
есік
innings
expressed
2nd
указ
##балар
##омен
өнімдерін
таипасының
confirmed
шеи
обр
##ella
##аттарын
больше
1899
субъекті
благодар
конс
barb
psych
библи
americans
##паған
базар
boys
edge
әуеж
аяқталды
бюр
тянь
##вые
персон
280
театрында
голов
divided
египет
бретань
boston
eag
республики
surpr
венгр
volume
industrial
гам
шү
яв
обоз
online
##osaur
солардың
112
әбден
елдерінде
charts
ассоци
weapons
боб
##чат
coming
spect
асады
##ickets
близ
қауіпсіз
әңгіме
мүиіс
қазұу
померания
mis
##rative
##дев
##даны
мекендеиді
бұта
зелен
##ыңыз
##аиыр
##ивтік
құны
бүирек
хаз
##онна
##уна
##мұх
doub
биіктікте
шикізат
din
##cle
##isher
##икан
қорғасын
says
финлян
патшалық
андреи
intellig
tells
рук
##iday
атам
уәлих
criticism
pilot
imperial
nations
rise
дара
##арқа
әкімдігі
setting
mainly
ғимарат
motor
докторлық
дұ
##аушылар
##абек
suc
оиындар
reserve
ондаи
passing
sens
##ayer
##еріп
##ockey
екіншісі
евген
girls
осуществля
##асқан
түрлен
желі
солтүстікке
функцион
reference
technology
беибітшілік
##далып
қабір
оқшау
облысындағы
сталин
moon
своего
мире
fan
jon
##elve
1860
тілдік
shel
floor
1980s
білдіретін
неитр
лауазым
адамзат
##тi
##160
##icient
##тігі
қатер
шығарылды
күнді
бұир
түиін
дағдар
global
risk
equipment
##пек
why
өсу
анықтаиды
беинеленген
тереңдігі
causing
женщ
##одақтық
library
дл
##olved
##адлеж
unlike
##туға
brad
argued
duke
baseball
activity
жарыстар
reports
protection
утверж
інің
##кур
##rical
##ерм
баренц
мұрат
address
бөлігіндегі
1889
дәрілік
bart
pul
##шын
##iced
whit
places
тепе
тұиық
аитты
worldwide
##mark
##ади
twelve
таипалары
##apped
powerful
core
sin
##талуы
proved
оль
қосалқы
зеинеткер
тегін
##шөп
теңдік
смол
оператор
тұрмыстық
selection
survey
хирург
pin
rus
condition
абдул
ire
ниет
scul
осының
күндері
negot
конкур
жүре
терез
балалық
resist
ортағасыр
тектон
науқас
##ственно
принадлеж
заттың
значение
петроп
тағаиында
ly
mit
тос
халықты
creation
кешенді
##чик
suit
##адат
эпизод
lewis
ori
еж
##оли
##ыңғаи
арада
ашу
энд
knight
treatment
carolina
рау
##ница
жұқа
join
қуатты
жоспарлау
шығармашылығы
тамаша
##ченко
##еле
##ala
стороны
желісі
серед
capture
independence
elizabeth
gained
hub
рот
алек
##раш
қорғал
##илья
##ифр
малдың
құрылымдық
##ledge
котором
myth
##heless
настоящее
xiv
##pa
##ront
##терек
##ete
статус
отырар
отырғыз
ортаңғы
арттыру
сабағы
азаматы
иванович
случае
бүркіт
дириж
##station
адамдарды
comes
ұлттар
билігі
баиланысы
crime
анықталған
аитуынша
##уен
сур
arc
заңы
жабық
құбыл
affected
bes
growing
vehicles
құрманғазы
бельгия
ahead
##олла
олардан
оқырман
summ
sund
send
##активті
таим
opin
##ледств
заключ
мүиіз
heavily
sculpt
##шінің
bru
қабық
экономикасы
workers
1887
аспаптар
reaching
тәртіб
каш
әрине
бұұ
бастығының
фермент
represented
gord
tu
##ias
берез
aired
әрекеті
steel
комсомол
bern
##iлi
visual
##лармен
төбе
тарихындағы
filmed
maintained
victoria
corporation
##алин
ерлігі
қолданған
учреж
большои
illust
коэффици
жәнібек
##ela
бірыңғаи
##аттарға
батырдың
chamber
nap
##уется
жүиесінде
түсірілген
ұшыраған
agreement
впервые
цилин
##чив
оралды
содер
қолөнер
баиыр
президенттік
грекия
fully
##sen
##hire
##аит
тиесі
процес
billion
##тах
соп
табу
полк
картасы
##дырып
мощ
##ықтығы
дерлік
senate
activities
##ev
##ерин
арғы
stations
северо
##known
ceremony
жүргізген
қаһар
surrounding
330
pus
##че
andrew
##шылдық
##essions
баилық
астына
қабілеті
құпия
lb
мө
сір
##бу
##urt
мень
1500
аиналысты
әскерінің
шыны
наиман
дәрежесі
##гiз
лицен
сиц
##pass
##град
##bon
##азм
##ависим
##ифа
одна
salt
бұрғылау
hay
кип
##қаның
қазақстанға
нысанбаев
serve
наук
armed
бөлігінің
которое
бүкілодақтық
ықтим
жиналған
золот
сынды
фун
жоба
orchest
проч
свое
playstation
анықтауға
losing
жил
##where
##енс
##any
отм
катунь
солтүсті
##ирования
мәселесі
финалисі
sexual
течение
нары
ср
шань
##мур
##тад
трак
кереи
хорват
своих
именно
eyes
##емых
##иттік
обн
price
терге
145
қолдануға
еуразия
1895
құрылтаи
шыға
түсіру
batman
приход
жаяу
пед
пег
##inson
wars
басқарма
laid
description
##box
пішінді
брага
nic
##ициялық
##ғалау
қуаты
capac
түзеді
skin
weekly
кішкен
tag
##аде
##деулер
elimin
supply
начала
поэм
1960s
өнеркәсіптік
лаборатор
жқ
сид
үңгір
##коз
##озеф
жаңғыр
тәтті
twice
дамиды
көлдері
баспасы
қызметкерлері
battery
политех
топырақты
lane
раунд
##кая
##har
өзендерін
жаңбыр
такие
саитында
работы
newspaper
##170
коп
жүиелі
жалаң
spin
күннен
agric
230
швед
require
##огендік
perfect
структур
youth
##uous
##штаб
##оват
##лены
ұзамаи
resident
есепте
үлгісі
georg
##реческ
##worth
траге
tig
##мау
елінің
leaf
саратов
нараз
150px
debuted
исключ
шашыраңқы
ble
тін
##зал
##ғаз
##тая
##stan
beach
evac
керне
связан
аристот
ireland
тиесілі
##меді
##дігінің
асып
ісін
жарыққа
кескін
метрге
сүлеимен
hyp
ri
##urb
excl
болғанымен
##ханасы
joint
анықталды
guest
мерген
сосын
бекет
жерлерді
experiment
түиір
mike
supreme
127
doing
##келкі
russia
rare
##нис
##ослов
##aza
leadership
употреб
merc
мұражаиы
вьет
днепр
ваш
эта
келі
spr
spok
аита
немецк
жақсыл
толған
кенес
қоғамы
органдары
нәтиже
oppos
homer
ры
##ордин
##абын
##ству
144
бетіндегі
қоиылым
жобалау
md
бомб
хоб
стих
arthur
113
joe
данным
visited
ауғанстан
мух
көсем
##ifying
қызметтер
дегеніміз
тауының
cambridge
шұғылдан
уәлиханов
##mans
дегенді
producers
drew
бөген
барған
жылдарда
музыкант
независим
lives
##арының
##тарынан
қазкср
атасы
қосады
төмендегі
impress
жүргізілді
тәулік
челя
delay
рабоч
assistant
церкви
біртұтас
##сық
##ordin
проте
приня
advanced
1970s
татарстан
дуб
срав
##heim
таныт
killing
түрлерінің
дмитрии
##ету
##еланд
ресеилік
##ends
avenue
элементтер
analysis
хорезм
##вент
##овать
exec
көреді
contained
жыныстық
convers
христиандық
expansion
agricult
бин
##set
коф
дененің
таңдау
expanded
opposition
существует
құжат
creating
сиыршы
мұст
асырылады
іргесі
degree
df
жүсіп
құз
##iana
note
clar
assault
nelson
sbc
##едь
елдері
unknown
brand
##адает
crowd
pig
##иот
непр
саль
trying
қожа
дүкен
одно
ends
генрих
борис
fellow
жұбанов
рубл
цель
##шалар
##can
##ақтан
стро
leaves
fired
орысша
аустралия
момент
garden
lady
вис
кесте
киелі
##born
##ware
белдеу
135
marine
станс
өзгеріп
люд
jean
virt
couple
citizens
interpret
аят
вольф
##шк
##ылардың
##тех
##адж
асқан
ортасына
паидаланып
medal
wave
##more
##урет
##ланып
қосу
тұщы
advert
таулар
basis
casual
powers
##gend
переп
жоғарыл
severe
opera
государства
regional
escape
атлантикалық
дивизион
columbia
##ерп
##iled
##індеи
жот
тармағы
қытаидың
claims
320
##цеп
инстру
танк
gameplay
revol
officially
household
criticized
gate
piano
куз
##ew
арсен
төмендет
leaders
начина
кут
ри
##яет
ақсүиек
жағасында
жанында
matter
supporting
дамуының
дамыды
##ylv
овер
##rick
##аточ
##eman
##uled
жалын
зерттеитін
қарсылас
қаинар
директорының
individuals
flooding
ош
##оле
128
өнеркәсіб
##изации
##izes
қуғын
әрекеттес
label
будд
##құлов
baby
instrument
ваг
пеш
уик
thin
heard
жағдаиына
патшасы
кәсібі
құрт
extra
маңы
ideas
##нут
##ислен
plants
flu
retired
аталып
населен
operated
avoid
calc
xii
##олня
болғанын
decre
register
аяқталған
синдр
жіберді
тозаң
rival
toward
newly
австрал
##aniel
jac
кант
лас
нат
сум
##осов
##iva
координ
chor
жазуы
##ющим
##ивают
белсене
васюган
democratic
dry
##лик
##осе
парас
томдық
famous
##shire
мәселелерін
калифорния
пыш
##pe
##bl
##оре
##онг
##ads
serving
меңгер
merch
ыдыс
republican
нефте
surrender
иелері
шегі
##ымалы
fresh
##ожа
ортада
теңізінің
archae
orders
соққы
judge
кінә
##юк
##енов
өздері
реп
топтар
мамандық
жауып
frequently
##астр
тілдерінде
кіріп
людеи
demand
резерв
ұжымшар
шатыр
әліпби
бәсекел
ков
##иум
incident
арнап
партиясының
нұра
паиғамб
males
ря
##ington
##icks
әлсір
зерттеген
wheel
отырық
оинаиды
##мбет
құқықтар
жібереді
десят
железнод
dismiss
tel
##дп
##анты
атаулар
геркул
расск
одного
күрт
түсіндіру
оптикалық
element
benef
таяу
қалау
##ицеи
оқитын
түзу
currently
shooting
expedition
железнодорож
баяу
днқ
##виг
обор
ордендерімен
мақалалар
normal
чуваш
##ну
қызығу
legend
кеңестер
бөлінді
cannot
vice
пак
##дается
abb
weak
поддерж
сұлу
массасы
өкпе
vent
лоз
яков
##еком
арғын
түріндегі
##отт
##озавр
өзгеше
алдындағы
основном
жылдамдық
бұиымдар
domest
nhl
tall
суль
##руд
стив
##antage
само
инженері
##burgh
зен
prote
қамыс
біткен
жүиесіне
керемет
сұрып
##хаим
##240
##шем
құрбан
сопр
##akers
##ковскии
подоб
госп
1834
тігіл
парламенті
##iс
##мотр
##pool
##бо
азияның
adj
ұшырады
honour
catholic
wond
##арлары
бастам
consequ
елдегі
##янов
repeated
отмеч
##дауы
алю
қызық
екіге
singap
appearances
glass
products
vote
sequence
басшылығымен
nuclear
##бил
##under
##isters
өткір
қамал
көшелері
1865
trip
енгізді
режисс
расположен
az
bc
оцен
##арал
потр
халықтардың
ғасырдан
шілдес
discovery
mulder
assembly
обознач
singapore
faced
hockey
lit
гү
лук
деді
мүсір
жіб
planning
атлант
mist
##тілік
notable
аясында
келтірілген
өлшемі
simply
bure
dw
сыл
арасына
белгіл
бағал
паидаланылған
дамытуға
##osphere
жасырын
hydro
усп
##честв
балапан
maria
отыратын
руының
жаттықтыру
традицион
лек
##bi
grew
тереңдік
solo
вилен
budget
bodies
вьетнам
##ador
atm
оказ
қорының
атады
attrib
watch
амангелді
магниттік
alternative
taylor
баиырғы
кішкене
##mond
қыздар
1894
holly
ұлғаи
жағдаиын
дору
ғибадат
hell
ве
##әм
##onents
##ырсын
##ирия
асқаз
##дырады
аурудың
груз
аумақтық
lind
vess
гв
лос
пят
##нат
##600
##ындық
rejected
ерікті
##оки
114
ішінен
composition
evolution
##лея
##intend
үидің
standing
save
польз
##шу
##овали
деректі
##osen
месте
жауапкер
##иха
төре
##illa
балалары
broken
көлінің
правило
1891
помещ
тыңаи
ескерткіштері
falls
особенно
зиянды
диалекті
автокө
##add
төс
ісік
сыилық
другои
adopted
sail
быв
##tic
##310
##өрі
алап
алуы
##итті
жүиел
##ислав
cris
куп
аиналысқан
ұң
тілдің
##phone
шаруашылығының
ұрпақтары
117
өмірдің
дамып
consisted
ұиымы
білімді
1990s
vietnam
лингвист
om
пит
##rate
perman
emph
ескерткіші
мезгі
оқытушысы
journey
dor
##рақ
##ектер
##дания
##ландыру
ынтымақтастық
ид
##ылығы
##itch
акті
кораб
##тамыр
##ілердің
нарықтық
аиналысатын
дун
##ua
қаиың
поляк
1884
prompt
purchased
синдром
кау
крат
##resp
необходим
хер
##anes
##oma
отсут
##стердің
масштаб
ұсынған
ылғал
regarded
##яют
##жі
##иктері
##иева
салқын
ерік
анна
1100
тербел
parall
follows
производства
карьерасын
ax
bang
rot
жизн
ұран
##аттан
##onic
суар
175
переда
проход
белгілеу
1892
шығаруға
привод
narrow
acquired
gordon
отсутств
##шаф
contain
өмірін
формы
1893
##fully
ағады
turns
делег
оилау
homes
усаға
қоқан
142
қабылдаған
первые
crossing
historic
состоя
егемен
freedom
шел
##це
проек
roof
қанды
locations
офицер
актрис
ардагері
приг
##ақтығы
##ғалиев
champion
лаз
##лах
##боль
goes
таких
хрон
capacity
аск
зең
бөр
##окол
worth
қашып
есепке
шешу
аурухана
әуезовтің
herself
благодаря
##eb
министрлер
финалист
мұғалімі
өріс
wilson
measure
федерациясының
fuel
санын
көшбас
мыңға
1888
квант
restrict
паша
сәтбаев
степен
інісі
achieved
kel
мын
тул
##астаи
ақындар
қорғауға
таралу
кепіл
тіркелген
сценарии
леп
##нения
##кого
chosen
хандығы
generation
екені
мәселелерді
қарақал
eld
оғыз
##uate
аралы
паиым
бұршақ
қадам
система
torped
rules
wounded
әш
##room
осында
##ическом
көмекшісі
suggests
torpedo
сып
##adel
##аком
жобасы
кірі
акср
число
injury
scholars
divers
kim
##иля
артер
braz
две
жігер
держ
өсіріледі
көзқарасы
iras0
групп
seventh
югослав
теледидар
gib
lap
##мелі
##имов
##руш
##ильма
күннің
свобод
ортаға
##шыларға
extensive
themes
мүшелерінің
городов
аналог
railroad
фотос
визеу
page
tank
##сис
##egr
алакөл
##уллин
қабаттар
##стігі
дәуірі
opposed
әкелді
флот
abandoned
kid
tab
жылжым
реф
мешіті
strike
code
иса
##олии
##orters
сулы
құруға
##лена
column
соверш
сұиықтық
дәрежеде
дэвид
families
ортағасырлық
kaz
тасты
##усы
##веи
орыстар
throw
##тең
қалаған
күкірт
seat
поряд
фильмі
бәс
аимақтарда
серікте
хромосом
цилиндр
roles
бут
##оск
##oster
##кое
шығармаларын
жабылған
өндірісі
necessary
zone
мюн
тя
##линг
##голь
##yle
томь
романт
##шілес
negative
picture
геркулес
au
aim
кун
##фика
ортаның
actors
genus
effective
improved
dial
##eing
##қысы
##екторы
аиға
##ленд
income
жыртқыш
possibly
труд
aid
ащы
ұлан
##дын
deploy
основан
группы
jewish
fix
##поз
##wise
sched
еуро
receive
humans
promotion
looking
тогда
##иями
##истері
##aine
accident
granted
ka
##яются
##ulate
consecutive
технолог
estate
depict
##engt
lands
напис
commissioned
эро
##оэ
toy
##umes
көшті
##ифт
puert
егістік
##ylvania
##hew
ретте
##ациялар
әлемге
клубында
moder
дәуірінің
##ирование
failure
пушкин
##сары
##ымыр
біреуі
негіздел
нәз
нәсіл
үиде
қожалық
апар
##енности
##itan
##рач
beg
bear
жастағы
қосылады
картоп
құрылғылар
politics
##ымдылық
культуры
оте
##iar
##270
##wa
##анг
##ito
##естен
тарб
116
260
steve
publication
irish
хорош
younger
southeast
##ucky
оно
ряз
##отоп
солдат
spain
шаралары
towns
компании
спектакль
gil
ше
##шысының
өздігінен
thing
сопақ
##исеи
resour
canal
монограф
маусымында
defin
частности
қақпасына
үміткер
тәжікстан
дебют
позволя
обнару
аристотель
веб
chose
146
gray
бөлме
##ancing
бесінші
овернь
қир
##омат
ішін
талант
centuries
ұиымының
еуропаның
соғысына
1881
classic
қаржыл
connect
##уляция
ott
адамнан
124
aviation
utc
fash
қалмақ
коз
143
назнач
шешімі
еуропада
##пископ
минералдар
королев
##олнитель
заисан
purpose
straight
rated
##иа
##зақ
аласа
құрып
көн
көрсеткіші
слова
рассм
евре
психологиялық
##огенез
командирі
gives
чего
##ело
1850
unus
дәулет
сарысу
##мещ
қорғаушысы
structures
wrestling
penns
jr
##омер
өзінен
құрб
арасынан
spot
қабатты
##ocked
max
сапалы
distingu
ізден
ертедегі
выраж
инте
chance
құятын
аним
жаққа
deck
аитыс
##weight
молда
фрэн
көлемді
тәуелсіздігіне
весь
gather
ron
басшылары
күштер
қалыптастыру
филиал
әдістемелік
февр
чист
##пес
##aly
##миг
қолданбалы
актері
новыи
witness
emphas
puerto
dub
жеб
рель
##тв
##fri
елдерінің
##иясымен
гидро
беира
сказ
1882
начал
шоғырланған
holding
briefly
von
гус
дов
сара
уран
қалқан
денесінің
образования
факультеті
distribution
акционерлік
symbol
петропавл
алюмин
firm
түсу
маикл
types
махамбет
тақырыпта
тұтыну
диалект
##ora
147
руынан
қозғалысының
батырлары
нарық
қалыптасу
тартты
раионе
basket
математикалық
челябі
bishop
грав
адамгершілік
прош
perh
canes
кептір
sale
сои
##рек
жүрді
teen
күшін
істеп
passes
құмыр
религи
мүлдем
мажар
perhaps
##баз
##үи
конт
reserv
кров
кездесу
ауруы
finds
ұстанады
tail
table
инсп
##алык
try
gramm
орталығының
southwest
инженерлік
venatic
##отех
оскар
корпус
вага
пары
##stream
өсуі
agent
мете
remark
defensive
городскои
мақсатымен
виды
нескольк
dc
tenn
ther
##иду
##ocated
##ическую
secondary
прек
поск
романы
огранич
етістік
қымбат
жə
рыс
факт
үисін
##water
##олиз
##инка
118
жүргізеді
##ologist
##ылмаған
күиі
1878
міндеті
декабр
brian
конституция
dedicated
bottom
mode
##hol
солт
flat
паидаланылатын
internal
числен
китаи
өсті
##баст
##амын
##едi
тракт
секунд
ассамб
colonel
scientific
кажд
venatici
drop
gain
фам
heat
тәрби
##шылыққа
соғысының
freeway
dip
кук
##aud
##юсер
##фин
арақ
кель
төтен
тәріз
cabin
серт
қүр
franch
тоты
мектепті
журналының
ұстау
баспасының
##hens
kings
rum
ик
ка
##ысындағы
alle
exchange
interchange
хандығының
маманы
суретшілер
мүшелер
split
параллель
caught
mtv
ластан
әлім
##ним
##va
##onent
##тіз
126
##ольку
1873
profess
##нә
##десі
##оголь
##anda
оконч
событ
ландшаф
бекініс
nav
сбор
ча
##aka
introduction
closely
авиация
3000
mes
жителеи
##сындағы
##ттық
##рис
##иядан
сана
мемл
марта
күніне
prefer
болмады
қалыптасуы
собор
ешкі
fashion
##во
аяғына
consum
parker
applied
tam
жад
клар
##кам
##260
##ko
оралған
мұң
софия
roughly
liverpool
rene
меся
қарак
жағындағы
shop
көрші
жетілген
жолға
болмауы
фрид
advantage
орманды
компонент
mand
вег
вари
кп
міне
##юг
##ғұл
алынатын
әкесінің
өлке
полков
containing
##циясында
формасы
didn
protect
далалық
punk
эри
##rich
##алист
##емые
болуға
##ілмеген
салынып
##outs
шығыстан
мастер
сызық
қабілет
бөлімшесі
withdraw
eighth
жаһ
ием
##iro
##арға
##еимен
преим
жерінен
##аларынан
##umber
жарыл
полимер
алғашында
аударды
екендігі
mathem
1861
campus
центром
letters
norman
pictures
төтенше
##кес
##етия
союз
119
experi
mountains
rand
##гөз
##жаң
##енном
қалаш
##ivity
##едение
иннов
жолының
females
бразил
компьютерлік
breeding
caval
fu
paint
верт
гамб
пищ
##рои
##месі
жылтыр
арна
##ading
##ивер
cooper
##issance
dram
капитан
ауытқ
dim
rome
бед
кесіп
меч
##прав
##lusion
##ira
ақсақ
атыс
астындағы
simple
понят
knowledge
единствен
дизаин
mouth
##арды
##itled
келін
стен
protected
participated
жəне
##пын
##рации
батыл
1883
landing
occur
кәсіпорындар
көруге
investigation
olympic
ват
##иыр
1830
созылмалы
stev
1867
массив
болашағы
launch
иеленді
жаттықтырушысы
##уи
##алақ
##otic
##умы
cape
аударылған
тұқымы
қасиеттерін
commonly
басқалары
конфедер
сульф
brazil
қоп
##kes
##анады
##деш
##акия
##евои
trou
оларда
##ipe
##ақтарды
орындарының
өтін
беттер
германии
өрт
әуен
журналистер
harry
1868
croat
большинство
мау
тің
##берт
##ылары
құрылып
##ліктер
тарау
қосынды
әуес
сипаттам
журналы
шалқар
қыстау
аидаһар
ркфср
әп
жүгі
##istan
сереб
қалыптасады
раиона
titles
аспирантур
поскольку
vel
кэ
##баған
##асар
islam
облыстың
келуі
##ақтарға
жолындағы
әлемде
сөзінің
интерес
clevel
reinfor
жизнь
ak
натр
##ықтыру
призн
ans
оке
мұқан
solar
facilities
льв
lisa
##нез
##ево
соңы
upgr
finn
телех
кету
заманымыз
##ушылардың
жорық
жапырағы
existing
ғажаиып
sell
устрои
##белі
##тігін
біркелкі
##едении
коман
интел
##егіне
ауылдың
165
crimin
agency
1876
алексеи
сүреді
князь
нақтылы
фигур
круг
шев
##iere
##inity
##азд
жалға
trains
developing
ағаштан
большев
жеткізді
##ывает
сөздердің
языке
cleveland
fw
ув
##agr
салуға
##альдық
таудың
##никами
орнында
өзгереді
##ьевр
жауынгерлік
развитие
contributed
conservative
ядро
иелік
##гы
сун
карбон
секрет
provides
junior
жәрм
қалдықтары
полиграф
nest
зеланд
эпи
##міз
##ондық
полиция
көздері
художеств
##lar
##қк
##otyp
##unk
аиналу
ақшалаи
greg
әкеледі
жұмыртқ
unsu
rav
wings
##оятель
##цо
##атына
##олнен
##rets
##iments
жерлеу
бұт
аитуға
партияның
сүиікті
зависим
intelligence
##км
прож
##utation
информа
##ansas
әкімінің
warner
өсімдіктің
1871
regarding
потреб
wbc
уж
преж
##лермен
recently
актерлері
докторлары
билеушісі
focused
түбінде
philosoph
мүсірепов
gone
##wart
##аларымен
ответ
еңбектің
teach
аралығы
instruct
үстің
ira
##lers
unl
cloud
құлақ
sets
##erted
продюсер
анализ
synt
секс
сибир
##tar
##иат
##мир
##қаида
##екан
##azz
докумен
названия
уикипед
балдыр
ход
##оят
##иор
ауаның
##erse
мемори
жұт
объем
describes
bands
##штеин
environmental
колумбия
самарқан
gulf
##ds
##cr
##cer
##шілігін
##oted
##soft
##ender
retire
##ылмаиды
organized
authorities
safety
жиырма
ғаш
##шықты
алье
қарқын
##кістан
122
перес
бекіту
transform
бад
зымыр
тыл
##eals
##асия
коопер
өңірінде
финалда
mounted
жиналатын
европе
тақырыбы
комплекс
дағыстан
mobile
opportunity
алексе
трактор
ped
tell
ньевр
трав
өткізген
arrival
баянауыл
жапырақты
entirely
выступ
сым
шп
##лерден
shape
marc
толст
джеи
жыныстары
нәрс
января
rab
веч
##ігі
##омет
1800
shaped
##онач
мәнін
дәрежесін
hms
##юм
##ыққан
қалаларында
кезд
specim
аимақта
заманауи
autom
viewed
тырысты
поверхности
сыиымдылығы
религиоз
рон
басқан
өзеніне
comics
155
005
мата
pret
сақталып
күштері
аудару
добр
валюта
pennsylvania
hired
вд
умер
##oses
calls
құрылғы
##ьевич
бірлескен
түнде
vehicle
session
юго
##ұт
##одно
зерттеп
геоде
regions
мұрағат
глоб
prize
загр
rolling
көкөніс
шыб
##350
жерінің
мекені
##ющее
таңб
universal
археолог
treaty
credits
счет
intensity
демалыс
произош
миллиард
152
шығарылады
##ылуын
remix
quite
buff
singing
кәсіпор
кәсіптік
витамин
ричард
##iations
биолог
receiving
гаронна
microsoft
nintend
чили
##шам
##ынуы
празд
##attle
шаруашылығын
miller
ұсынады
саясаткер
странах
жоиылып
шәкірт
гимн
340
выш
мег
##шеств
##ивал
##ическими
brook
жүргізуге
заманда
controlled
сыртқа
титул
выбор
вена
##пп
##жер
##обр
132
оңт
guide
corresp
протя
маркс
thirty
opinion
nintendo
correspond
тов
##ao
##шалары
##емыи
##ompl
##талары
##iful
138
изуч
##achus
основе
глаз
clean
мөлшерін
агрег
hope
determined
fame
wickets
##laim
##итм
##ears
мұрағ
выше
билер
получил
одақтас
стратегиялық
550
fro
horn
##тө
##шi
##ылса
##бекұлы
аимағының
scully
желілер
##mann
қатарынан
соғыста
маиы
##иваются
confront
legacy
вашингтон
##ike
##rons
##fe
арқа
полностью
телім
кездестір
evening
практически
жабдықталған
violence
плен
##иеся
##uan
##деиств
unique
tra
мүлде
лак
##лардан
салты
жаңақ
finish
acts
##athan
керам
##ованием
әулетінің
жасалатын
ырғыз
бәрін
ыдырау
мемлекеттердің
үшбұрыш
шешуші
өткізілді
учеб
нұсқа
explos
севернои
argent
қатысуымен
забол
политехникалық
ward
пин
сың
тро
##ополь
перен
turning
өмірбаян
қоршау
удмур
клиникалық
тарбағатаи
si
воль
қымыз
##och
түле
атқыштар
жастық
дегенде
##ениях
##ымдарды
сынға
anne
тапсырм
cavalry
hart
нук
ғұм
##eper
##зан
##ping
##arm
##азиялық
##rec
##кеш
##цио
теннис
бастапқыда
rhodes
усть
площадь
қарақалпақ
үстіңгі
ноч
уэ
##сұл
##aver
##eless
төн
##остав
поляр
cars
сараиы
бөлінуі
концеп
пәкістан
sites
микроб
neighbor
##itage
##инам
bron
province
providing
мұздық
successfully
##fort
##иям
##іктер
isol
##шыға
типа
себе
кеибіре
гүлдеп
луи
армии
approved
##ующих
будет
rapidly
немересі
georgia
hou
тіс
##ғалы
##елерде
жасаи
шығуы
integr
##ucks
ондаған
##охран
платформ
corner
еңбегінде
task
мост
##oir
##iny
##etts
136
азии
балалардың
сату
ақпаратты
взаим
метеор
naz
леч
##ынаны
ерен
белок
##лык
еңбектер
##седа
тазарт
автомат
сақтауға
challenge
cou
кыз
фант
##итар
##илен
exact
adam
blues
академия
belong
anything
downlo
ливерп
представляет
қамтитын
августа
днеи
мы
##алиев
##аидың
көптеп
жүздің
operating
билікке
##ғыстыр
гранит
восстанов
күзет
сосьваға
вестф
номинация
евгении
fine
рода
##маитын
##тарымен
##roll
франции
терр
141
wealth
ізде
велич
сортаң
целин
literature
глю
##zen
##inn
129
1200
алмаған
полу
орталығында
провинция
myst
автоматты
speaking
эльзас
occupied
инфрақұрылымы
cad
gri
##альном
асқын
амал
картин
самара
борь
состоит
өкіметі
қоныстанған
##ographer
cyr
nam
кю
малы
хі
эш
##еңке
салынады
##unte
drink
highlight
divisions
ланди
индонезия
лью
натур
ауылда
туды
consists
strengt
энергиясы
everything
гум
##ким
түсп
сою
fruit
lev
қолданылуы
акк
extrem
tests
мұсылмандар
##рахман
domestic
преимуществ
unsuccess
ocl
бб
туб
қы
тартады
shared
##десін
қозы
мектептер
мөлдір
1863
уәл
declined
santa
саясатын
principal
армения
офф
##лаин
##ouri
орбит
##ивания
аздап
күнтіз
герои
descend
шарап
guy
armour
беріліп
азияда
элемен
significantly
класси
строительство
wel
гг
##іңіз
басқын
shall
##ourt
таипаларының
актерлік
озер
ульянов
жаратыл
литор
ны
##360
##лану
##iform
215
carey
талаи
engaged
составе
спартак
bak
пияз
225
275
phase
##атура
генетикалық
образование
собран
компанияның
connected
атлетика
weakened
касс
##oh
##еттен
суару
арыс
оишыл
соғыстың
owner
тақта
volunte
##ographic
линии
европы
июля
none
##стон
мекендер
##остью
##ировать
кездеис
performing
естелік
massachus
экспедиция
тәртібі
##break
қуаныш
режиссері
мель
##нақ
##ione
##agan
exerc
туады
жанынан
серге
##ropol
көтеру
protest
элементтердің
авторлық
қарсылық
материалдары
мағл
substant
francisco
ливерпуль
380
mamm
util
зұл
##кас
##rane
##беитін
##ланды
##ицизм
290
маида
internet
ненец
грузия
османлы
mentioned
massachusetts
eat
lem
##po
сул
аумағын
121
brid
моря
##лась
belief
дәнді
chairman
иіс
фаш
экск
156
талқыл
шұңқыр
liberal
даярлау
##акс
таныс
тектес
сык
##ющего
models
views
моңғолия
ұмыт
шығанағы
ari
voy
ац
##340
##ыль
алжир
##альт
жұмысына
моин
аударып
фрак
harrison
1848
қабырға
табиғатта
##қаиыр
считается
lyn
rar
жатын
хош
##числен
##kins
##wich
##таулы
сақталады
сапасы
төңкеріс
semi
##ients
##етик
alf
батп
саяб
плеи
председа
өзгеруі
зардап
nether
юрии
##бұрышты
chapter
шектеулі
пьер
##инк
##омон
арг
##ихан
proceed
кіріс
##стерді
өткізілген
деңгеидегі
сыктыв
cells
drawn
hits
jam
коль
##кут
##ұп
##inum
қаланы
##иди
playoff
жағалауындағы
мыңжылдық
шексіз
convoy
әкеліп
маркет
watched
producing
##itzer
budd
тексеру
кампания
cryst
сында
өш
##істен
атақ
bright
көрсетіледі
теңізіне
тотық
банкі
есімімен
ыдыстар
scheduled
cow
ken
lenn
##уя
##стағы
##овыи
қараң
алмаитын
мүмкіндігін
1784
resistance
литорал
кездеисоқ
jay
##штад
##icide
жерлері
##usc
табысты
спас
қырлы
кездесуде
симфон
existence
күиеу
tact
бег
##мес
##rad
##елді
ақтоғаи
##inton
collected
entry
ғимараты
popularity
заним
туындылары
casualties
basketball
пул
ювент
##паз
shear
бәи
келтіреді
шахмат
ескерткіштер
getting
arranged
пегас
эридан
лед
##езда
қалаушы
баиланыста
##кова
қозғ
1835
russell
октября
##юль
жүрі
18th
##даиы
параметр
қауырсын
өзгеріс
89800
finding
touchdown
jump
oak
удал
##isers
дәнек
131
қызметке
кред
extension
предмет
defined
фильмінде
асырады
қалыптасуына
шаруалар
даиындық
##дiк
швеицар
reaction
қадағалау
##том
##290
##шаның
##рун
тілде
##уссия
бұиыр
предел
poly
аяқталады
макед
челси
білетін
restaur
ерекшеліктерін
korea
тектоникалық
sunday
веществ
пуст
рэ
##ooth
##aro
үздігі
қауымдастық
causes
конституциялық
##тұрсын
sas
##огор
негіздері
##лено
психолог
реитин
exclus
осп
пері
##юи
##ырлы
##осс
күилер
##опас
shr
қорға
аягөз
remember
шыққандар
allows
princess
мансабы
kilometres
kong
егіз
##гек
##ati
##ланың
scar
сөзін
##otted
иванов
помощью
accompanied
гөрі
##лаг
##time
##zer
##бов
##ician
anton
баланы
параз
##ешек
жұмысшылар
##леген
##джали
архив
энергетика
##onym
көбеиеді
воронеж
kick
такт
бірегеи
##uls
##apt
құстардың
қаишылық
нысандар
билікті
evil
auth
бірлесіп
стефан
басқалар
москва
гимназ
cz
##тк
##amin
items
мұса
impr
кеңесшісі
шектес
##сыздық
стало
волгог
moore
функциялар
berlin
sharp
bath
rub
sons
лоб
пик
хо
япон
үсті
сура
ақшыл
##лана
жете
amaz
mayor
қасық
энергетикалық
аимақтарында
василии
gradually
converted
мағлұм
тост
##чук
сутек
құралады
беріл
boats
әндері
showing
##ifications
начало
округтері
ғимараттар
ұжымдық
olympics
##бастұз
gay
nba
жұл
шекті
##хау
судан
информ
##emies
бүгінде
тану
##awa
нарын
sounds
пікірінше
субтроп
projects
escort
uncle
religion
ахмед
##mont
##иялары
алан
##ima
суреті
install
routes
buried
бапкері
wonder
cited
сд
##хаб
##адалық
кеңс
interior
##ropri
door
мамандар
1950s
turk
camera
prepared
гүлі
пунк
##bus
стек
жететін
##pton
көрсетуге
газды
самых
##арлардың
сипаттама
1869
missouri
philip
ажыратылады
дүниет
daniel
200px
##илы
##ланады
ауылшаруашыл
орындарын
бүтін
monarch
қиылыс
құрылысын
1785
statement
missing
candidate
ықтимал
crisis
түлегі
750
cul
##alty
сусын
##геді
баитұрсын
клю
проект
##басар
көтеріп
финанс
шырын
бостандық
architecture
жасөспірімдер
hollywood
ож
басу
арам
бермеиді
оиыншысы
аинала
adding
выход
ғалымдардың
командасы
әулет
##ирует
duty
kir
outer
исат
леб
оты
##цк
##eds
жылдығына
##ceived
кезегінде
##antly
mars
allies
boeing
трент
monument
downtown
equal
literary
герцог
franchise
fought
баг
курст
##фельд
##еть
tow
##ите
суының
##руз
##евтің
клиент
heritage
images
германияның
polar
studied
мектепке
affairs
ауысып
championships
шапқын
employed
painting
примерно
мезгілде
fighter
##iel
reasons
кезінен
seems
##ifically
медрес
ісіне
көрінетін
раиым
мағынада
природ
controversy
эксперим
кырджали
қожалықтары
3rd
фифа
##лылар
##een
##детін
##мест
##дерн
dean
зерттеиді
neither
##иясынан
##izations
екібастұз
моғол
көлдер
solid
кестесі
message
смерти
fit
рацион
##ето
158
137
ell
poem
1879
1859
ирланд
сұх
аурулары
чехия
sed
##баиды
##изи
leon
139
электрод
шығармаларының
сөздері
##еитои
rebu
sequel
әлдеқаида
тяжел
3d
raw
бесс
гот
риб
##қасы
stages
##ескоп
тела
учаск
оқушылар
faith
chemical
pav
жаға
##пады
##ien
##әл
133
жолдар
##ғылы
талшық
confeder
шаиқаста
parallel
бож
тастан
##уга
##мыс
##штар
төлен
##rif
горь
гидра
молд
мереитои
аударма
большая
құқықтары
feeling
түрікменстан
налич
##тика
##theless
##овав
қаласын
тұғыр
submar
луис
patrol
nevertheless
las
##osis
аидар
биохим
изб
сүн
##вается
элементтері
аиналдыру
мәслих
engineer
жаттықтыр
vic
тыш
##над
##lav
##zant
жерорта
##идов
федерации
бидің
##баидың
prey
easily
settlement
даңқ
күндіз
сицилия
sie
##ji
anderson
148
бағасы
##дырғыш
кәсіпқои
тазарту
эпител
сүиіп
стране
бөліктері
sustained
mathemat
эск
##яти
##ени
byzant
қолында
149
intention
краи
таныстыр
armor
училищесін
конференция
арсенал
аттас
ортасы
компарт
someone
әскерлер
headed
injured
conservation
480
мот
##тiк
##терлік
##oln
бақша
##1100
designs
courts
reputation
павел
identity
разработ
##шоғыр
тәріздес
вестфалия
vul
жак
уруг
##яты
##met
##adow
катар
қолынан
жарқын
spons
миним
ханз
шарты
acres
1875
deaths
кристалл
fields
аграрлық
вирус
цирк
әуесқои
зр
пись
##паитын
##cement
спут
бұн
еңбекші
маилы
арнасы
басқарады
өлеңі
classification
heads
details
жұмыстарының
references
grounds
diamond
entrance
парасат
сыктывкар
bought
гесс
лез
питер
##лись
ортаны
инс
жасынан
##еуіл
134
изготов
alliance
grey
ways
ұиымдастырылды
дүниеден
ордасы
torn
рең
##come
enemies
decor
quant
maintain
аимақтың
борыш
1877
өкілдерінің
пасса
renamed
дүниетан
wba
іск
##физ
##apes
unp
жазалау
жағдаиға
norway
жағдаил
болуын
антич
труб
кальции
##хи
##цвет
##col
##ақан
өздеріне
thor
##шегі
поэзия
сентября
losses
ауқымды
финляндия
experienced
##eston
##лігімен
қосыл
contest
соңынан
телес
кенті
жерлерінде
сөилеиді
эмо
филипп
increasingly
коррез
автобус
асқазан
алюминии
professor
gang
бары
пе
##iat
##itors
саналатын
түбі
ату
кеңісті
margin
mans
decline
дінін
additionally
инфек
adapted
ыңғаилы
hip
ығыстыр
##370
##rations
##inger
албан
сант
thro
стю
ark
decades
sax
мұхамед
swim
беиімдел
climb
dj
kal
ruth
қү
##380
##цу
##igration
##лыққа
##идет
ендік
жаудың
монопол
animation
hung
импуль
temperature
норвегия
linc
mine
аұп
гре
кеб
##амал
20px
crash
үиге
##илище
көріністер
ешқашан
ирландия
өкілетті
общеи
рс
удар
обращ
1840
##оком
parties
сөзді
самым
право
germans
басқарушы
learned
дальнеи
тыңаитқыш
берт
департамен
басқаша
##eleg
equival
ұиқы
жиынтық
фестиваль
responded
рефлек
форт
хикая
шем
##лаитын
##fire
##omy
ones
саласының
жету
нысаны
##ignment
еңбектерінде
көрсете
310
аналит
латв
funds
##дик
##хэм
##алас
##ila
##одор
появля
##ығады
кезі
##вает
суреттер
тоң
combination
municip
казахстана
proposal
николаевич
delivered
##тасты
##лия
##ыншы
##енными
конден
grade
indicated
паидалана
ғарыштық
созылады
##iversary
medie
programs
threatened
беделді
lock
сто
relief
төрал
міндетін
жетісп
первая
безендір
көтерілген
дәрігерлік
storyline
шекарасы
мәселелеріне
recognized
##adelph
мажарстан
stevens
dal
ech
##мах
##әлі
##оге
прит
##далары
warning
musl
metropol
аяқтады
magic
жекпе
американың
philadelph
мырыш
ral
хран
##ishes
##изан
##озы
андж
қорқыт
##рещ
соғыстар
наслед
кітабында
мекеме
позже
жасушалар
hunt
жасалып
утоп
бірлестігі
beautiful
мыш
##тив
##ңыр
##bound
##еран
##дает
жылдығы
джек
мектептің
штаты
basic
reading
happy
carrying
нескольких
font
jur
kit
rural
хуан
##кина
inher
қазы
қорын
қолданылды
әиелдердің
расс
бөлігіне
мағынасын
ross
xbox
##gers
##heas
изотоп
##очных
dress
апт
голланд
тұқымды
##қоректі
describing
очерк
сократ
таяқ
фат
##ras
##state
барн
отв
отправ
##ante
топоним
әлемі
уақытында
animated
##клопед
губернатор
credited
изображ
қоинауқ
қыркүиегінде
lt
mall
rug
##вок
##адым
##урия
##оба
жаза
бағыттары
өлшен
1862
debate
досы
австралия
кескіндеме
hubbard
ассамблея
netherlands
cf
wides
рент
шиел
##уынан
##аля
алб
солаи
жағын
көршілес
жазықтық
марии
genes
publishing
аңшылық
алғаннан
дома
буржу
##ендіру
connection
admitted
называют
purchase
thousands
экватор
протестан
cb
cens
вул
тих
эрит
әж
##лся
204
құрамасында
қолмен
manner
ago
impl
lasted
improve
москов
жіктел
дағды
шеих
хобби
ваи
##отал
##елеу
##ити
оба
hear
жетп
жүиелері
домин
грун
bush
донецк
округтегі
орнату
литва
субъект
##оружен
##рип
##eral
өздерін
страх
154
тәм
орындарында
flo
knew
жиһ
driving
acid
persu
entitled
энцклопед
өзгертілді
replace
комиссия
technical
pitch
##сеиіт
philadelphia
jet
греческ
өлі
##gi
##ател
өзекті
orange
трамп
шешімімен
многочислен
тропиктік
қаулысымен
ride
елік
##хон
##данады
орталығына
сиқыр
тәсілдері
холод
жұқпалы
criminal
##сұлтан
льюис
bos
хосе
оруж
предлож
смыс
returns
советскии
typical
medieval
залы
##ois
##нега
##ымбет
кеңш
##туге
жүзім
қысқар
сауыт
moves
supporters
anniversary
келісс
##encies
күлгін
hills
западнои
тверь
кәрім
deleg
rivers
##фи
##аланған
##гісі
тұра
##osa
катализ
елтаң
францияда
оқул
телескоп
norwe
құрылымын
әуелі
stret
circulation
creative
еліміздің
омыртқ
грамотасымен
hind
лап
alleg
recru
жеңді
станциясы
сыилығын
алаңы
қоңыржаи
##еитинг
limit
hungar
costs
бояу
establishment
resources
тостаған
folk
sv
##елла
деф
##iration
туып
offers
өнерін
журналында
банг
достаточ
approached
известные
әдістерін
бұхара
декабря
##лi
##ek
##sa
##oz
ресеиге
жаңарт
afterwards
колл
дернә
әскерлерінің
екп
##inois
филиппин
церковь
sight
иелі
##taining
##фред
##дірет
##окл
өтп
монумен
syd
керуен
оинау
қылыш
архитектор
корольдік
отличие
dipl
ғұмыр
650
игор
шала
##яқ
chain
##acks
билігін
##ақтарына
grav
бөлімдері
үиінде
заңнам
новгород
transm
##дать
промышленности
кажды
жаттығ
телеарн
ювентус
лиз
##алим
##абаты
##agues
ерлері
##sey
151
көрме
қызметте
serb
##ыстарға
нәтижелері
палест
баиланысқан
нигер
факультетінің
walter
белгіленеді
мад
алп
##iling
еліне
##измге
##беген
пораж
маиор
гүлшоғыр
##enna
1872
профессион
декор
walk
соққан
иохан
##мұхамед
волгоград
gill
sid
зуб
##еси
##icate
болез
##othes
plac
##ляется
ұзақтығы
оиынын
##пенді
decade
belt
уезі
мырза
широко
мировои
lincoln
diet
плем
##сың
##істері
##иканы
##окко
балшық
grass
енисеи
жынысты
соғып
assass
retained
тартқан
всеи
##ательно
тамыры
earliest
площади
берегу
occasionally
қаржыландыру
ходе
##hi
##шелер
##икасының
##ules
джо
warm
жүздеген
первых
##шілігімен
таипасы
естеств
сазды
тұмсы
disappoint
схем
##da
##inary
bears
жүгері
кездері
индив
##узен
жолаушылар
жүзу
күштердің
throne
мыңдаған
первым
өнімнің
меиір
susan
##ута
##малық
theor
##инек
бастан
арти
##oli
коб
recre
корот
flash
желтоқсанында
specifically
winner
асыруға
дәріс
таққа
сахар
transportation
восточнои
сынап
jok
tech
##енте
##alo
##eland
##acle
жасар
жолдарын
технологиясы
##onto
хабарлар
государств
бөгет
enjoyed
houston
mail
wy
zero
бран
гав
##лат
##420
adams
жақта
accused
installed
illinois
анатом
sleep
succeeded
alleged
чаще
телехикая
гвин
ип
әмб
##шарт
##үрі
жеріндегі
интен
негiз
ages
actual
##amese
landfall
мәдениетін
similarly
engineering
потом
нәзік
lor
хун
##тс
##биан
##inal
##eton
##осында
##imb
потер
shots
arsen
##asty
онлаин
органдарының
новои
энциклопедия
ruled
бағындыр
вила
еи
##ициялар
inner
##иеді
##утств
neut
істері
есеппен
expand
1866
русскои
speak
superior
минералдық
importance
студенттер
reduce
управления
бұлшықет
390
##pread
##arian
кезден
##таушы
крез
амин
үстінен
##гром
aspects
анықтамалық
permanent
pant
лә
одес
раш
ссыл
үгіт
##math
##burn
##етасы
баскет
түтін
ғылымның
carter
разно
канталь
memory
##after
лацио
түрлеріне
билеуші
penins
nomination
recognition
ұңғым
оилар
##ерии
##ece
бөрі
##apers
amend
preced
mah
аинымалы
arrested
атауын
технологиялар
деятельности
filled
programme
##ябре
рассматр
widespread
sib
tanks
әм
##iques
обс
##денің
ғылымы
тілдерінің
свидет
ұрық
сапасын
deput
терісі
eleven
coastal
көшпел
colorado
жанартау
кездесіп
7th
ткан
##ателя
##елес
##илев
##imet
alab
brain
aftermath
философиясы
валент
дәрежесіне
##аимыз
talk
знамен
кто
фло
##рид
алту
сандар
мәм
##истика
өнердің
genre
сарбаз
италии
нәрсен
глубок
зависимости
##пеш
##лес
thunder
басындағы
арен
ford
##hedral
subs
barr
новые
қытаида
medic
depth
финистер
аппарат
түбіндегі
снар
атлетико
кандидаттық
публиц
жарамды
тергеу
өтініш
удмуртия
fab
шоп
##пары
##виж
орасан
frag
shut
157
азиядағы
маржан
carrier
secure
люди
есте
растении
төбесі
бактериялар
хен
##тысы
##mus
##бак
тұру
##одов
инт
frame
құрамын
аиқ
зерттеді
үлгер
бұталар
етек
зерттеуші
дамуын
шабуылшы
шыңжаң
жүргізуші
дөң
кәсіпкерлік
кеңшарының
шошқа
мюнхен
стюарт
садақ
##пис
##зір
##хаи
##2o
аудандар
##кенің
олж
##iller
балам
доң
посттан
жартас
хатшы
involving
representative
credit
##osaurus
угл
##greg
##цами
##bar
##atures
##осред
қатал
##ицу
оиыны
##дету
подвер
holy
##гірім
darwin
illeg
documentary
ішінара
norwegian
vision
wels
іші
##оцен
##кесі
##wick
##ограм
stor
кететін
жүргізіп
##уларды
кішігірім
1858
materials
относится
ratings
intersection
czech
roc
sections
пек
##мут
ауданына
болатынын
посв
subt
capable
шындық
occurs
##аланады
уругваи
alabama
гвард
ивел
фи
инг
жаста
noting
өміріне
разных
мордов
reviewers
equipped
hunting
кентінен
болжамы
egyptian
содержан
gle
рог
##есіз
##они
##инді
немістер
214
consc
мәдениеттің
breaking
writes
1856
русскии
үлгілері
күмән
көтеріліп
ұғымы
бөлшектер
methods
##heastern
cock
jane
опи
##мын
##390
##орлар
##ілуіне
қарт
қазына
құирық
рецеп
ұлдары
есімді
оқиды
charged
жағдаиды
фильмнің
алтынсар
частью
өндірістің
радик
дәстүрі
demol
тонн
ранее
academic
strategy
behavior
жіберіп
420
hav
зая
оир
##жин
##дығынан
##icit
##овым
қарал
мәліметтерді
келу
жарнам
жанама
томаға
кәрі
университеттің
укреп
түсірген
1837
##ывают
детеи
сеиф
alien
множество
энцклопедия
oreg
##иная
seas
тауларының
##шілерінің
көмекші
крупных
ұрпағы
favorite
##friend
##ranean
welsh
nom
зев
ныш
прил
##діктер
##альную
жазылады
crus
outstanding
абыр
семин
convin
жіберген
communities
означ
survived
camer
ағынды
learning
иерус
портрет
артисі
әмбеб
ивелин
бис
##ыта
##ili
парад
uss
қамты
газдың
transition
##aham
синтак
міндеттері
павлов
несмотр
кеуде
portrayed
habitat
oregon
несмотря
wool
етілген
цифр
##лақ
##western
##анбаи
аудандарында
##дікті
жарым
балл
осад
partner
formal
қызылжар
бағыттағы
калии
синоним
оралып
##psons
воспр
күзде
toronto
километр
кілем
отношении
васильевич
гвардия
410
sort
вектор
яс
##ақшы
##овер
##agu
attached
simpsons
диап
браун
нового
1847
voted
##works
румыния
370
вын
##ума
##wall
##aling
166
carib
күштерінің
расст
синт
1874
promote
objects
bruce
күнтізб
equivalent
таг
##елии
көгіл
пох
бөліну
беинесін
##isms
үкіметтің
1836
ғасырлардағы
қоректік
чарль
доч
хель
##лығының
##илов
ертерек
##akh
161
##ғылары
бұқ
свифт
##ensions
ноября
аиырбас
бағдарламалар
реакциялар
ассист
қалдырған
##know
жағымсыз
rescue
исатаи
гессен
хоббиі
рис
уэль
##уска
##ашев
##ctions
##una
174
##рож
подготов
апат
морбиан
түзет
конца
oldest
компаниялар
ancest
somers
sydney
hug
pure
сре
орналастыру
зертхан
shakes
plate
жоққа
партии
owners
опас
ешбір
##apping
communist
производство
racing
concerns
мехмет
chorus
ыбыр
##вис
##rig
##фен
resemb
030
##ардо
invited
repair
совета
келісімге
circuit
declar
maryland
әртістері
андром
chapel
қиял
михаилович
recommended
ақиқат
аэроп
натрии
iraq
преимущественно
mk
умень
##ғаннан
санаиды
##циясын
alan
##ивать
mario
##ульман
consult
клубтар
ықпалы
ибра
восп
практикалық
terminus
430
hang
kz
реитинг
##дін
##vements
##еилі
##таға
shield
шектел
clubs
шолу
мәлімдеді
emerged
түгелдеи
passengers
библиот
середине
сыб
##қау
##atch
##idae
мекс
қаир
159
##ақтарда
##дала
bros
passage
штирия
check
араласып
изобра
условиях
remainder
аңғарлар
горизон
реперт
moderate
##вать
##икат
##omb
##одня
бараб
truth
қысымы
continuing
өлкет
жиілік
hearts
іргелі
бухгал
небольш
unusual
әмбебап
loy
нуж
шау
ұлық
##уса
##рия
саирам
сәлем
charges
жаилау
адвок
satis
алқаб
жарақат
concerned
incorporated
апреля
хиуа
дэн
малды
ног
##мұр
##rit
##неч
stem
##аях
deem
##opher
дәру
базасы
thereafter
үстел
постеп
бұзу
көмектеседі
становится
рентген
611
hull
rush
мотив
рид
##нул
##iac
болыс
marvel
finishing
indones
##ново
тобын
механика
атауға
өзгерту
әбілқаиыр
быстро
вопрос
atmosphere
renew
extremely
lennon
көгілдір
##енна
ақылды
##ично
қолы
recalled
қоимаи
кенорын
тұлғаның
presidential
eggs
различные
дипломатиялық
##ледствии
dre
dated
soph
тест
##ателеи
##eler
##entially
alph
геофиз
кеніш
қабылдаиды
streets
украины
representatives
недост
непосред
vietnamese
сербия
##штадт
баты
епископ
##лит
##емент
бірінде
солн
жолдама
баталь
танып
жабдықтар
келісімшарт
даиындалған
philipp
искусства
июня
climate
arsenal
gent
хью
барды
марқұм
тарихшы
сақтаулы
portra
үилестір
1930s
crossed
гуарда
лимфа
praise
түнгі
assistance
впос
composer
тұмандық
opposite
foss
зада
ұшы
##бул
##entions
сілкін
##отвор
remn
underground
брюс
##aux
populations
азаматтар
техникасы
prisoners
roger
supplies
впоследствии
dens
ts
руы
##елеп
##icial
plane
тому
songwr
buy
retreat
калин
differences
дыбыстар
психикалық
главным
любов
мағынаны
considerable
микроскоп
әуежаи
pc
ұтып
##мә
##мунд
##жев
##ымында
##улез
қалу
##иста
##раның
аумағындағы
##overs
бұирық
такои
жүиеге
files
қоиылады
ману
факті
мекемелері
прогресс
stopped
exception
заболев
мес
моб
цз
##қының
##wan
##igg
##өзек
##aya
ерін
үшiн
167
конд
cargo
тұрғыда
толықтаи
шақырды
повыш
destruction
тырысады
шұбар
treas
көтерілісі
uran
қолбасшысы
веков
slowly
ярославль
парыз
фридрих
4th
banks
hamm
khan
жд
##үн
##өзен
орналасу
анасының
##aked
тарихына
committed
сардин
үиіне
өрмек
возрас
қалыптасып
дауысты
raf
murd
соғады
деревян
cs
##no
##pear
stamp
164
##тырып
phill
революциялық
леитен
bombard
sweet
персонаж
##арын
##иком
простран
##ури
##лықтар
түрінің
clay
##inea
ортасынан
топтастыр
қаныш
білімін
басқаратын
serves
основные
chess
raaf
шеберлік
следует
тіркелу
пропор
жидек
саңырау
ежег
автокөлік
аспирантурасын
львов
мордовия
hur
жие
құлды
болсақ
қарағаи
кеңестің
ұшқыш
##рово
мәскеудегі
әрекеттер
наиз
colonial
кітапханасы
тастаиды
воздуха
очередь
shakespear
540
mint
pound
етіл
ха
##сс
##ышы
##мыз
##чен
ұлға
##лерінен
practic
##eller
##ениями
теңдеу
анықтаитын
қуып
8020
температурада
entering
ұқсаиды
венето
emergency
ваку
fel
гост
замен
##ағамбет
##аги
онша
электрлік
245
шығармаларында
мұрын
көлемін
шақырылым
сүтқоректі
спирт
ведом
passenger
қысқарт
##шалықты
metropolitan
wwe
лов
мнению
сни
##мак
##хо
##ye
##organ
өзімен
##ager
аудандарда
сток
##лиф
##ификация
істеи
mediter
implement
1857
қадір
ready
cathedral
denied
дәнекер
андромеда
қадыр
##ео
##ею
##қасының
##roid
жатып
17th
биі
предназ
апол
росс
первонач
теориясын
штатының
ұшырап
бұрышты
franklin
власть
целиноград
предназнач
yor
ля
пил
сөн
фел
##роб
оттек
consp
ашылып
таипа
euro
помимо
basin
мақалалары
satell
тіркеу
қошқар
салтанатты
wearing
peninsula
қаиғы
##уза
қоғамдағы
тірек
driven
другими
advis
центра
дүниенің
##chers
сезімтал
верхов
лақап
ахмад
жөне
духов
retirement
баскетбол
somerset
pull
tied
vary
иос
##атылған
көил
берг
interstate
сақин
accur
кітаптың
кездесті
жемістер
ұнтақ
отбасылық
bacter
##borne
ches
rico
лоп
##nic
##индер
##thus
orb
жетім
163
##тырады
poison
acknow
өзгеш
бітіргеннен
іздеп
қажеттілік
находятся
суқоимасының
160px
острова
duties
логикалық
сирия
##құдық
вильгель
жетілдір
legislation
зәр
##enz
студен
##лению
correct
общества
morgan
##ируется
раствор
queens
молекулалық
относительно
languages
rooms
локом
hin
вав
зыр
пнев
рио
##put
208
##илері
деуге
##аку
бөк
карталар
##одатель
relative
бекіні
таиланд
первое
күиін
commanded
человеч
используются
құралдарын
называется
ансамбль
kentucky
әрқаисысы
аудитор
electronic
tony
1826
##қарағаи
плав
сюж
баку
мусульман
consisting
побед
расстоян
десе
кемп
уағыз
ғұл
##yt
ресур
постав
экстр
outbreak
ministry
бекітілді
сатир
етуі
билеген
түсіріп
reviewer
озық
колледжі
қаһарман
dates
ww
есі
##хе
##ияр
##ener
##нест
қазын
##опа
153
полю
табиғатты
түсуі
заңсыз
анықтады
диалог
тоғаи
спортив
асыратын
universe
всегда
суқоимасы
guardian
giant
israeli
қатерлі
vert
шара
санағы
##str
##etime
##осп
##ersed
freder
##aki
##тана
свящ
acclaim
үзілі
гүлдеиді
жартысы
аурухан
еуропадағы
posted
easy
##ящих
interested
великоб
ninth
software
cabinet
cem
gets
входит
гиль
есті
заст
нын
##дь
##fish
andy
санына
prohib
##riers
дәлі
экономист
танылды
болмаитын
шараларын
азаматтардың
шоу
среднев
квад
язык
##ясь
погиб
##bourne
занимает
mediterranean
rig
veter
река
##480
##онии
##idden
##агері
жақтан
дүис
гидрологиясы
бетеге
наука
темекі
есептеиді
деитін
шаиыр
ізгі
collect
completion
шығарушы
жалғастырды
дәрежедегі
640
dol
hood
lies
мыл
маған
##нение
жүик
тербелі
аидан
подраз
тармақ
орындауға
tries
симпт
ұсыныс
styles
##шихся
лимузен
wooden
происход
predecess
premiere
мәңгілік
sweden
replacement
вариант
зад
леж
##верт
##rell
орындар
мақат
колиб
movements
мамырында
##бира
ұстаған
helic
большое
##bean
responsibility
ауылшаруашылық
wolf
##терн
##тарындағы
бастал
аққу
ауданда
##opes
жазушының
клав
##остуд
қызметті
экономиканың
клубтың
қажы
тоқт
massive
игра
гвинея
470
jord
pear
цик
##иоп
##ran
##атом
##ashed
тұрсын
usa
емдік
otherwise
belg
##күи
bowling
measures
хакасия
##азывает
трагед
bureau
diplom
jess
##aled
ару
қазб
##астика
құдірет
табақ
әрқашан
объек
##гое
кенді
монти
classical
starts
сүргін
reality
historians
productions
ордабасы
присутств
қаражат
тұтқынға
переход
интеллек
460
cos
##апур
##abil
undert
первого
симметр
өндіретін
влияние
животных
упомина
иемден
download
разнообраз
вск
нөл
қм
ұңғы
theater
жермен
##евка
##ившии
##иясындағы
##ольно
танылған
лигасында
xxi
ұиымдастырды
лимф
ереже
strip
votes
adults
кварц
graphics
таимыр
begun
lod
##iner
##ilton
құрсақ
##уру
тұрқы
атқыл
нег
cloth
таужын
корпу
##enses
##діреді
армор
исследования
ростов
сопақша
synthes
sony
нои
хх
отандық
plus
clark
craft
finals
##скиидің
жүзі
двиг
апост
reprodu
рөлдерде
victims
произведения
отряды
mexican
бірлестігінің
жақсарт
ағаиынды
sudden
наразылық
bou
kc
мэр
ски
##чер
##енбург
##уры
##ivals
қырқ
knots
##ительных
тәуек
аяқтал
harm
қоңырау
биліктің
болгария
боев
circle
funding
экспедициясы
қолжазб
договор
шілдесінде
billy
pink
ze
##ыңғы
##esc
##еид
##азан
alco
мембран
қыздары
аиына
reconst
қабығы
метров
бетінің
100px
однов
шығармасы
meters
obtained
сыилықтың
постына
нұрсұлтан
strongly
путем
tunnel
nich
pir
биз
ұдаиы
##тож
##ez
andre
##аул
##шает
excess
007
отыру
##ologists
городского
кәсіпорындары
организмнің
races
giants
кедендік
александрович
қауымдасты
kug
сесс
тары
##рик
##тарап
##естіру
182
асан
асқар
пенс
дыбыстық
қағида
departure
##шению
давид
якут
индонез
хозяиств
nfl
лун
##душ
##оруж
адамдары
clinton
##ogen
commem
сақтаиды
polish
##ьяк
городом
жерлерге
characteristics
бұзылуы
курс
elections
factor
тұқымдасының
derived
painted
jacob
зеңбірек
дернәсіл
kiss
ms
mim
камб
##ьез
суымен
##есеп
қанша
driver
приш
кезеңінің
өткізіледі
права
киностуд
trials
standards
goods
дарынды
қорыту
баба
археология
литература
шеңберінде
отырықшы
wet
рулар
уол
##ғаб
##ху
##амер
##ымдық
сулары
##ilation
қаланды
##opol
қанағат
шексп
supposed
кинемат
заманында
settled
нүктесі
жаратылыстан
jes
por
адаи
##440
##емін
құю
howard
кембр
деңгеиіне
##луга
rhyth
отбасының
возможно
сәндік
средневек
512
rit
обрат
тәлім
аиты
margar
desire
шығыста
##дырған
тоск
childhood
angle
believes
effectively
своим
sympt
##ющихся
##agonist
возвращ
recovered
үилесімді
adaptation
eagle
серебр
##қожа
##onia
##елли
##орган
алта
##ағұл
қарасу
spoke
168
оиындарын
006
көлбеу
кварт
##мұнаи
temporary
вокруг
пути
түкті
дулат
kelly
одноврем
560
bot
hans
pel
##once
##ingly
##rete
asian
ақжаи
издел
##усыз
өмірде
assumed
филар
әскерін
көлемінде
оппоз
starred
көркемс
центральнои
медальдарымен
восстан
circum
catch
##упает
союза
440
breat
дубл
шеп
##отер
##иян
##еилік
##omot
exit
берм
теж
болдыр
жолына
claiming
тудырады
seemed
позднее
степени
отечеств
navig
тышқан
caribbean
mack
sor
##ғат
##ugh
##дануы
##око
қорқын
аидың
meets
somewh
whereas
баспасынан
қабырғалары
жамылғы
хорватия
somewhat
bh
өкін
##һим
##aints
ериді
шама
тарихының
төмендеиді
еніп
меркі
classified
дәрігері
convection
көміртек
располага
жыныстарының
##вадор
бакал
положение
тәрбиелеу
requested
delayed
қызығушылық
ah
вся
жест
лик
ну
##астық
суқұ
##ecraft
stones
деректері
андер
shore
##альными
##pping
комитетінде
publications
1854
##ующие
seeing
copper
catal
stayed
dangerous
жотасының
5000
hut
смен
##oard
##ініп
##етт
алшақ
205
##едо
елена
оқулық
әкімшілігінің
flank
қалаға
сырттаи
қылқан
деиствия
палатасынан
жыныстарынан
properties
дақылдар
attracted
fictional
жақсарту
##rupted
шежіре
қақтығы
kennedy
дзю
кофе
6th
лам
##450
##жап
##bell
баса
облада
worst
сәр
солтүстіктен
fled
тастау
wrong
вида
финалдық
employees
қоршалған
законодатель
отыз
горькии
посвящ
cher
геи
хв
##енную
табын
табуға
173
13th
partn
гормон
хандық
қабылдап
жасауда
discip
мәнінде
қарастырады
audio
##hetic
гуманитарлық
лагерь
монографияның
колибри
411
##лось
##маның
##зер
##yd
қазалы
##ығып
тарихта
орындалады
residence
##oked
engines
##ительнои
##ительные
classes
қоңыз
банкно
америкада
falling
құқығын
шаңғы
regularly
stanley
premiered
strengthen
локомотив
##хард
##mouth
ауқ
##абет
##ильді
азап
аимағындағы
перу
upd
simon
самои
наурызында
россия
берілі
таипалардың
оқытушылары
ұялы
certified
inspiration
##оцит
комбинаты
bun
rick
sessions
ііі
##iti
##данып
артады
reun
##атынын
##uster
008
216
әдіспен
тамызында
##ipping
қапталған
сәтте
конституциясына
факторлар
программа
immediate
jews
югославия
хақ
чаи
##низ
##eu
алл
көтерді
сочин
заңгер
күресі
сауат
ақындық
тәжірибесі
romantic
земля
##etta
шатқал
injuries
weapon
dismissed
маркетинг
свидетель
диапаз
жым
мю
тэ
##истан
##фур
##аиық
келсе
ғылымдары
қабілетін
қолдана
джен
ғасырға
жүиесіндегі
места
қалдырды
княж
қарашасында
преоб
үстемдік
fisher
ыст
##mi
жоталар
##оков
##illed
scout
##тасып
ұиымдардың
бағытын
8025
anyone
junction
##звод
безопас
тұрмысқа
everyone
шәкір
photograph
journalist
тұрғызылған
нефтеюган
алтынсарин
bag
перек
##нания
қалдықтар
hearing
##ичтож
экип
111100
172
twin
ұиымның
жануар
білдіру
киноте
murphy
hoped
marketing
learn
мүиісіне
authors
711
mg
иог
лорд
##awn
##rees
##ося
постанов
отқа
##ables
экс
анем
##ашылар
жетіледі
оқушы
appropri
талшықтар
235
шоқан
interests
судья
elsewhere
agricultural
жылжымалы
ku
liz
кум
фур
##овало
##шаң
##тест
##tha
қаишы
allen
мақұл
серд
retail
landsc
средств
сарыарқа
сеиіт
##еркулез
separated
востоке
##филд
660
##іңді
алғыс
stood
теат
туристік
зерттелген
batting
сүиін
veget
beatles
зеинетақы
cruiser
телевиден
тесік
segment
целью
530
lion
pione
жон
мул
рик
ух
##куп
##балық
##eline
1121
оиыл
жолда
трои
анықтап
әуел
жоспары
ормандар
facility
samuel
platinum
ескере
танымдық
##шиеся
версии
тәмам
жаратылыстану
нефтеюганск
850
##таш
басылған
прода
##елерінде
иностран
издан
қолданып
pars
паидаланатын
воздеиств
буынды
loop
көтеріледі
шаруашылығымен
харьков
visible
possibility
услу
патшаның
будущ
surviving
suffering
controversial
deemed
##pan
##body
##шер
##алу
##истикалық
12th
жанкүи
объяс
өмірінде
ханс
сақина
қатарлы
кезеңге
таңдап
қозғалысын
stead
күиде
жиілігі
ranking
thousand
rugby
сардиния
пел
тах
честь
шегінде
##леч
##рез
##анием
##теуі
##imate
##apse
түрме
орнынан
карлос
инвестициялық
orchestra
сұхбат
департаменті
echo
sad
бли
ху
цильма
үирек
##кор
##зол
##ерина
##емои
түбек
репр
##танушы
intercept
##aware
##таин
воск
тоғыс
шешуге
##oyd
жинақталған
социалист
республикада
стадионында
gallery
интенс
скиф
612
gust
текті
##цер
##bra
түске
тұста
switzer
raise
terror
шөлеит
велико
драмалық
dynam
валюталық
паиғамбардың
attributed
elder
туберкулез
jordan
712
miam
##night
##атта
біржан
қалалардың
##oking
крыл
қамыр
талғам
бөлімін
воин
##teenth
самыи
titan
1845
turb
safe
613
дум
тав
чап
##eted
orbit
аиқас
256
coins
территория
көзін
triple
handed
enterpr
weekend
involvement
ауысады
беткеилері
чехослов
дворян
examples
dynasty
оборуд
сертиф
erect
nass
бк
тбил
фит
##ете
##олин
##истра
##char
жұмыр
терап
балқы
##ақтарында
дами
ағысы
poland
articles
##вание
leads
mainstream
мороз
дани
115100
мәнді
facing
защит
determine
кванттық
siege
switzerland
мид
##pson
##ule
##аик
##есi
##рус
надеж
##ебаев
162
қолданылып
010
слаб
retrie
locomot
болуымен
значительно
выпуск
linked
жәндіктер
треть
ralph
вильгельм
goth
ker
kat
бод
ықыл
ққ
##nings
##иетін
##яна
арқан
аққ
ель
жарма
қорым
overl
кезеңдегі
сипаттаитын
myster
жетекшілігімен
palest
добав
австрия
радиоактивті
народов
вегет
сеифуллин
ибраһим
уылдыр
цез
##діріп
##аисыз
##ациясының
кетуі
minnes
қажылық
бөлінісі
қозғалыстар
түзілім
қатынаста
стрел
сызықтар
surviv
device
мерзімге
astron
византия
distinguished
аполлон
sailed
бум
##yard
##арк
##акаф
орналасты
1112
##танды
индук
169
##иган
buck
үстіндегі
должен
stewart
тігі
needs
языка
rebell
##ommod
шолпан
қаиырымдылық
туғызады
төлеген
##con
##ірік
обуч
##улия
prost
notably
балаға
##orney
guinea
әдебиеттер
киімі
спортшы
шабыт
patri
virus
davis
уезд
өркендеу
##оидты
innov
policies
ensure
агенттік
габрово
батпақты
um
беск
м³
чеб
##аяды
##икада
өнімі
толғау
шаруашылығына
совер
модерн
##lets
генри
formerly
робот
лимон
алатауы
bringing
движения
кенесары
шевченко
несеп
хасан
##ац
##bro
##ағыш
бұлақ
қыздың
қаисар
shif
cla
жолдас
кіргіз
метам
паидаланды
насчи
командасының
senator
looked
thompson
украинаның
книг
burns
##coming
аңғары
паулу
рынок
иерусалим
570
610
bats
pd
жеиді
##чж
санта
прип
##irt
халықар
азаю
conte
жөнінен
мұнара
accommod
болмаи
depend
киноф
среднеи
##рополь
жиынты
краснодар
беиімделген
татарлар
сегодня
helicop
miami
option
ye
##ture
##зу
стрем
##abled
176
топтардың
монг
phone
орнының
depicted
образован
принят
##энь
дауыл
raid
жіберілді
stands
soldier
missions
closer
случаи
конкакаф
ветлуга
dissip
физиологиялық
scheme
diameter
кооператив
ақжаиық
хин
##ьон
##шім
##inian
қаракөл
##uting
procl
жазасына
resigned
carbon
жариялау
двум
smooth
брод
голын
міндеттерін
деклар
эфиоп
##аланып
absor
шекспир
670
hipp
ач
кни
шон
##феи
##алов
елшісі
жаипақ
accompl
forming
атқарып
скуль
legs
резиден
absence
ультр
вмест
помощи
unsuccessful
kw
ког
саф
ғаз
##тқан
##isd
отказ
балан
өсиет
##иелік
жақсар
mush
возника
pope
##elsen
өнімдер
1855
ниже
тыңдау
жүргенде
еңбегін
distributed
охот
қауымдастығы
экипаж
lect
tan
шағында
қхр
##itable
##дамалы
##emble
##икации
жарнама
жұмысының
attorney
жариялаған
##ылуда
материалы
азаматтары
techniques
symph
замет
платон
целом
мансап
accounts
преступ
февраля
713
dave
lanc
жастан
оста
пиф
рест
##inh
##овала
жерімен
олег
перер
совхоз
дінінің
##ternal
беруді
##ructure
1831
##оприят
garrison
здание
newspapers
cuba
аидын
реитингі
эпителии
утр
ғои
##jan
##иттің
##ляция
балуан
сауық
батырлар
баиқал
жеткізген
initi
trend
кентас
активті
применение
покров
гау
фас
##жақ
##ali
##еиру
##ғана
##amb
турист
airways
новых
артур
мақсатта
басқарудың
restored
еріген
mississ
шөлді
қиындық
жабдықтау
federation
кафедрасы
патриот
игорь
bour
neck
rif
##ницы
##мәр
##өр
##ылығын
##ілеу
көре
scand
##аттарына
бүк
parish
colony
edin
сынау
##ужден
expect
әрекеттері
greatly
құралдарының
жүлдегерлері
великои
ern
excell
сүиегі
кх
шегін
әд
##gate
##шақты
сырты
prosp
##каға
desert
##елігі
бетон
семен
море
кубогына
window
1849
dougl
hosted
indiana
сингапур
мұқтаж
тибет
лиценз
вертик
хіх
convinced
дня
шин
##олар
##екен
##eness
##емого
##icul
қарлы
ары
anarch
##аясь
1812
##oslav
aboard
аяқтары
115200
азаматты
алаңындағы
1851
footage
силы
бөлімшесінің
распространение
песни
титан
exhibition
нығаиту
apparently
encouraged
чарльз
shakespeare
580
holl
мили
сас
##лұқ
##коп
##юш
пролет
бұлт
sees
171
бұғы
вош
органдар
которым
ports
offices
advoc
волеи
сотруд
experiences
profile
crosses
бауыры
hitler
школ
группа
karl
шашынның
туындаған
battleships
emotional
квадрат
lith
##тесті
##осын
forty
##елерден
атқа
соны
trained
##ultane
аралдар
simultane
траз
parks
##дырды
##ertain
грузин
арқалық
hoff
палеозои
қобыз
председател
622
kansas
готов
жирен
іім
алге
##оморф
прага
alive
марган
марсель
форме
attempting
древнеи
афин
көшеге
difficulty
settle
лаиық
matthew
poetry
борт
даб
зальц
##икасын
қарауыл
боилаи
##ологтары
тарта
##даиым
аумағының
##uda
жазуға
балтық
өсуіне
agents
гидрограф
уничтож
##kshire
format
подчин
gene
##ontin
комитеттің
династ
повесть
arrest
ежелден
вален
урал
воиска
здании
beyonce
предприятии
nickn
қарасаи
маршрут
жалаңаш
конденсат
төралқасының
edinburgh
саған
әбі
##итов
басшы
##ули
##ющиеся
көтерілді
бағдарламалық
транз
өсіретін
тырново
функции
расположены
michel
минутта
hundreds
pushed
раиымбек
симптом
mississipp
mong
##uge
##шую
forb
iso
##идже
##егінің
солнеч
тілдеріне
ашады
вооружен
вероят
conclusion
deliver
гипер
агроном
ауыстыру
школы
перевод
эффект
алатауының
жаңалықтар
половине
достаточно
каждыи
deputy
minnesota
cous
sang
дастар
раиы
тая
фан
##ресе
##мады
##чан
##hr
##icians
stable
##ighters
uniform
жазылып
балаларды
қашықтығы
монитор
маусымы
әндер
exposed
##мбра
қатынастардың
пікірлер
сеисм
representing
одновременно
dna
gor
nik
ады
леген
құрылуы
қазығ
##ларынан
объяв
критер
тастар
assess
әдебиетінде
тұлғалардың
себептері
godd
мерекелік
беткеиі
baltim
государственныи
топырағында
scientology
тироль
предприятия
neighbour
тігілген
хорошо
521
rising
wedd
гиги
моль
##ғындағы
##vis
##аид
##овтің
ариф
fried
##sex
баизақ
жарылыс
##ляр
конда
спин
этому
releases
liqu
империя
теориясының
successor
иркут
дауыссыз
антонио
физиология
гектар
скрип
swedish
philosophy
symptoms
lun
дур
охран
##лии
##дил
##час
##410
##орлық
##asions
##oust
бірінің
салушы
##ақтардан
персп
батар
resign
клубтарында
жинаған
институттың
бағытында
тұлғасы
harris
##ывается
существуют
богат
зергерлік
вступ
ақыры
happened
эффектив
huge
комедия
монтиш
көркемсурет
сери
##gy
##dy
##оиын
##еста
##адо
plut
тілдес
appearing
орындаиды
центре
шеберлері
құнарлы
көмірсут
changing
housing
surrounded
visitors
формуласы
кипр
acknowled
baltimore
cod
sq
##жения
##стіру
chick
apprec
торп
кемір
stream
cycle
insur
нерв
коэффициенті
тәуекел
метаморф
mant
sitting
аж
##яли
##әлем
##овое
жәңгір
құрылады
сілті
елден
coin
размещ
кешір
финалға
restoration
factors
biggest
коимбра
ottoman
commemor
620
ақан
##нин
##mal
insc
##alem
##огл
##мені
мүс
enters
мекендеитін
16th
resolution
еңбекке
##ганса
extreme
revenue
austria
##efa
лауазымды
құтқару
импорт
диагност
стивен
зымыран
byzantine
tub
внов
икем
онега
эту
##алдың
##ашысы
seats
##unes
сағасынан
разруш
алматыдағы
қанатты
genetic
##береж
қуаң
wells
киген
signs
энергиясын
ұсынылған
organizations
депутат
тағдыры
градус
cinema
mississippi
вновь
ии
##шығы
оралады
##roit
##lying
адамы
chur
жөнел
жарияланымның
surg
operational
среднем
әзіл
patrick
anglo
ұиық
жорықтар
missed
инфекция
сильно
ceremon
bridges
постепенно
тбилиси
uefa
глин
огром
##циттер
санти
қатып
##танып
ұзынша
турин
displ
009
joh
recordings
preserved
академиясын
альто
жылдарға
##spec
президиум
жерлерін
көтерген
videos
treated
патшаиым
комиссиясының
аппараты
қатысушылары
отарлау
тигізеді
pleas
домбыра
жәрмеңк
5th
714
rib
vv
пла
##ses
##aug
минск
пари
маргар
aged
көрсетілді
dece
меди
secured
сериясы
күшінің
аббас
диаметр
операциялық
detailed
territories
цитопл
vib
барт
##лев
##oen
##ектің
toll
202
##real
##теуге
##налар
жанұ
timber
239
германияда
1838
volt
сәтсіз
шаңырақ
четырех
vessels
бәсеке
қазығұрт
590
nf
уил
уфа
##пас
##uv
амми
күшімен
анықтал
capit
совмест
калабр
##люз
##дасқан
мәнер
values
anticip
##erged
ұшыраиды
9965
модел
1789
salv
ауызша
жасушалары
reportedly
композиция
##құлақ
sb0
точки
negotiations
кернеу
мұстафа
мыналар
қараңғы
репертуар
490
tone
##анас
##оим
қараиды
қазақтарының
##кілік
құстары
мекке
##sea
spending
1790
бөлуге
метаф
mainten
novels
575
ректоры
1846
патшал
меил
holds
creator
көбеиту
шіркеуі
сахналық
мультфильм
ay
##лаш
##бұл
##анна
##овед
##оичив
##ige
##ығырақ
chanc
қорғап
медресе
трен
сарғыш
шаруашылығында
origins
которую
сәуірінде
wins
қорғаушылар
запас
жоиылды
жүкті
тағамдар
##яться
лицеи
normally
виктория
франкония
четыре
жүрегі
леитенант
gab
чика
##адағы
##ng
##yon
##дамен
менші
##обож
әрдаиым
##остоятель
джозеф
біріншісі
тоқыма
механик
keeping
появились
королі
уровень
браганса
малаизия
дұш
liv
##рыв
##acent
арта
1820
##osing
елиз
##бекова
жолаушы
демеу
үиінді
қорғаитын
патент
жұлдызы
дамудың
банктің
автордың
махмұ
##ногор
сырттан
машиналар
путе
covers
полковник
доңғал
maintenance
hob
гастр
##ище
theod
##ғышы
аркт
unn
tru
толығады
##очнои
уақыттан
күшіне
modified
құрылысына
нұсқалары
медицинада
жоиып
этнограф
ерекшеліктеріне
##going
государственнои
атмосфералық
typh
памятник
anthony
dies
fitted
gates
ryan
токс
##иклин
мәи
түим
bypass
##agement
##егося
gran
расшир
театрдың
өрлеу
бөлінетін
imposs
copy
попыт
influential
қаратал
width
шикі
application
ferr
grown
molec
наруш
margaret
lob
nig
##гля
барб
республикасында
abd
жақтау
##маға
217
сөзінен
##ладеш
орталықтары
defended
будан
ақпанында
detroit
экспоз
morris
демократия
discussed
sevent
встречается
fi
nut
rena
tuck
вож
дим
лион
нель
степ
фраз
эсп
##lah
##ғары
суыр
нее
қатысы
##танған
enthus
жұмабаев
маңдаи
medium
беинелен
өлкелік
саилауда
##бани
absol
eric
pad
мұрт
№1
##сең
##еры
##онеч
алқа
##нок
##астикалық
жұма
##ova
##ogy
teacher
науқ
прием
академиясында
кемел
мергені
attacking
кесірт
дыбыст
талаптар
фортеп
выполня
тағаиындалады
возможность
причем
қондырғылар
оңтүстігіндегі
құлдыр
pak
riding
лем
мотор
тоқсан
харт
##шалы
##еки
елші
existed
жолды
күнә
аиналымы
біріншіден
жиек
synd
reveals
қуыс
generated
темірдің
кәсіподақ
беруші
collapse
енгізген
мағынасында
diagn
вним
современнои
questions
движение
tenness
шақырылымының
қақтығыстар
870
баль
пион
##арка
##ыра
орақ
арген
##дені
шамалы
сүтті
011
қоғамда
understand
smart
453
беитарап
founder
долг
жемісті
западе
##encing
адидже
себепші
telegr
tempor
қарастырылады
владимиров
narrative
белгілеиді
421
511
піл
##қап
##quer
##очныи
##iously
долган
аимаққа
greece
шақырады
кесек
peters
периода
топырақтың
идеясы
dominated
withdrew
inhabit
уәлая
трентино
өлкетану
gap
hud
хаин
##анию
##арат
203
##ауына
##елермен
181
chase
##дікке
spotted
индии
тізбег
тілек
тауыс
##болат
сөздігі
portug
шеткі
идеалы
kevin
фото
относятся
тұтынушылар
tribute
қолбасшы
аудармашы
геометриялық
behavi
горизонт
батыстан
nbc
доз
тасы
цска
шыт
ширек
##риг
##фир
##mun
##ылдақ
##овья
##ауын
қаис
балта
томнан
джер
##стерін
extent
грен
үиінің
drag
##аторлар
алуды
партизан
динозавр
detail
жобасын
құдаиы
earthqu
здания
dialogue
tennessee
520
ecl
стары
тиг
улан
қасында
##мо
##icut
мини
herald
белгісімен
жақып
255
finland
шығарманың
сапалық
myc
avo
difference
seek
affair
парижде
ақырында
legislative
геодезия
510
715
крах
үкім
##оедин
##ci
##ғанақ
санитарлық
##истің
неге
amate
##қылар
атаулы
##андас
өмірлік
meat
musicians
laur
деңгеиінің
1832
opponents
criticised
бүгінге
стандартты
көрсеткіштері
өкіметінің
institution
degrees
adventure
##нюю
евреев
paintings
теи
хопер
шағатаи
##риб
##дасы
##ьен
алда
қарсаң
прист
мені
##исті
spider
ось
intense
төменде
кендері
сынақ
тоқтам
skills
storms
ауыспалы
doesn
словарь
тұрақсыз
менеджмент
napole
abbey
bronze
горизонталь
тоскана
hir
ащ
##eed
##tt
##қала
болысы
##авшии
##iley
##ensis
әиелдің
қауымдар
қоиылатын
италияның
основнои
мақсатқа
түсіреді
русского
interesting
используют
жанарта
strategic
венгрия
douglas
mud
##лок
##alia
##огенді
##менің
атбасар
сырым
prol
марат
carn
кені
институтта
шектелген
смит
guards
dating
станции
баиқауға
государство
businesses
fifty
қаиталан
традиции
temperatures
қисық
apparent
summit
сопров
тербеліс
держав
сне
хус
##шін
прид
қалаларының
##illing
қолдады
қолаисыз
коррес
беткі
көшпенді
суреттері
prevented
collaps
ірім
1852
бағдарламасын
ықпалын
степан
symp
применяется
layer
тетік
абдулла
рельеф
калабрия
выт
дил
иісті
риз
##енген
##anton
##ленных
ашуға
заңдар
суретшісі
##азыв
pointed
дәстүрлері
әдеттегі
автономды
1841
watching
мәрмәр
уездік
illness
етегінде
дороги
##ителем
кесенесі
зеландия
medicine
снаряд
меилінше
crop
lose
tie
wes
феи
−0
##iant
##iya
##еиро
жылында
##chang
жолдарының
трам
газдар
##атория
##ительного
процесін
##сонна
жетіқар
continental
provinc
juan
баураи
1853
болжау
хаиуан
дәмі
тигізді
рядом
##жеилі
жауапкершілік
satellite
кинотеатр
coc
pine
##рев
##ғады
##асың
##isp
##roke
деректерді
туындаиды
конвен
өңдел
##аттарында
##деме
##қыны
mete
гүлден
operate
personality
##илердің
тапсырыс
тоитар
uncertain
музеиі
агро
forests
isolated
bapt
jenn
rio
иозеф
пах
##rum
##өк
##fare
##атан
##етiн
##aria
өзек
аут
отстав
enl
##епт
partly
кірісті
213
екіншіден
қазанында
##anny
түсіну
depos
arriving
casting
александра
труда
hamilton
penalty
achieve
drawing
arrangement
эссонна
specimens
churches
phen
сик
##рак
##rence
##di
##етта
##іктір
побереж
proport
enfor
marie
joy
гроз
предостав
есептеген
designer
300px
располаг
бауыржан
##ушілердің
участв
южнои
феодалдық
tornado
amendment
вавил
аргентин
tenth
вра
##сқа
##rh
##mate
##oral
##амаиды
##idency
##otes
cha
облыстары
салқында
sure
үшкір
##аду
##роч
244
##ugoslav
таңбасы
алтыншы
жылдардан
энергет
білуге
possession
select
патшалығы
turrets
participate
сингл
лирикалық
құирығы
benefit
deployed
710
gk
lac
бетінен
ия
меш
##рест
##аиұлы
##омарт
##using
күир
15th
поле
сүре
толығырақ
##ированы
самостоятель
кезеңіне
counties
##atherine
сипатына
portal
шабындық
halo
жұмыстарына
influences
satur
balance
топырағы
аңғарында
мұғалімдер
жоюға
фосф
linear
ibf
surprise
belgium
марганец
aqu
cav
pp
вот
рап
фау
шынды
ым
##электр
##atus
бірж
қалқ
atom
##osure
қаида
баиыту
##агнит
##теліп
статистикалық
##измді
##дірілген
persp
глик
сөздерді
testing
финалы
өзгерістерге
государственного
решение
происхождение
предполож
инструмент
connecticut
ганд
цин
әч
##емая
##aska
салаларының
##уть
изд
изда
экономики
төркін
##athy
әншісі
қатынасын
сипаттаиды
ideal
periods
термині
travelled
сүиектері
кирилл
шолақ
количеств
включая
қақтығыс
preferred
экскур
imprison
nancy
ric
tyr
гнез
дерт
тiл
тула
##енк
артем
стамб
тараиды
##elli
##ленді
оиынның
қолданатын
джин
кетуге
мұнаилы
trophy
ұиымдастырған
литов
өтуі
ситу
riders
minimum
жалпыл
executed
фрэнсис
neighborhood
submarine
зырян
сопровож
ov
##див
олаи
branc
қызметтің
feud
имел
221
сөзбен
##очные
маусымның
guil
түзілу
артынан
боруссия
көмкер
сыртынан
informed
panel
должны
multipl
laboratory
trouble
rhythm
614
kate
rice
vanc
ед
мкм
##low
##ццо
##ане
##ouver
##сков
қарлұқ
##etery
asks
##aste
крон
coat
mining
исмаи
concrete
начиная
орындады
township
partnership
волеибол
jar
telling
өтем
##eas
##boy
##елген
##atically
206
##omer
мемлекетке
азиялық
пенза
тромб
этност
біліп
baron
образов
заманнан
президенттің
мекемесі
facult
біріктіру
multi
разряд
thinking
drums
птиц
##otype
cemetery
gaz
pale
етіледі
фок
##луч
##исы
##yll
##шими
##ураи
##ctic
аумағына
##anta
recon
partially
commit
222
жаиылм
formally
монография
##новид
партиялық
depending
load
##кәр
km2
approval
radical
эстетикалық
aware
legislature
chambers
дәрмек
деятельность
vinc
нь
##mo
алгор
1824
табанды
теб
кариб
конеч
жолдастық
firing
armored
##иано
өзгеріске
первом
мақсатына
шақыру
бақылаитын
бұзылған
ұзаққа
сұлтанның
присоедин
анатолии
ысқақ
піскен
merchant
гравита
rarely
kin
мқк
ұша
##mes
##ether
##olas
##ulus
##опров
##шеч
переш
brill
ағымы
224
##velt
абх
люкс
основных
сәулелен
офиц
характериз
түбегеилі
приказ
impossible
жетіқарақшы
ml
надым
##сап
##одами
##noon
##эла
##ыңқы
ask
##рациясы
атыр
##обия
реттік
clock
cliff
орындық
герб
airbus
өткізіліп
instance
бәитер
голуб
chel
сүрді
bases
communications
compete
appointment
ambass
moments
мокшы
yugoslav
сэм
##lig
##эд
inqu
##неф
##ache
##owa
қыздыр
plaza
##тенген
қолданды
roose
276
серия
charl
##сыздандыру
аударады
правда
приним
дәуірде
##гіштік
своем
нефт
analy
тұжырымдам
cancer
context
hoffman
680
bid
migr
##татын
##жение
##chen
##амид
##ыпты
##метов
##ииского
##улла
жотасы
қолын
afternoon
offering
simpl
acted
құрылымдар
әрекетін
поэма
баиланысын
жинақтары
компаниялары
связано
случаях
кеңеиту
адамзаттың
picked
саңылау
тыныштық
upgraded
шектеседі
storage
412
##мония
##зат
##жы
##ордың
##tering
##исон
туғанына
қыран
воздуш
infr
маңаи
өндіріске
concurr
landed
ауырған
chev
ұсыныстар
высот
білдірді
statistics
мақаласы
gods
әріпте
nielsen
harvard
ацет
roosevelt
vs
лаг
юра
##уются
##нон
##uro
##ju
##olis
ақкөл
туыстық
негізде
батпақ
blu
монғол
қасиетін
қатысатын
кемшілік
##otten
наиболь
##axy
1843
состоящ
суқоимасынан
құдаидың
impressed
инструмен
municipal
##мағамбет
##ivated
render
барлығын
##дығымен
##usted
бұтақ
aggress
21st
разновид
228
##очка
##очки
ашылады
assists
##azy
сіңген
үилері
армиясы
ертеде
biography
occupation
вьенна
ағаиын
oklah
ghost
yorkshire
vancouver
jason
pages
sector
##iot
##імнің
##001
anch
proc
авеиру
brun
coordin
ханым
paras
кенже
сипатын
controll
россиискии
жіберу
нанымдарды
числа
культура
horiz
названием
алашорда
жүніс
hook
түпкі
католик
teaching
cass
sisters
taft
yout
бонд
##inations
##иискии
қалаларда
##ляет
254
корм
##ушка
elabor
шараларды
әдісін
әншілері
##ғыштар
наполе
verse
lawrence
ғимараттың
relationships
деревня
ағымдағы
фабрик
весьма
grammy
mansion
remnants
##нар
##ыңды
##оров
##ұра
##елерімен
comments
мұс
демон
оиыншылар
акциялар
238
charlie
бекеті
көкж
шынықтыру
##ированных
1920s
боял
ведущ
обязатель
вакуум
youtube
citing
waves
нит
##алии
##itud
##дана
барыс
отст
құқылы
аитуы
##ковыи
созақ
##anche
использование
##жащ
жұмыстарды
шыңы
жиналып
мұғалжар
туындысы
жағымды
residential
численность
протяжении
hindu
nasser
##kh
##интез
209
басшыларының
арб
##шылығына
салын
##исок
##ацияның
төмендеу
##керлік
canter
мұрагері
##leton
теории
шақырылған
средства
ештең
қызметкерлер
даиындал
өрісі
способств
##элл
внутри
спарта
обязан
eliminated
қорғаған
oklahoma
ko
шом
##гиз
##етке
forcing
соқыр
реализ
каталогқа
франци
енбеиді
құиып
кемер
секір
тартылған
completing
argument
материалдарды
##ополож
уровня
облыстарында
мұқият
marshall
##donald
wedding
паст
сұлы
##сбург
##устар
##mat
##арин
##inces
жылдаи
##agre
өтеу
marry
проходит
телег
лидер
жетекшілік
believing
усил
moral
зердел
бюджеттік
путь
превращ
рассказ
protein
рязань
playoffs
declaration
hiv
pas
ине
кик
сформ
##сид
суларының
##elle
##igen
##одинам
##исты
отвер
салаларында
##umin
plain
белдеулер
измер
##ленные
sciences
крив
астыңғы
pref
226
торап
mines
тоған
дінге
бәиді
регуляр
technique
denver
логика
scientists
минералдары
костюм
athletic
replacing
длина
меңгерген
pretty
restaurant
canterbury
##sch
##uz
##шілігінде
##agen
саласына
қызметінде
оиынға
boil
көшу
портал
сарқыр
dragon
disturb
саясаттану
explo
сотының
1844
##барыс
жиналады
отрас
цвета
colonies
соответствии
struggle
происхождения
зрения
tale
мут
мяг
##беті
алын
1828
сілем
таба
жаны
поля
##уди
##стерінің
шекаралық
кезеңнің
longest
выв
occasions
departed
кабель
өндіріледі
көпшілікке
өнімділігі
иоанн
бирж
revolutionary
освобож
георгии
permission
довольно
dramatic
великобрит
пифаг
aids
pitt
ниц
##сінен
##чу
алушы
##oming
қолда
туысына
клад
abol
асатын
министрінің
көзіне
уақытын
soil
##сенбі
процесінде
##дино
көлемде
көлемінің
describe
##iefen
дәлелдеиді
сомдаған
ағыны
хромат
мәселені
indicate
instrumental
##нуть
amateur
kids
ях
##уал
##sk
##гез
##елия
##aco
10th
антар
clin
конго
үлесін
##ектесіп
8024
олимпии
commonwe
африкада
дүниесі
чулымға
prompted
ltd
##ыж
##pet
##жон
##alf
##азин
##ilst
##ғашы
##rod
##oto
деректерде
##ивали
сырқ
төсек
resumed
marks
электро
трил
025
әлеум
орындаған
түсірді
сүиене
difficulties
таңдаулы
administrative
simpson
collaboration
portrait
лил
сарт
##net
##tw
алланың
деректерге
whilst
реформа
shiva
зерттеулері
оиы
онан
##ruption
көшкен
understanding
кубань
тоқу
##устың
англияның
венесу
diem
түсіндірме
жүгіру
goddess
арифмет
жанұя
commonwealth
гель
ра
##rus
##иялардың
##оник
арық
түст
өзенінен
округа
ғылымға
сүием
греи
phr
тағала
сипатта
мәселесін
гүлді
publicly
допты
последние
##iece
токио
##мақшы
кеиіпкерлер
описание
телесериал
hungarian
circumst
111200
бәидібек
tip
одеж
##пір
##фуз
көлігі
арзан
күңгір
тарам
қорап
жұмысты
коммунизм
##inder
училище
жетістігі
қытаиға
ownership
сұрап
628
елдерге
factory
covering
sufficient
участие
парламенттік
кодек
объективті
ұтылып
күиеуі
precip
эпоху
substantial
двумя
taught
фиб
хит
##point
##хов
саналы
##asts
##ounced
##dule
өмірден
monster
##ительное
аяқтаған
communication
турнирдің
seeking
funeral
кеде
техникум
melod
лаиықты
леонид
comparison
adjacent
кеибіреулері
қауымдастығының
kl
rud
rates
гоб
##дум
##part
##ште
##еслав
суын
##аба
жасына
қабатының
жұмыспен
rook
талғар
##даушы
тәулігіне
directors
саясатты
жеткізеді
сеичас
closing
неред
религ
көтерілісшілер
смолен
инновациялық
bog
lut
еру
##тик
басады
##ландық
жаңаарқа
##ifer
конди
disaster
218
джим
finale
remove
quad
верныи
оинаитын
advice
##охозя
келтіріп
protagonist
angl
сөилеген
летом
ынтал
қабырғасы
тюль
встречаются
minimal
пышақ
рысқұлов
neutral
522
мық
сб
шм
шақты
##св
##есің
proced
##манның
orle
##ovic
##миру
пара
өлше
крис
meg
warri
аиналасында
##уіт
подт
guer
395
swift
штатында
завис
гарвард
fifteen
зеренді
паиызы
болашақта
филиалы
aimed
alfred
қаралымында
дзюдо
валенсия
630
bil
wake
манд
паз
этап
##инге
##огам
##ымсыз
тұран
олармен
usd
бұғаз
былғары
pregn
##ушінің
өрне
obst
ұстаиды
редакция
түсірілім
fallen
исследоват
subjects
sarah
ғабит
doubt
tigers
lakes
mouse
rocks
гуд
лерм
##дінің
##шат
##абына
басының
##иро
1821
##опис
салалар
##unc
соль
тізбегі
биография
reconna
қызметінен
grace
паидаланылды
##дыратын
самого
үнем
provision
нобаи
роза
heaven
frederick
жетін
##hanna
##inction
аре
chat
құдық
қосар
жұмбақ
##ечатель
сақтаи
portions
магнии
құмар
бұзау
имеется
##еиткіш
өріст
варша
школа
отношения
scholar
schedule
ботаникалық
әкеп
fatal
петрович
толстои
buffalo
mate
vig
гфр
мав
нда
паш
пиг
хру
чус
##иск
##бои
##orph
207
оренбург
##шается
түрдің
lex
туыст
тілге
бөлімше
жиен
##жением
сканд
дереу
576
орындаушы
refuge
sugar
популя
деталь
дополнитель
революции
жанры
организация
тұрақтыл
displayed
хасково
тәртібін
солтүстігіндегі
позволяет
jesus
meteor
reconnaissance
iphone
цеп
цемент
##мор
##car
inaug
##vere
##окр
suicide
##лерімен
туыс
bry
abc
reluct
сервер
assisted
monitor
өсімдіктерді
қабылдауға
түсінікті
harbor
ұсынылды
хоре
африканың
##ящии
walker
сеул
принципі
создания
соответственно
frequent
кремнии
athletes
ethnic
дифферен
коэффициент
буддизм
зенит
ғашық
классиф
пассажир
жағдаилары
шиелені
тұмсығы
бәитерек
880
ecc
pyr
лид
риф
хэ
##пур
##гарт
##онн
##amer
##иман
fred
1827
салынатын
##отроп
туысқан
аздаған
blind
өнеріне
аударылды
transit
##аева
басқаруға
swiss
##arked
келтіруге
тақтат
дарын
highways
broadway
қарсыластың
рамках
камерун
electricity
dawn
preparation
ряда
fixed
тотығу
террор
voyage
pall
жомарт
хау
##hist
##шись
##itter
сус
көші
##ыздың
isa
нац
анк
ammun
зерттеулердің
211
денесін
filed
тамбов
грин
қызылқұм
жүргізілетін
##ықтарын
элементі
земель
үилену
флорен
powered
кілегеи
architectural
false
листья
кірпіштен
aerial
смолян
жиһаз
вместо
гидрографикасы
orleans
ian
оқыл
пад
эмб
##орот
ақб
жүм
##унг
референ
spend
марин
ағысында
charter
acceler
науқан
органдардың
subur
##ительныи
335
новая
форму
тазалау
103000
1839
##одеиств
завоев
басқармасында
1787
flew
эстония
директордың
аралықта
мелод
литературе
benj
мұнарасы
келіссөздер
ammunition
hidden
rings
ров
реке
эмиг
ямаи
##тылған
##яду
##folk
##еты
аллер
##ымын
қарул
1825
кезекті
##illic
##ографии
балқан
баласының
жолдың
батыста
табиғаттың
##away
малға
формалары
мұнаидың
жарықтың
glad
моделі
түиі
даиындалады
exclud
инвестиция
louisiana
азаиту
аилық
континенттік
этимология
безендірілген
подраздел
112100
parsons
елизав
guilty
benjamin
730
iowa
pm
wicket
##текті
##hu
##гид
##father
##аир
##attered
##тіліп
санды
артып
беруі
сәб
аштық
teeth
223
қанның
сарын
одном
анықтама
ақшаның
смеш
subspec
профиль
аимақтары
эксплу
үлгідегі
тәуелсіздігін
christopher
survive
сокращ
грамо
крупные
bulgar
ұтымды
көкөністер
рыц
серіктестік
гамбург
перспектив
рулық
фельд
##іспен
##ni
##ву
##lus
##430
##онға
сулар
##абақ
##uman
span
конн
brick
##issions
күресте
armament
##ologies
қатынасты
##obi
сабыр
биікт
идеология
жетісаи
шешімін
ұиымдастырылған
қоршап
түбіне
построен
махабб
ставрополь
candidates
behaviour
аив
ұғын
##тұм
##раст
##rating
##aser
қарсақ
##lev
##002
arena
unex
өсім
кіру
министрлері
шариғ
см3
өсімдіктері
қытаидағы
signing
##ылмаи
средняя
##ika
халқына
1786
controls
лениннің
тамырлары
бургас
орнатылды
торабы
графикалық
панфил
investment
tomb
песня
dispute
тудыратын
disappear
##ителями
екеуінің
registered
интег
dick
dock
mp
баж
емен
затты
иісі
тадж
шалдық
##тесі
##ғып
##storm
##rose
##imeter
мемлекетті
shadow
leigh
cler
сүріп
##актив
аитылатын
мақтан
амф
альфред
ағаштар
бенфика
##shi
директорлар
введен
строительства
тегеран
континен
лозер
лермонт
ai
vcc
беш
жастаи
##тының
##роз
##дии
##без
##uits
##fast
алғы
forec
1822
жошы
ауылына
evolved
технологии
obama
никель
дәуіріндегі
селосы
978
femin
err
parliamentary
дәрілер
bernard
argentina
satisf
subspecies
филь
әдеп
##еде
##mates
##шыны
санау
1815
ермек
жаңғақ
1600
үлкеи
joining
исполн
құлаған
##гломер
принима
арабтар
гарниз
кітабының
графы
қаинат
predicted
қолдауымен
преобраз
гереидің
тіліміз
оксид
жаһан
cyrillic
аэропорт
osc
зау
##істің
##калар
##lock
##іреи
##инского
арту
елінде
аумақты
ұлттары
жазы
14th
эндр
artistic
теміртау
refere
растения
wider
##borough
альбомы
flights
households
добрич
crystal
рсфср
обслуж
rect
буль
ісп
қағы
өтім
##ообраз
##екеи
арена
##rog
waste
қазақтары
beats
құстың
export
шығуына
shak
##oven
перем
amy
232
жүзіндегі
суретшілері
көбелек
қозғалыстың
жасауды
шақырылды
soci
қатынастарды
русских
сұң
баяндам
шахта
coverage
duo
croc
excav
institutions
морфологиялық
латвия
cave
jazz
py
мант
хем
хдп
шене
##нав
##cles
баратын
spar
abilities
##нандес
қанаты
серж
wright
##ировал
күресті
portland
ағза
бұзып
##келді
қоңырат
тәжірибелік
sequences
включает
эдвард
globe
cancelled
мәртебесі
dollars
теліміндегі
описы
gentle
көилек
ваз
еден
мэт
цицер
##лығында
##dd
##edia
isab
chile
облыста
салатын
төм
org
##ello
список
арналып
медве
халқын
жүиені
подпис
типі
диас
браи
другим
далада
organisation
helping
араласқан
bombers
беинелеитін
мешіттің
выстав
азаиып
birthday
flowers
instruments
сравн
вдоль
##хаузен
заяв
лис
ошақ
##ткіш
##orous
##еик
##станция
##раған
жалаиыр
табысы
жағасы
param
295
университетте
апулия
өткізуге
асыра
##иевич
##ықтарды
таипалық
тақтаи
жоспарланған
декан
holiday
қағаздар
даңғыл
##ющиися
##тавр
сұрыптау
тереңдікте
antonio
бангладеш
ассистент
##фурт
860
асы
руч
ұиғ
##овод
##ога
anime
##аттарда
315
##aws
##ефф
quiet
теңіздің
##энд
деңгеиге
кесір
кристиан
##қазақ
көктемгі
үндістанның
жүнді
қоюға
аралықтарындағы
төңірегінде
submitted
студенті
вскоре
840
саттық
##таның
toky
##ілуде
қазып
##улин
##agger
##unction
терінің
##аган
матр
кенеттен
##ixon
кеть
formula
artific
құлан
жыры
тікен
тәжі
большого
skull
есту
эрик
саясатына
electrical
amongst
получили
жорамал
walking
комиссари
тағаиындалған
проблемы
мэри
компартиясы
temporarily
kurt
тель
хеи
шлем
##power
stores
##оди
##рук
##owed
graham
атағына
243
ханға
сақтық
күршім
westward
шыдам
основания
мақсатты
өзгерген
тәсілдерін
horror
industries
гонкон
thirteen
fastest
тілімденген
recommend
бұндаи
албания
kcpg
күңгірт
dil
tin
бест
егіл
эли
##lain
##uin
##orer
##овна
арпа
aside
##евскии
келешек
nept
arn
##лять
compilation
agree
көрсетілетін
empt
таспа
аудармасы
signal
қиып
сарыағаш
жалғасады
кітабын
значения
дәлелдеді
шапшаң
высокои
әдісімен
intensified
attendance
эпохи
құзыр
алгоритм
нередко
жетінші
wire
##мыл
##зем
##life
##өт
##енность
алым
окси
көпжылдық
##ленныи
##играф
##нова
құиылысу
##жанұлы
willing
үзінді
сатысы
375
##ырауы
шалу
##жает
explain
propag
##ующии
readers
революциясы
книга
ultimate
saved
шағым
хазір
java
гист
штр
қылып
##юшы
##алаитын
##дара
басшылар
##иидің
##руч
spy
212
noble
##тырған
ұиымдары
етп
designation
первую
##ственных
бүкіләлем
аустрал
большую
жалғасы
тісті
селеу
friendly
холм
открыты
императора
melody
дәмді
потому
поселок
дисп
translation
эритро
alcohol
отечественнои
simultaneously
890
jury
pace
аақ
вла
м2
нато
сиб
##шылығын
alignment
1829
##rift
orth
класы
әктас
recip
сәби
carriers
халқым
warren
плов
қуатын
химик
passion
начали
lowest
материалов
battalions
құтқар
құнанбаи
##жоу
patterns
жылдамдықпен
қыдыр
индивиду
кемпір
қарсаңында
provincial
pic
бэ
дисс
дели
##оңыр
##bu
##атика
##reck
##илеи
asking
##опат
астар
##ерсон
upr
##olds
worlds
##номор
johnny
ұстауға
повтор
саясатының
лондонда
violent
beauty
рублеи
illegal
дұшпан
oz
ramp
кесін
##ырь
##star
пригор
forth
shock
сонан
тұсау
әлгі
recall
butter
2500
джекс
аралында
229
таңба
жұлдыздардың
сәуірдің
сұрақ
сұраиды
ауырсын
музыкасы
refers
visiting
listing
ертеден
##ражды
әкелген
кеиіпкері
texts
десант
alexand
feelings
documents
қадағал
бундес
жақсылық
advertising
өнеркәсібінің
кызмет
гвардиялық
vertical
boss
ns
дож
чеп
##пель
##gas
көгал
побе
стилі
жатқанда
орындарына
sheep
relie
indeed
сөзсіз
военно
airline
retro
бром
infl
austrian
архим
сезін
севилья
ұиқас
announcement
көтеріліске
insects
губерниясы
civilian
intellect
гетер
бұхар
конгресс
аналитикалық
человеческ
9th
pont
пеи
##gle
суларымен
##elin
прол
asc
##лықты
түрм
жазулар
шығара
coff
##anga
blo
blocks
##берді
revival
mini
##ieties
черногор
chest
командалар
эроз
жіберілген
жеңілдет
атаумен
suggesting
##осфера
журналистері
сеть
туындаитын
reflected
purposes
хозяист
##onymous
одесса
enterprise
бондюг
##охозяиств
faster
fishing
mood
хул
##сің
##ры
өзің
11th
қорына
аидау
азер
криз
craw
түсе
қоидың
##onsin
##grad
мань
өлеңдерін
##anne
жұлдызды
рекон
тенден
curt
патри
тақырыбында
грамматикалық
manufacturing
приводит
mystery
сюжеті
bald
fighters
hamp
lying
кұ
яг
##хар
##олем
##олок
аламыз
##огр
##данды
пока
оңтаи
емдел
##нание
246
##стерге
jobs
pole
басқарып
өндірісінің
divor
арабша
blacks
ферғана
defeating
robinson
вплот
cruisers
қыртысының
##шкек
интегр
##music
4000
wol
вращ
юган
##nam
##лігінен
##инав
саналды
саналған
боиын
##евна
##дағыдаи
1700
marge
usual
##ыстарын
бағдат
##anger
какао
maur
алудың
зерттеудің
heading
нұрлан
##ондент
велос
ағашы
сызығы
получила
сыртында
madag
colleagues
##никах
мансабын
mercury
төмендегідеи
croatian
көшпелілер
saturday
бүкіләлемдік
wag
жит
часов
шиелі
##аси
дева
##ami
қалдыру
мүр
полном
manusc
өңіріндегі
279
аякс
көзделген
абру
##ющими
8021
провинции
аспаиды
аспаптары
##глас
данные
операторы
арабиясы
қабыршақ
burger
жағдаиларға
будда
особенности
##оидтар
wilhel
видео
grove
конфлик
poorly
##ascar
encountered
drugs
sculpture
muslim
typhoon
manuscript
422
dod
фик
##mc
отмет
##иялықтар
compound
##рош
abund
әкімдері
исполнитель
істеуге
acoust
бөлігінен
##дігімен
auto
кесене
испанияның
позиция
форум
saturn
авиациялық
факультетінде
құрбандық
суқұюшы
rebellion
faculty
великобритании
hann
lists
pend
##инд
##абол
##ғағы
##цияға
##лікпен
елшілік
##услов
кеңесші
триб
assert
университета
оңтүстікте
editions
жырлары
идеал
актерлер
губернии
pitched
құрастыру
contributions
жоңғарлар
каир
защиты
apartment
programming
прежде
ссылки
ежегодно
ambassador
tokyo
danc
tort
сық
##сып
##аста
келес
қателік
prices
жалпыға
денис
decisions
аиналуы
presidency
верг
времена
жартысынан
қасиеттер
шақырып
##истердің
медальдар
аналығы
дүниені
разреш
туғызды
қолжазба
область
правительство
barbara
начинается
erected
панфилов
tide
wisc
лад
оян
сығ
яки
##ниг
##малар
##oons
##овск
##ader
##ulating
жастардың
##ista
дәуіт
жандар
##ғылықты
күндер
серьез
молит
мере
##ционал
үилестіру
повестер
таратылды
модуль
1801
выполн
taxes
түпкілікті
jimmy
watershed
өзгеруіне
лицензия
spokane
спутник
gif
rb
sic
зиг
нил
прет
неап
қоя
##остық
wheat
##phal
орнықты
кув
##языч
australians
матчта
математик
атомдық
звезда
афина
спорты
delivery
принято
ханзада
филармон
чикаго
pounds
tight
yan
миль
қысы
##динг
##hous
##цкии
##rates
##инт
##elius
##илет
alter
бергі
көретін
жарып
марке
кіре
уақытты
ұшақтар
плит
болмыс
заңдары
молоде
defences
schum
альп
obv
соғысында
архип
##rows
625
деңгеиінде
работал
гарри
fewer
қарақұм
өтуге
achievement
сәнді
бағынышты
игры
feeding
agriculture
грунт
predecessor
гонконг
950
ced
жеп
итер
остан
пасс
##еулер
##гур
##үк
frust
##атыны
күтім
жоқты
тұсындағы
тілші
305
өнерінде
қатардағы
##тасу
charity
евраз
##ылмаитын
основным
сабын
құрылысының
шартқа
жоспарын
priest
ұиымдастырып
біріктірілген
перевоз
principles
моиынқұм
шежіресі
licens
110000
гусен
глобус
nazi
абырои
landscape
путешеств
nu
берек
##нк
##вии
##маш
##arn
##тава
орби
stu
жүгір
пода
атына
##унов
келмеиді
экон
шығуға
##berts
тежел
recurr
compens
күнгеи
плазм
испандық
тапқыр
337
новое
физик
күиге
бағдарламасының
аманжол
киімдері
бөлшектердің
villages
шатқ
үндістанда
тоқтату
архитектура
дельфин
лаборатория
еп
кус
пюи
##oa
##атаи
##itis
орлов
адамда
соты
##лануы
nev
берікті
219
canyon
decides
233
earn
ескендір
8023
string
частеи
anna
поступ
continu
reporter
заманның
arrive
##қышқыл
hunter
эстрада
educational
corporate
состоянии
loved
кабинет
danger
vessel
актрисасы
зальцбург
eug
fed
##рот
##вах
##bal
##атели
##аис
##itated
орф
##etch
оборон
##дікпен
##егов
##aks
жазылды
жолақ
өмірді
##нигі
аяз
исч
алуда
backing
семант
persian
ауруға
запрещ
антис
davies
силу
қалпында
изменения
license
тоқтатты
корресп
wisconsin
cort
denn
ibn
lip
ry
титр
##жың
##arf
өзендердің
тұрса
қазақфильм
##ғыны
##illes
##алья
pron
##ishment
##вают
қараитын
колес
##gression
##ходов
анықтаған
metro
каналы
азияға
советскои
explains
банктер
тони
statue
жоиылған
своиства
қаратөбе
деиствует
##тауыш
поним
жіктеледі
флорасы
alternate
wait
қорғалжын
березники
обнаружен
өтпелі
sole
tna
жес
тать
қом
##вед
##анч
##atropical
басшысының
боиының
##idi
##ири
##emen
сыртын
##дағыш
қазақстанды
баилап
24th
##achment
тиын
мәдениетіне
қаладағы
extratropical
сипаттағы
римдік
radar
мектебіне
ұжымш
ережелері
сосед
##іміздің
##оциттер
памир
daughters
қаитарып
жазбаша
substit
kazakh
drinking
ыбыраи
symphony
earthquake
бақты
жеи
иод
юге
##rant
tox
##icy
stere
##талардың
##ивание
1819
оттегі
мараф
жеңген
505
бірігу
жапқан
publisher
қозғалысына
nova
которому
austin
опубл
sword
represents
главныи
fault
роберто
bonds
concerts
waiting
papers
творч
challenged
края
remarked
fo
mond
tum
wants
##кi
##zy
##егіндегі
##ляют
notice
паркі
оиынды
##иналары
өтірік
слив
236
сенат
##шылықтың
autobi
campbell
furthermore
##ographical
могли
audiences
агресс
engineers
##riptions
rounds
тепло
диаграм
заңдылықтарын
essential
axis
пекин
conspir
застро
napoleon
circumstances
benn
cable
биль
шокол
##gie
##hl
##шұ
##щик
##аудан
stick
кож
аудандарының
тарады
жанды
аралап
монах
қызылша
тастады
phoen
drivers
күрдел
harbour
составил
достығы
советского
курт
түркияның
1793
##імізге
predict
curve
шаққан
шығыны
mccar
montreal
загора
святого
hazard
tiger
restricted
hungary
foster
gaga
josh
гоголь
еф
оша
фаун
##касы
##ереж
##елев
##oria
##амыс
атанып
күту
##apolis
##идті
жарғақ
##туалды
##ellor
##ғылық
герак
consol
506
фильмде
профил
##сонның
coron
courses
deliber
грекше
жалғас
метрлік
мөлшеріне
составляют
meetings
қыпшақтар
ілімі
gardens
состоянию
концентрация
overseas
закреп
##iciency
фунт
amazing
queensland
furn
fasc
m2
wis
тесі
успен
##тра
##ram
##rator
##арып
##алаиды
али
##таев
2023
орыстың
##итив
басталуы
күиз
ұлты
қолма
trick
такое
амстер
трап
көздің
264
галактик
көлдің
сатылы
##ahl
universities
міндеттемелер
шалбар
делінеді
militia
земле
limits
##тезиан
magazines
кеңістікте
boundary
сатыдағы
кәсіпорны
bacteria
шенеун
770
вода
лица
##циг
##kel
##war
##ылуға
##емое
##ысыз
stol
bea
expression
жеткілік
аралдың
227
274
234
біріг
monica
325
созылды
қаңтарынан
артты
асырылды
promised
домалақ
большеи
курорт
курсын
кристалдық
салыстыру
қарсыласы
өлшемдері
түні
өкп
тауарларды
immigr
теректі
explosion
nok
pt
pock
дым
лих
мос
##лиз
##іs
##iнен
##case
##іктің
антен
реттел
әркім
әкет
##гіні
273
сөзге
көшеді
##аусыз
орнатты
##ительность
молод
caps
әнді
336
құрылыстың
орындап
штут
detective
алаңда
шабуылшысы
имеются
екатерина
ережелер
ырым
recognised
мағжан
measured
broadcasting
cartoon
индустри
всемир
талантты
сантиметр
tucker
eating
niss
сс
чум
ыз
##лак
##кими
##шті
##din
##ылысы
##eled
##оду
##003
isot
##esty
үштен
manga
хандары
вооб
заңға
алғашқыда
приоб
##ющую
355
founding
өткеннен
бастауын
көрінді
succession
сүретін
жеткізуге
victories
opponent
уәли
##аимын
voiced
condem
situated
ауыстырылды
ruling
nominations
suspended
саусақ
обработ
##техникалық
загряз
кредит
люксем
вплоть
madagascar
bce
bore
dancing
британия
сады
чж
−1
##гау
##азма
бассеи
comfort
exile
балға
крым
джан
воина
##ымдарын
теңізге
preserv
мүшелі
өткенде
дауыст
меңгеруші
сүиір
өсіреді
баяндалады
бөліктен
walt
известны
карьерасында
билеушілері
жапонияда
deterior
dominant
mosc
amounts
қамтылған
coalition
jonathan
учреждения
меньше
repeatedly
беріліс
inhabitants
pam
push
sick
ада
буш
нур
##лаб
##uable
##основ
аттары
құрамды
кеңею
авр
сәбит
төмендеуі
##ілдір
##ханұлы
249
237
sovere
өндірісті
мұнаишылары
corp
autumn
increases
өндіруге
қаптал
бога
кәсіпорынның
идеясын
жапырақтар
looks
кавал
escaped
стадионы
эквивал
содержание
жеткіліксіз
sovereign
biz
wine
талды
әи
##жің
##дым
beau
##евид
##дене
##uma
##unning
жетік
сақтаитын
жеңіліп
accum
мыңдаи
334
сипаттау
ізбас
helium
профессорлары
даласында
1788
lesser
ұжымы
системе
бөлімшелері
современного
беткеилерінде
rachel
##улятор
choose
lacked
зауытының
хадис
михаилов
жеңіліс
elevation
потенциал
surgery
sams
гил
гаг
етін
рулары
сраз
фу
##enh
болив
кометасы
мемлекетін
көрікті
жарлы
##када
##теніп
##оже
##пенің
##андр
өткізілетін
365
repairs
философы
дауысы
резон
шабуылға
элиз
listen
бақылауға
travels
denmark
drove
mccart
использовать
предприн
түиіршік
vulner
census
loyal
первоначально
phenom
gon
hab
mental
нел
қад
##наб
##bec
##металл
##idia
##кенде
##avia
белбеу
truck
оиық
бағам
##issue
италияда
extract
persons
glac
626
русском
үлгілерін
далее
victim
гармон
soviets
қуыршақ
familiar
серігі
көбеюі
distinctive
мүиісінен
означает
иосиф
дастарқан
амстердам
cn
сих
##мель
##оглиф
суп
threw
stal
forg
comed
қорында
maneu
314
соғысты
қоғамды
##ribed
##офф
##офиз
fourteen
strict
rede
шаитан
достар
түріктер
жоиды
систему
campaigns
ауысқан
predators
steps
книги
pulled
жаңғырту
жаңақорған
пустын
синтакс
acoustic
lon
дак
##iмен
##біс
##uations
##аре
##оги
##теулер
күше
табыну
аиғақ
марокко
##рать
даиындаиды
жіті
еуропаға
процесінің
##инское
больших
білдірген
profit
турнирде
жүлдегер
известно
тегіст
structural
##меистер
talent
melbourne
белгіленді
қаулысы
насихаттау
chronicle
хлеб
трагедия
шәкірті
perspective
artificial
lanes
аян
лот
чу
ғғ
##tle
##чо
##pin
##шесі
inland
##icus
орданың
##итан
wasn
reaches
##aven
жарғы
##ieu
қорлары
министер
осен
cruc
257
денелі
назад
northward
исход
зерттеуде
developers
кесілген
вследств
міндеттерді
красныи
solution
lights
қорытп
есебі
есебінде
климаттық
қабатында
звезд
устоичив
қатысушысы
guitarist
қондырғы
##chell
қиыршық
ольга
archaeological
fonts
clothing
репресс
приобрет
вследствие
hole
иір
фтор
##aa
##хир
##екет
##икои
ontar
##irl
иници
1810
салада
##озмож
қате
астынан
түсім
coinc
blow
маманды
кете
бішкек
плод
қонысы
expensive
мұхиты
steven
аиырылған
сызықтық
1842
тырыс
fung
ілияс
taxonom
реих
crews
объектов
съезі
өзгертуге
узбек
направлении
салтанат
алкоголь
шалғынды
сопылық
islamic
произошло
дүисен
корреспондент
ontario
911
мич
##дының
##шелері
##enberg
##аздық
жылнам
ауада
басталатын
ари
anat
##иво
мемлекеттері
##ичные
жатқанын
карб
жансү
manh
справ
roberts
қаупі
elite
##циясынан
алуына
ұрыста
бағытындағы
құлық
насеком
спортинг
stef
баиқалды
өнімдерінің
characterized
ықшам
көркемөнер
##шілдік
archb
ұғымды
стара
##қаиың
главе
жасалынған
организмдер
қожалығы
беинелеиді
ауруларын
physics
мәтіні
traveled
жатқызады
printed
proposals
сұраныс
сахнасында
rebuilt
молдова
дәрумен
duch
gau
tir
атып
баһ
№2
##дс
##асп
##ario
##икул
сук
неше
салех
төсел
авто
serial
##ингем
гриб
шығысындағы
бөлімдер
airborne
##hips
бұрыннан
қозғалысқа
генетика
##уларға
формула
аимақтағы
##gins
өкілеттік
турнирі
тұтқында
көмектесті
лотер
күресу
audition
identify
woods
латынша
##ііі
құбылыстарды
направления
galaxy
возникнов
ғұндар
олимпик
tamil
әпкесі
моғолстан
милиция
грамоталар
абруццо
aj
mason
лима
мец
пест
##aun
##басының
##дад
##елет
##оил
##талу
bever
қоспа
worship
##лиш
өңірде
қашқар
ханды
johnston
заттары
домаш
markets
##encer
елдеріне
адмир
##ированные
үржар
##ируют
hyper
водои
аңыздар
современных
сараиында
тудырды
крепость
borough
recovery
mechanical
женщин
жамылғысында
ірімшік
медведев
күшею
830
ds
рит
раин
##lan
##еиік
##oux
құраған
##шаға
##станции
қалуы
##рант
commons
қолданыла
earning
console
шектен
брест
семья
қытаилық
теорет
тартылып
виш
useful
использования
автономиялы
жіберіледі
сұлтаны
аурулардың
назарын
күреске
литр
judicial
культуре
операциялар
отаршыл
күшеиту
искусство
крестьян
тоттен
диффуз
жұрн
атамекен
обнаруж
понятие
cousin
ньют
coul
nurs
ranks
гег
фраг
чан
##nie
##месе
##cg
##енеи
##урин
rever
стэн
unless
##атыи
клаус
##острои
қаныққан
танылады
ресурстарын
parent
маилин
жүргізетін
қудал
movies
мох
әскердің
starring
блог
көрініп
##дапеш
сорп
тұздар
аиналысып
1940s
неси
insisted
техникумын
жүректің
программы
doctr
баиланыстырады
knights
мұқанов
griff
armoured
exercise
бұқтыр
уменьш
непосредственно
renaissance
690
dict
mend
pup
sap
куш
киеді
тк
уш
##оем
##equ
##анта
##аро
##арист
##иямен
##овыми
##оис
арасы
##раға
heir
##ави
chal
отч
##ичныи
external
қолымен
параг
қызметтерді
оиындарында
##ғылардың
түссіз
метроп
облысынан
күшпен
абыз
предус
##аторлық
322
##ucing
сатысында
##діретін
началось
##gett
volumes
наным
prix
##ияларды
тиімділігін
артықшылық
ұнат
estimates
renov
adopt
interaction
experimental
конфедерациялар
барнаул
chelsea
люксембург
dir
hence
wish
бие
діл
саг
стаб
хаф
##тiң
##вания
##етров
##ares
##anian
қарады
##aming
елест
##атые
tram
изв
денеж
даиындауға
ресурстарды
##таса
малень
болмасын
##імділік
##афин
artwork
создав
скур
шаибалы
рөлді
functions
argues
топырақта
тиісінше
одақтық
fundament
determin
түсіндіреді
mosque
favorable
важнеи
жарамсыз
вещества
стансасы
conscious
strengthened
moscow
cash
hong
pill
мадақ
шест
##каның
##зя
##част
##hamm
##ori
##alis
суландыру
##eta
##iry
##terior
жертв
1818
chan
##ися
құштар
seb
анағ
##ицкии
тепер
##аха
feels
теңг
топтарға
имели
солтүстікте
провоз
кемі
будапеш
секіру
loan
аиыртау
collections
сезон
элементов
антиб
бурабаи
қарастырылған
##rews
1799
fifa
talking
қалдырып
hammer
саиланады
количества
кеңшарында
ranging
наград
##плит
shells
illustrated
тәрбиесі
эксперимент
нәрсені
glee
ale
fate
gw
бом
здор
цив
##rist
touring
##otton
түрдегі
олив
nep
##bery
##ghan
##гердің
сәкен
252
емдеуге
outd
attained
271
##ковых
қоғамында
жинады
liked
engagement
swit
triang
қатынасады
бауырлас
ұлыбританияның
казахскои
photography
clearly
отличается
халифа
крепости
constitutional
правительства
prepare
кісінің
қатпарлы
encounter
көбісі
hydrogen
random
croatia
towers
любовь
mccartney
lan
куль
рү
флю
##лада
##штер
##urer
##004
##ивост
ұлттың
қордың
территори
272
бөліміне
сауран
мұрасы
түсінігі
ықп
kills
##центі
примор
тістері
село
екатерин
жасушалардың
график
абсолю
venue
соғылған
процестердің
ferry
раионах
индустрия
құдаилар
прокурор
информации
wealthy
пределах
hog
леш
мв
##рал
##bing
##dale
жылқының
##rot
##rooms
депті
таралады
##ичных
эколог
іштеи
##ическому
cran
матадан
қанық
extend
трол
маик
канц
ғалымның
сезімі
visits
интерн
trading
владивост
ұиымдастыруға
heavyweight
улицы
вокал
dinner
әшкер
telegraph
060
8th
ion
tales
wbo
wreck
ва
гиг
чеш
чуд
##hard
##ғалар
##bird
##дах
##oned
##ондардың
басылды
##otte
жүир
күтп
1814
ауылдағы
##пендик
248
кәмел
канин
заттармен
әрекетінің
идеолог
римскои
англияда
құнар
өзгертіп
expert
##ировано
madrid
есімін
өлшемді
маиданға
discussion
quarterback
leslie
арттырады
webber
seriously
жеңіліске
мүдделерін
госпит
exactly
полуост
jurisd
alpha
proclaim
батарея
сразу
##hammad
020
пев
пант
##hop
##яне
##жас
артезиан
боилық
ерім
қызу
arist
spac
окружа
өткел
газа
маин
reverse
абстр
surpass
8022
кемелер
тобындағы
armies
семсер
obtain
discovers
баиқоңыр
оптим
companion
доступ
квт
квал
1833
соттың
өлімі
percentage
легко
##иньи
terminal
diego
позвол
штатындағы
ninete
кезекте
атамұра
suitable
успех
volunteers
рецептор
скандинав
720
fm
жады
мяс
##сак
##пекті
##диев
##құр
алғыш
tooth
өзім
##меть
##тала
altered
##ағым
жарысы
переимен
тілдердің
кітапта
әншілер
millimet
мектептері
станциялар
obsc
всю
реакциясы
keys
открыл
императоры
improvements
liberty
approaching
отдельных
struggled
монастырь
золотои
шегір
дунаи
коллег
штутгарт
теперь
nord
sink
vast
пи
пять
рнқ
##поч
##ою
##aj
##идан
##vised
##оссии
##uration
қалатын
сооруж
##авт
##окк
##дали
perceived
ханш
тамаш
амплит
агенттігінің
underw
аталығы
куба
##ительности
surge
театрда
скотт
әсерлі
теорем
бүкілрес
домен
##iлiк
patron
explan
organised
шаруашылықтың
жобаның
behalf
трупп
competed
революцион
sung
выполнен
##довик
қалдырады
тепті
ветерин
memorials
ranges
состояние
православие
indicates
центавр
телевизиялық
tactics
phoenix
cott
нитр
рафа
час
шеті
##сб
##реб
##iy
##хель
##cock
##ان
##олж
##еледі
##atem
##онос
судеб
##urally
ереимен
sega
мүге
##acked
қызметтен
amph
##баид
crater
әкімдігіне
242
танкі
жаиындағы
regime
жинағын
далалы
ұғымдар
##рахманов
есімдер
шердино
judg
әңгімелері
улиц
мүиізді
screenplay
отбасылар
reflect
сторону
григории
ответствен
пулемет
multiplayer
велосипед
ment
tong
алас
##езе
##одром
бұлаи
##umps
shipping
тізе
аиғыр
1300
grave
##igny
eve
247
әиелдері
parad
кетп
қоғамға
drake
таиван
шешесі
заттарға
температуры
commanding
тәуелсіздігі
венеция
тырн
hybr
1797
деиствие
жапондық
еркімен
жаттығу
targets
танытты
кінәз
##мұхамедов
practices
апостол
excellent
дифференци
тоттенхэм
sd
зд
тут
##док
##lings
##бұ
##lyn
құрамының
##алығын
intr
өсе
коммуналдық
##ыстарды
301
##нике
қашан
ашар
indies
##тырды
poems
өткізетін
құлп
гендер
595
көтерілу
келтірген
армиясының
өзгерді
1804
costume
өндірісінде
predomin
##әрізді
мерзімде
##пеиіс
орындалатын
bonus
нұсқаушысы
prosec
кепілдік
рашид
appropriate
schumacher
615
dread
hide
vl
ривер
снач
##nb
##aul
##ws
##eria
қармақшы
##еван
##лыш
adela
тілшісі
теңдеулер
денелер
paraly
уақыттың
##anner
##жается
1803
математигі
biographer
flagship
вокзал
терминал
mrs
үрдісі
сегмент
harvey
кірісп
гумилев
субтропиктік
##ятых
греции
издатель
телеграф
кесінді
nissan
760
danish
tap
иж
устан
флам
шифр
әдеи
##по
##жүр
##дірі
##aters
##уре
##ызы
##utor
күтіп
құим
коммунист
есет
метан
техас
ашылу
доценті
жабылып
оқуын
керекті
matters
кешкі
лигурия
##ательных
valuable
заверш
##rett
шәу
тағамдары
1792
зву
employment
romanian
badly
pierre
definition
finnish
swimming
театра
пловдив
абсолютті
сначала
етік
үик
##иана
##zona
##інетін
алдағы
##omo
баста
##achers
chand
arp
жарлық
crazy
253
##ffield
иммиг
такого
кәм
монте
сенег
##нении
абу
қуалау
есепті
әндерін
stress
edited
калиг
көлеңк
большие
##аммад
ұшырасады
связь
озера
силик
voices
күлте
великого
egg
striking
pilots
##iндегi
bulk
ғаламдық
километ
тюмень
итальяндық
сүиеніп
rihanna
consequently
жесір
laugh
°с
өліп
##лис
##rome
##еира
##reet
қарахан
##шіт
құрамасына
shaft
##астығын
кірмесі
өміріндегі
##rup
231
parth
кенж
құиылған
265
маимыл
##attan
underst
қуысы
қабылдам
musician
макк
шаибани
сәулесі
627
қалғандары
raising
turnp
динамикалық
жалғасып
бірлесе
1802
границы
дәлелден
hosts
аиырмашылық
пәнінің
управление
шаиқасы
lifetime
bobby
interpretation
идент
элементы
элементар
естіген
аммиак
cel
зин
ними
нияз
сөл
##тет
##вич
##евен
prest
spit
изнач
избран
перпендик
newark
weigh
топтам
өңірінің
flower
backed
343
күиші
домов
camps
commanders
қаша
possess
видим
жүргізушісі
иранның
panzer
зиянк
светлана
galv
cannon
dogs
дикт
translated
nobel
липецк
execution
координат
fontsize
ses
гул
дорт
келер
фрун
##лаж
##нын
##ъем
stern
сырған
отс
елін
##мана
trough
коммуникация
конус
осын
тауларында
centers
колор
мало
көксу
dressed
проведен
supplement
governments
шетінде
ауруды
көрінген
никак
trio
кесу
стацион
мүмкіндіктері
southeastern
тұрмысы
tenure
faces
есептелген
аңызға
##нему
символы
тропикалық
защищ
үирету
бәсекелестік
атлетикадан
exclusive
turkish
мылтық
воскрес
chicken
archbishop
820
tul
yield
рат
тағына
##лина
##ьма
##омин
tob
түбегі
отк
жалақ
##озды
табысқа
##ifies
баиқа
spart
encl
##бектің
қызметтері
##шыларды
indians
күшік
maple
##офил
guar
belgian
originated
данных
жемқор
harmon
запорож
ауырады
месторож
келісімі
бұзылу
терминдер
получения
севере
survival
робин
ілгері
talks
сырдарияның
шешендік
lux
құбылыстардың
marshal
араластырып
adventures
инфрақұрылым
содержащ
##avery
взаимодеиств
іздестіру
референдум
бүкілресеилік
wii
идет
ске
қилы
##ыше
##монд
##fly
##стегі
##аиз
##ақта
##isse
topped
##еңіз
баитақ
туа
##керлер
джефф
кеиiн
241
##ғалдақ
органов
##лощ
austen
glen
trium
әулетінен
lawyer
нұсқасын
historically
зият
последнии
ауруларды
utah
төңкерісі
democrats
архитектуралық
артиллерия
pursue
сергеевич
arizona
македон
acknowledged
бундесл
wilhelm
adelaide
лаф
лавр
мя
нтв
қур
##cul
##ділігі
тұруға
##irts
қалса
##teries
ұлпа
##адии
##ахр
тұқ
##леніп
балт
кард
amp
бөлді
монако
тораи
қасір
epic
қаңлы
##ительным
##iншi
glas
балықшы
дәріп
раионов
баспал
777
алаңында
legit
шве
функциясы
funny
қабылданады
комиссары
graduate
промышленность
luke
просто
үиірм
сталиндік
conversion
veloc
collapsed
atomic
cant
гин
пеиз
руз
##уэ
##жім
##uil
##imented
conquest
##estone
отно
ерге
relocated
roots
##ыстарының
қамауға
талпын
##лауға
сенің
шеккен
аударғанда
скар
кита
народа
макар
эрн
джонс
пікірі
қақпа
affil
##комының
promotional
номер
дворец
металдардың
observations
мокша
постоянно
середины
суармалы
апарып
нукле
анағұрлым
811
baker
vern
идеи
кения
сед
чит
##лiк
##гіров
ants
##odox
болғандығын
##остро
сәлім
қабаттары
##assy
разм
әлемді
warfare
военных
самые
возрож
##раво
батырлық
тоқым
exposure
кешкен
состава
keen
strongest
конкрет
төлеп
victorian
##zzle
экономиканы
colours
іскерлік
палестина
uranium
остается
салехард
catherine
dall
kara
sut
vest
ими
иемен
чек
чрез
##gow
##кв
##крат
##мк
##онис
аузы
##уров
обер
пож
##опот
кезектесіп
##адь
##оста
##active
прояв
күнгі
disl
outr
аралының
##кович
көшесінен
мысалдар
қатыса
smoke
321
зерттеумен
mature
##ктi
физигі
directions
операции
personally
petro
romance
эстон
құдаиға
сәулетші
destroyer
##шением
көрсеткіштер
graduated
инвестициялар
lords
иллю
иммунитет
баитұрсынұлы
ачинск
fulf
hollow
mv
tube
wore
ашы
лом
##su
##көз
##иен
##inals
оруд
##eto
##ікі
##ivan
frig
friday
тудыру
аимақты
components
тізімге
401
бітіреді
severely
фрон
опыт
дәуірінен
банкінің
родриг
бөлшектері
қышқылының
добы
loud
зауытында
##world
theatrical
мазмұнын
spiritual
эксперимен
imagery
инспекторы
##colm
нигерия
##мұнаигаз
чусовая
dual
sak
tang
аис
дь
дюр
лық
сэ
черт
##onium
##eno
##ореч
судағы
##илық
##урен
##одук
сілеу
тарихшысы
##тасқан
##деткіш
тасқын
##ировали
процед
бездері
палуб
demanded
үлгісін
сөилеитін
сахара
1796
австрии
момыш
flooded
преврат
rider
миссис
оксфорд
sacrif
duration
conventional
demonstrated
evacuated
dubbed
шыбын
bakshi
публицист
дортмунд
пеизаж
ақы
взвод
уаз
ұшағы
##сері
##огорск
stuff
##usalem
conce
hend
##убә
келмеитін
prove
қатары
crimes
decay
нәру
аиналасындағы
монтаж
retain
қорғаиды
альпі
аспекті
голос
түсіні
росси
көлеміне
тартуға
сталинград
раионы
келтірді
регул
валерии
1809
еріткіш
кристоф
stronger
improvement
malcolm
closest
applications
пьеса
носители
investigate
құжаттарды
немере
крупнеиших
друж
әитеке
австралии
кездестіруге
оқулықтар
скульпт
pitts
cattle
padd
ажал
гана
пиш
фонд
##пир
##леиді
##кот
##ерия
##ингі
барысы
стип
execut
##альности
1122
қоятын
бата
өтк
##pled
##ханалар
finance
аитатын
бөлімнен
сарым
peaking
басылымдар
бағытына
##дірген
басқаруды
аиыру
валентті
жалғау
##iveness
1806
представителеи
губернаторы
sbb
күшеие
жоғалып
отрядының
стиле
писатель
trailer
половины
constantin
коллектив
succeed
господ
gathered
загреб
sponsored
внимание
сілеусін
lig
sank
вестер
хv
істі
##сам
##arr
##ондр
##omys
құрылу
бөтен
##ипи
##адц
жазында
##iper
биографиясы
конь
марко
overt
##ensively
өнертап
268
298
monte
наряду
тоқты
тұқымынан
наиден
тігін
тітір
жоиқын
connecting
ballad
деиствии
putting
##оприм
киргиз
бозғылт
sbbc
heroes
композиторы
уровне
examination
палеолит
portrayal
убии
қобда
jerusalem
revolt
свидетельств
крахмал
шоколад
turnpike
дист
хил
##lined
##470
##490
##атин
жылулық
##абат
көс
арасын
##акон
комик
##евод
##oda
анн
жарқыр
қордаи
##iph
сүңг
астер
ембі
акция
013
бетімен
тасп
posit
қаитқан
##уларын
правления
##аевтың
достоприм
тігу
##ующим
комиссиясы
миллионнан
уезінің
нәрест
аппаратының
destroyers
көбеиіп
intervention
##castle
случаев
четверт
burning
ішектің
athletics
мысалға
консерватор
optim
surrendered
скуратов
достопримечатель
og
pairs
ubs
нич
уор
шұр
##кости
##малау
##еро
##атам
жәді
қарағ
инв
атсал
қаиық
worn
##десіне
disagre
саях
262
peas
кезеңіндегі
смир
strange
склон
maine
385
физическои
signature
demo
местах
русские
eleph
##shore
метрден
түркілер
merely
формиру
judges
өндірілген
removal
класса
##ялись
жатқызуға
сахнаға
сиднеи
успеш
керамика
demolished
hammond
кембридж
infrast
сүиемел
перпендикуляр
cord
dale
hier
nad
vamp
кинг
##ттың
алесс
##amus
қабанбаи
grim
newton
қаншалықты
##angel
эндем
knock
орнық
жапсар
самая
смог
әдебиетте
338
үнде
##күн
##табан
##ception
сызықты
debt
представители
lightning
cyl
именем
временем
иеленген
ұрпаққа
патрик
аллаһтың
острове
паиымдау
классификация
жастаиынан
жансүгіров
810
кля
сход
##ais
##анова
##елин
құрақ
##имин
##idal
котель
нагр
ангел
shark
қост
##ellation
есірт
##ыстарына
подв
воине
revised
thanks
торж
жүргізіліп
жинаиды
қатысуы
engage
брю
тобында
новок
основании
keith
сахаб
drown
царя
даңқы
establishing
писал
dollar
concentrated
hypothes
вольфрам
құқықтарын
lynch
exclusively
бакалавр
дабыл
chancellor
трамваи
manhattan
fis
nit
rou
sull
ticket
блан
етілді
##яда
##әк
##cus
##eda
##дердегі
##терм
арқар
##ods
нах
##ытылған
қорегі
оиындарына
##ностях
жақтың
offs
кездесуі
қамту
таман
тело
әиелдерге
278
қызылқо
299
түрліше
phant
центнер
affect
жүргенов
travelling
денсаулығына
malays
біріншілік
qualifying
mirror
lucas
приходится
жаттықтырушы
анджелес
протестант
болдырмау
президиумының
consolid
pand
sult
иесінің
иметь
лік
##коль
##py
##460
##face
##алаған
##ито
бастамасы
##acre
reward
##естра
мекендермен
afghan
abuse
раза
drain
defending
құрылымына
факторы
астананың
annually
жемістен
мәскеудің
балықты
eastwood
кампан
confidence
штур
адамдарда
босния
monthly
одну
жауынгерлер
уәде
бөлікке
wallace
competing
вариан
fortune
словакия
пирамид
atlanta
hugh
celebrated
бақытты
византии
сравнению
proteins
егіздер
density
вообще
dust
gear
rams
гун
зоны
##сiз
toured
##данатын
##осома
обуслов
##лықпен
ақжар
orr
##тенің
желдің
корд
жағалауына
airfield
norfolk
##ировка
мәдениетті
медеу
mainland
етуші
ешк
протеин
пәтері
morph
своиств
мұзды
мұздықтар
hurricanes
языков
электрондар
варна
##itarian
жапонияның
gradu
атмосфера
oliv
федорович
мәртебесін
сүзгі
customers
decorated
жетіспеу
theodore
aggressive
ереиментау
gig
wik
галь
өгіз
##pent
##cott
##абад
itunes
##описи
##егінен
билігіне
марғұл
тарихшылары
partial
251
акул
тіршілігі
жапсыр
правил
memoir
stein
ағарт
астрономиялық
қатынастары
considering
большим
продюс
қырғыздар
орнатуға
оқиғасы
тиімділігі
құсаиын
генератор
ұиымдастырушы
мереке
verde
тепл
изобрет
ренесс
intersects
ансамблі
эволюциялық
шипов
heming
дирижаб
команданың
confederate
thunderstorm
photographs
чехословакия
liquid
##itudes
исчез
stolen
gender
хэм
##хам
##глав
##фель
##біл
##ede
ongoing
##едена
whate
жасағы
##иджи
shorter
##ленеді
allmusic
табиғатын
feather
overlo
телекан
беттерінде
трип
##icking
күштің
##офор
##ционных
кигіз
вывод
гүлдер
тікұ
мәскеуге
545
characteristic
ұқсат
ректор
делінген
wayne
бағдарламалары
politician
дыбысты
тырысқан
классик
намысын
жасушаның
шырышты
комиссияның
илья
##ализация
біртекті
жанармаи
qualified
работу
захват
rogers
упоминается
бизне
бесконеч
tubes
жалпылама
rookie
аллерг
unexp
маньчж
whatever
всп
егор
мэн
##пін
##ттер
##rehens
обык
тұрар
conceived
athens
жалақы
orn
##тену
component
осыны
serge
overw
қаулы
подс
әнұр
оқушылардың
лигада
дәстүрін
адольф
жеткізіп
петра
initiated
youngest
тұтастаи
тәсілмен
representation
choir
службы
веках
наказ
экономикасының
observation
mitchell
паразит
ұлғаю
ештеңе
обыкнов
ковал
##кы
##иға
##вилл
##die
алса
преф
##olo
бөкен
барақ
##окси
unve
оиынша
реттеитін
азаяды
ішекті
карам
марс
newcastle
жөні
303
еңбекті
evans
##очная
порош
манг
есептеді
молиб
metac
возраст
влаж
қауымы
juven
үиленді
sixteen
олимпиад
олимпиадалық
##ующего
тыргов
планета
тұтқыр
этнографиялық
янг
внес
strikes
соглаш
паидасына
ағзаның
pupp
қазұпу
утвержден
сексеуіл
бәиге
македония
ұңғыма
безопасности
initiative
патриарх
зрит
кi
налог
хана
##цам
##цина
##дают
##икт
##илла
##шілігіне
еңлік
федералдық
aggreg
еңбектерінің
offense
толмаған
283
шығармалардың
исландия
шілденің
descent
әлеуметтану
demands
сүиекті
мидың
realized
терминология
қақпақ
деканы
аиқындалады
quebec
наступ
москве
settlers
жіктеу
бірлестігіне
oslo
арттыруға
indicating
opportunities
grossing
осуществляется
withdrawal
мүсінші
johann
enlisted
branches
боялған
infrastructure
pub
аина
киб
сада
чин
##сберг
##мү
##гем
##je
##анных
ақау
heath
олиг
негіздерін
##ствия
перег
жанжал
##телді
resol
тізімінде
##инга
гром
бород
##екает
гректер
##ashi
шарттары
педагогтары
хабарлады
donald
фарма
уәкіл
әдебиетін
ұяшық
competitions
норматив
столицеи
chiefs
##uki
тәртіппен
тақырыбына
сети
cruise
drafted
questioned
омыртқа
другое
chronic
закрыт
батальон
мюл
кесірінен
фрунзе
050
dug
иш
фред
ығыс
##иология
##ициясы
##вали
##hum
##dr
##еидің
##иками
##ивая
кездерде
ұласады
seattle
plum
қосылуы
индик
##ours
сведения
258
313
##ерси
ғасырлық
index
науки
406
323
аңшы
сатылым
тұқымын
##ственные
reducing
началь
arrives
поэтикалық
killer
жобалар
арқау
traded
кішіреи
##клон
нақыл
дивизиясы
поэзиясы
герцегов
жазбалар
иерарх
рәсімі
эволюция
антиген
раушан
приготов
сантос
placing
survivors
ceremonies
bib
bone
gm
migration
дір
отау
өм
##jection
##inter
##ыңда
##руп
жүгін
##егистр
##трин
аимағын
fires
fee
disrael
##place
309
308
территорию
##enson
бүлік
сақтаған
жауға
тиген
кезеңдері
молоды
құлап
дрез
сабақтары
билл
775
ибраг
tours
connections
кеиіпкерлері
principle
arrangements
##ащих
шыңғысхан
preparations
пісірілген
хлоп
rivalry
заманымыздан
наличие
recreation
зырянское
архипел
disraeli
dy
sings
диет
елек
снег
##tra
##анскии
toler
##icity
##скі
аттың
құрамада
##изе
негізге
ұзына
перио
қабынуы
##irect
flows
288
тасқа
guild
##джи
марапаттар
кинор
келтіретін
valve
саясаттың
произведении
бурят
өндіруші
туындылар
stationed
terrain
сазгерлері
ұлыбританияда
специф
minority
баиқауының
игілік
oriented
есептеулер
fluor
каучук
suddenly
интенсив
pyram
джексон
stuart
ықпалды
hemingway
flex
hess
блю
оинал
пы
##зел
##lane
##орты
##омина
##імсіз
катал
1780
compounds
өңделген
горы
277
extending
285
көкірек
посред
посещ
самолет
winners
detect
түсірілді
restore
қақпашы
squadrons
rebel
москвы
процессе
ташкентте
innoc
fairly
ceased
progressive
елімізде
variations
sheriff
##абеков
dwight
арақаш
алексеевич
аккум
шемір
нышан
philippines
songwriter
overwhel
дион
іліп
##піл
##тетін
##ih
##ғасы
##vo
##bow
##ынын
##еннің
alaska
##ертон
##ando
тауық
күндік
света
емі
жүиеде
слои
серв
жариялап
батысындағы
жіө
356
invent
артында
боран
шақырылып
баиланысады
мүмкіндіктерін
ферн
мұсылмандардың
дәлелдеу
гипо
praising
взрыв
hardy
шкал
commentary
юрид
көшірілді
suspic
условии
вакцин
концерттік
aspect
columns
ferrari
unexpected
berg
lav
nag
мели
нде
устав
##гiн
##тации
арс
##ivation
стоя
##оке
бату
manif
спорта
##никам
eval
decide
монре
жағдаидың
revenge
continuous
##enne
шынжыр
delaware
газеттер
##affe
еркіндік
motors
balls
занят
cutting
commissioner
samples
ахметов
шөгінділер
царь
суперкубог
кеуекті
решения
уикипедия
симфониялық
вулкан
шопан
precipitation
bam
fern
беж
вон
шеген
##бина
##еко
##елло
речи
оккуп
табаны
қосылыс
тұяқ
орындалған
корн
кездесулер
316
elig
монт
мысық
типтік
291
сарық
345
городу
етуде
астрономия
confident
құмтас
fleming
turret
##бетов
сезімін
невозмож
конкурст
contribution
interviews
беинеу
облыстарының
покрыт
hawk
қыртысы
необходимо
interpreted
негізделеді
арақатын
culmin
indonesia
chevro
троллеи
алессанд
lud
pse
##сымен
##кир
##хт
##цем
##шенің
##fa
android
##тадор
түис
қалақ
##iden
beam
ақт
##estyle
алабында
unre
аидап
перн
012
attending
білік
моллю
##алдарды
mills
қозғалады
barrel
жуығы
memories
лигаға
өлкесінің
экспон
түсіруге
өзінше
бұзылады
##minster
аимақтардың
middles
лицо
жүні
уголов
кодекс
рәміз
absent
breeds
международныи
игеруге
бұирығымен
тәуліктік
сыпыр
##шұңқыр
элизабет
yu
пиан
фаб
шеиін
##ook
##ділік
##itary
##геу
forever
похож
атанады
ерм
##идиан
ұлтшыл
tract
шығысы
аитсақ
emmy
269
##101
##ительная
үстір
артта
ұстам
магмалық
безендіру
төртбұрышты
considers
командасына
үндіс
replied
1783
эмисс
statements
##ящие
белсенділігі
ережелерін
маиданы
качеств
құндылығы
появился
украш
большинстве
##оружении
preparing
owen
мүліктік
ғабд
воисками
исключительно
владимирович
венесуэла
hampshire
jurisdiction
bent
jets
kam
murr
легион
оя
##нәр
##қауыл
##енка
##sters
##uras
##евин
обладает
resur
жақтас
##ылдыру
##ыстарда
267
##ирована
көкшіл
жарияланып
посад
беис
##aird
333
opens
провинциясы
әскерлердің
сәикест
##овано
төрттік
энергияның
советская
псев
radiation
өсіруге
романдары
кристалды
депутатов
1798
особен
silent
identical
біріктіріп
respective
oxy
вальтер
установлен
құрдым
ақсуат
девон
концентрациясы
зоология
квартал
әсемдік
тунис
jefferson
arcade
blend
gilbert
шығыстану
мотоц
saxon
қамтыған
синтетикалық
күтпеген
gest
kon
mik
rut
sized
жители
қын
##муд
todd
##ноп
ard
дәул
парф
спб
денеге
жаиып
плоск
болмақ
328
сапындағы
станок
городских
берудің
сұрғылт
##звест
##суа
жинақтау
авторлары
представления
referring
отриц
кентінде
толқындар
тамақтан
жігіттер
bombing
certainly
reforms
ботаника
бітімі
mythology
##асараи
unlik
декоратив
возраста
серебря
иоганн
glasgow
lag
nan
ted
wig
вяч
риза
туль
эдин
##ml
##asm
орап
сут
##acles
обол
stall
reorgan
##авказ
саласын
proof
көрпеш
##berry
теңестір
wein
ашхаб
output
тележ
геохим
колдан
университетіне
басылымдарда
80px
тұқымдары
құрылысты
тазар
қалғанда
президенттері
handled
интерфеи
politicians
развив
1805
жылдамдығын
requires
замандас
інде
взгля
принциптері
ruler
атлетик
четвер
107000
acquis
септігін
тосқауыл
еріксіз
##гольм
смысле
гигиен
таивань
galveston
отношению
780
nl
sig
zo
афф
голь
оао
##iable
##енн
қарауға
обсерв
stim
күилері
chord
солға
arctic
clan
клубқа
сарқан
анықталатын
endors
таңер
жасаушы
канадалық
varied
бесік
ескерту
petition
##ующеи
капитаны
социализм
presentation
молекула
әртіс
шанхаи
биіктікке
мүддесін
национальнои
тұнба
hawa
портреті
supplied
challenges
кеибіреулер
шауып
үзіліс
услуг
tyrann
сержант
yanke
будапешт
скепт
pist
ву
жеуге
нест
оим
рақым
шеф
##nat
##кость
##baker
##far
##ереи
##iders
10−
scattered
персеи
marqu
сағын
cox
өнерпаз
##mania
##новод
ұшқан
біріншілігінің
көкпекті
pool
сапа
станислав
сыилықтар
соғысындағы
рома
redes
әрекетті
ауруына
завода
высота
organisms
rocky
шекарасында
garn
reduction
путин
ceo
күмбезі
аумақта
failing
##азывается
drummer
бокстан
зимои
артиллериялық
requirements
переписи
протяжен
елтаңбасы
ныне
торпедо
chevrolet
pseud
pec
zh
вых
фем
ядер
##бiр
##етов
##еске
##инскои
ораида
##аут
##adier
қали
bearing
күкір
1811
берд
туын
карп
sheffield
бұталы
desper
акуст
318
жауыр
ұштастыр
сыбаи
қатысуға
жігі
barn
қаңтардағы
балықтардың
центров
кесілді
симон
идеологиялық
вселен
valid
историю
омаров
кристина
шәкәр
оқиғаларды
ырғақ
леико
##itorial
кешенін
shares
liner
микрор
beneath
бронх
отдельные
permitted
көрермендер
mutual
лексик
түрлендіру
суаруға
##абатыва
осадков
dissipated
crocod
тітіркен
diefen
sample
вез
вуд
врач
мс
мада
рота
шато
##уалды
##оу
##вая
##гас
##дая
##oting
##thy
отаны
салдары
жоталары
pray
мүлікті
аиб
караи
проявля
dischar
##андо
impression
3166
бағаланады
амбул
##orship
ұшында
maps
білімнің
әнін
339
approaches
волок
electro
зарегистр
мөлшерлем
##естігі
медальмен
devil
жасалу
girlfriend
билеушілер
противополож
транспорта
отаршылдық
активно
рамазан
rangers
throwing
глюкоз
күндізгі
буржуазиялық
reconstruction
лермонтов
ұиғар
diefenbaker
bub
бост
пуль
риг
тент
##cano
алыстан
##terly
##отин
берілу
аиы
база
бөлген
своб
259
cob
boom
##ibilities
болатыны
261
assum
noise
таиынша
құрылымының
сатылар
орындаитын
руси
общего
trek
sentence
линия
ұжымдастыру
бюро
significance
юрген
исследователь
кандидаттары
withdrawn
magnitude
қатысушылардың
concentration
түлкібас
рабочих
sailing
порядка
leonard
барабан
pocket
samsung
underwent
sullivan
hawaii
821
dimin
gem
gary
tak
иуда
селен
шаф
юк
үгі
##вои
##ходы
##zes
##бю
жерасты
пожар
cong
conj
сырын
құсы
##ичнои
##ісінде
изг
түсіне
commenced
қолданысқа
чемпионаттары
attitude
blair
indu
жеңілген
acre
edwards
таңдамалы
құлын
slaves
даналық
variation
шалғаи
arguing
реакции
ұқсастық
turkey
привлек
ережесі
практика
современные
жамбас
афины
улуч
objective
вирустар
управля
blocked
факультетіне
мақтаарал
поверхность
аттанды
скорость
ұстаздық
хиу
comprom
evacuation
жүиелік
лингвистикалық
cosm
эндрю
ханшаиым
әдеиі
молибден
unlikely
dors
duc
jake
nice
уф
уро
эин
юст
##чеи
##isons
##нецк
аля
алақан
##тарен
окрас
unw
жарқ
жұмыстан
оидың
aft
apply
топта
266
көктамыр
филол
институтына
самом
қаңтардың
музыки
калиб
infection
фредер
##джин
әскерге
corrid
қалыптаса
блэк
штаттарының
767
speaker
көңілі
известен
economics
взрос
номинал
бәріне
##тедт
поселения
шағыл
членов
witnesses
ландшафт
полиграфия
удалось
қазыбек
fossil
сәрсен
чапаев
книге
insurance
сұңқар
татьяна
қызылқоға
daw
gut
ша
##меу
##ht
##инген
##дария
##абия
rend
кош
индер
##005
fract
##убаи
1823
1816
##тқышы
##идтің
зертхана
ауылға
clothes
intent
қамысты
үлкені
қоимаиды
##osex
##детіп
жүиелерінің
297
кітаптардың
абзал
жинағында
мектептерде
##діргіш
көріністері
концу
температураның
delta
миш
таратылып
президента
фермер
burton
востока
почет
факторлардың
өзбекстанның
должна
тауарлардың
##уголь
длинои
##тияр
шұғылданды
ұраны
tactical
патшалығының
##убәкір
cp
dak
nur
rama
wished
yo
бамб
дие
пір
##нист
##rest
##vi
##erning
##inus
##enos
сутегі
прус
##umented
жоғалған
жұмыстың
перз
өтеген
өсінді
##onda
топтарының
carries
312
##ганг
қашықтыққа
кетсе
282
296
ministers
доказ
друга
экспед
құнын
өкілдік
salary
кебек
шәріп
ықпалымен
sunk
сазгер
bomber
холл
қақпасы
learns
dealing
процестерді
национальныи
дәрігерлер
верхнеи
литературы
фольклорлық
жәрдемдес
упомин
advertis
сылва
бәсең
mathematical
дальнеишем
болезни
гастроль
исмаил
хозяиства
мүгедек
фармацев
fold
nerv
raz
rivals
taste
##лим
##hal
##цз
##ұдық
##ьо
##mill
##еніп
##абының
бастық
##аструкт
салау
seized
жаңаөзен
abu
crest
саябақ
науру
аталуы
қажырлы
маусымдық
кемінде
кубогын
голлив
жырлар
435
advised
angles
таратады
фернандес
эмилия
үрім
1791
territorial
өлтіріп
тіркестер
роли
кисло
accompanying
аулақ
покол
options
кісілер
ткани
бухгалтерлік
vulnerable
дои
ұнам
##сх
##пау
##aig
##кок
##hs
##цом
##жат
##арев
##anu
##таг
аррас
##aders
stom
ақсаи
непт
жаңат
exists
дәрет
емхана
қырғын
қоиылып
көшіру
281
маиын
guatem
академии
кемесі
млад
түсінді
helen
promise
павлович
##ухов
эрнест
787
джонсон
пәтер
массасының
түрлерінде
трудов
кәсіпорындардың
devils
1795
##ettes
құдаиберген
нормативтік
железнои
transported
livingstone
возможности
traveling
инфраструкт
кілт
muhammad
егіншілікпен
гибрид
содержит
пісіп
кестеде
фрэнк
dimension
assassination
##мұрын
botan
тоитарыс
вячеслав
gosp
gift
муд
##зак
##litt
##бир
##hears
##itely
##amine
exceed
##rik
leo
саид
trig
тұзы
##ovak
scores
manor
креи
бұның
шығыстың
емт
толып
284
жиілі
##учи
icon
жасаудың
##ieth
оинаи
425
протокол
tracked
партиялар
общая
donated
donna
белсенділік
техниканың
error
тақырыптық
doctors
removing
мифолог
құбыры
салмақта
essay
assembled
федоров
jerry
vacc
rushing
фотосинтез
specimen
empty
жемістенеді
маньчжур
rah
saga
дары
яһ
##lec
##быз
##cements
##ияд
##іңде
##овора
##иттердің
бастысы
қазу
сочет
##евая
кезен
##идтік
көреміз
##етінін
туылған
белыи
көпті
азов
perry
shep
свыше
304
317
extinct
жеңістер
жаиы
военнои
қоздырғыш
guid
меркур
millenn
моральдық
выда
беинелі
заттардан
сабағының
аиырылып
ағаштың
explaining
explicit
паци
мақсатын
өлтірген
commenting
специализ
уровнем
учреждении
крови
consumption
шәкірттері
##огорская
қоинауқаттық
кеңшары
ертеректе
заболевания
diplomatic
тоғысқан
gothic
elaborate
смоленск
кинореж
bones
hitting
lans
tier
ub
вент
рут
тында
чес
##сіндегі
##каль
##mith
##bul
##ща
##etheless
боиынан
##акар
дереккөз
##аруға
##ичи
##udi
##астыру
кле
##агу
онк
акси
өнерге
##амида
бөлімнің
colors
исполня
жинағының
етпеиді
бақш
locally
альян
кубогында
баиқалатын
ауырлық
bills
battlefield
membership
burg
шаруалардың
##естігін
competitive
известных
devast
nonetheless
конституциясы
өлтіреді
1776
дербент
құрастырған
facebook
рудольф
либертадор
прямо
называли
женщины
срок
mathematics
thorough
оппозиция
enthusi
velocity
bj
tack
заим
сатур
##nought
##mund
##feld
сантарен
##иле
мәлік
##опод
##отан
қорығы
оиыс
##астырып
қызметпен
жолбарыс
жанына
partis
disord
жүиесімен
263
порты
thereby
италиялық
арнаған
қазаншұңқыр
barry
сыныб
жуып
основы
ұсынылады
patients
бензин
ақпараттар
дональд
##сауи
жасушаларының
requiring
жалғастырады
съезінде
deeply
общество
жүлдесі
тағаиындаиды
григориан
европеискои
sporting
жамылғысы
virtual
вагон
decrease
прекращ
ғұлам
lodge
rifle
neptune
грамоталарымен
либертадорес
зл
лер
мук
циф
##зон
##rain
##kar
##ycl
##дык
ориг
##street
мәсі
адамдық
ерке
##торғаи
окис
spaces
өнерт
негізіне
1400
конец
##алауға
асу
307
306
тасбақ
##берн
324
журналдар
operates
aveng
массы
mcgill
энергии
рөлінде
сүиіспен
страна
тақтан
баяндалған
[...]
