{
  "version": "1.0",
  "truncation": {
    "direction": "Right",
    "max_length": 512,
    "strategy": "LongestFirst",
    "stride": 0
  },
  "padding": null,
  "added_tokens": [
    {
      "id": 0,
      "content": "[PAD]",
      "single_word": false,
      "lstrip": false,
      "rstrip": false,
      "normalized": false,
      "special": true
    },
    {
      "id": 1,
      "content": "[UNK]",
      "single_word": false,
      "lstrip": false,
      "rstrip": false,
      "normalized": false,
      "special": true
    },
    {
      "id": 2,
      "content": "[CLS]",
      "single_word": false,
      "lstrip": false,
      "rstrip": false,
      "normalized": false,
      "special": true
    },
    {
      "id": 3,
      "content": "[SEP]",
      "single_word": false,
      "lstrip": false,
      "rstrip": false,
      "normalized": false,
      "special": true
    },
    {
      "id": 4,
      "content": "[MASK]",
      "single_word": false,
      "lstrip": false,
      "rstrip": false,
      "normalized": false,
      "special": true
    }
  ],
  "normalizer": {
    "type": "BertNormalizer",
    "clean_text": true,
    "handle_chinese_chars": true,
    "strip_accents": null,
    "lowercase": true
  },
  "pre_tokenizer": {
    "type": "BertPreTokenizer"
  },
  "post_processor": {
    "type": "TemplateProcessing",
    "single": [
      {
        "SpecialToken": {
          "id": "[CLS]",
          "type_id": 0
        }
      },
      {
        "Sequence": {
          "id": "A",
          "type_id": 0
        }
      },
      {
        "SpecialToken": {
          "id": "[SEP]",
          "type_id": 0
        }
      }
    ],
    "pair": [
      {
        "SpecialToken": {
          "id": "[CLS]",
          "type_id": 0
        }
      },
      {
        "Sequence": {
          "id": "A",
          "type_id": 0
        }
      },
      {
        "SpecialToken": {
          "id": "[SEP]",
          "type_id": 0
        }
      },
      {
        "Sequence": {
          "id": "B",
          "type_id": 1
        }
      },
      {
        "SpecialToken": {
          "id": "[SEP]",
          "type_id": 1
        }
      }
    ],
    "special_tokens": {
      "[CLS]": {
        "id": "[CLS]",
        "ids": [
          2
        ],
        "tokens": [
          "[CLS]"
        ]
      },
      "[SEP]": {
        "id": "[SEP]",
        "ids": [
          3
        ],
        "tokens": [
          "[SEP]"
        ]
      }
    }
  },
  "decoder": {
    "type": "WordPiece",
    "prefix": "##",
    "cleanup": true
  },
  "model": {
    "type": "WordPiece",
    "unk_token": "[UNK]",
    "continuing_subword_prefix": "##",
    "max_input_chars_per_word": 100,
    "vocab": {
      "[PAD]": 0,
      "[UNK]": 1,
      "[CLS]": 2,
      "[SEP]": 3,
      "[MASK]": 4,
      "!": 5,
      "\"": 6,
      "#": 7,
      "$": 8,
      "%": 9,
      "&": 10,
      "'": 11,
      "(": 12,
      ")": 13,
      "*": 14,
      "+": 15,
      ",": 16,
      "-": 17,
      ".": 18,
      "/": 19,
      "0": 20,
      "1": 21,
      "2": 22,
      "3": 23,
      "4": 24,
      "5": 25,
      "6": 26,
      "7": 27,
      "8": 28,
      "9": 29,
      ":": 30,
      ";": 31,
      "<": 32,
      "=": 33,
      ">": 34,
      "?": 35,
      "@": 36,
      "[": 37,
      "\\": 38,
      "]": 39,
      "^": 40,
      "_": 41,
      "`": 42,
      "a": 43,
      "b": 44,
      "c": 45,
      "d": 46,
      "e": 47,
      "f": 48,
      "g": 49,
      "h": 50,
      "i": 51,
      "j": 52,
      "k": 53,
      "l": 54,
      "m": 55,
      "n": 56,
      "o": 57,
      "p": 58,
      "q": 59,
      "r": 60,
      "s": 61,
      "t": 62,
      "u": 63,
      "v": 64,
      "w": 65,
      "x": 66,
      "y": 67,
      "z": 68,
      "{": 69,
      "|": 70,
      "}": 71,
      "~": 72,
      "¡": 73,
      "¢": 74,
      "£": 75,
      "¤": 76,
      "¥": 77,
      "§": 78,
      "©": 79,
      "«": 80,
      "¬": 81,
      "®": 82,
      "°": 83,
      "±": 84,
      "²": 85,
      "³": 86,
      "´": 87,
      "µ": 88,
      "·": 89,
      "¹": 90,
      "º": 91,
      "»": 92,
      "¼": 93,
      "½": 94,
      "¾": 95,
      "¿": 96,
      "×": 97,
      "ß": 98,
      "æ": 99,
      "ð": 100,
      "÷": 101,
      "ø": 102,
      "þ": 103,
      "đ": 104,
      "ħ": 105,
      "ı": 106,
      "ł": 107,
      "ŋ": 108,
      "œ": 109,
      "ƒ": 110,
      "ƣ": 111,
      "ɐ": 112,
      "ɑ": 113,
      "ɔ": 114,
      "ə": 115,
      "ɛ": 116,
      "ɟ": 117,
      "ɡ": 118,
      "ɣ": 119,
      "ɨ": 120,
      "ɪ": 121,
      "ɫ": 122,
      "ɯ": 123,
      "ɲ": 124,
      "ɴ": 125,
      "ɵ": 126,
      "ɹ": 127,
      "ɾ": 128,
      "ʁ": 129,
      "ʃ": 130,
      "ʊ": 131,
      "ʌ": 132,
      "ʒ": 133,
      "ʔ": 134,
      "ʕ": 135,
      "ʙ": 136,
      "ʰ": 137,
      "ʱ": 138,
      "ʲ": 139,
      "ʻ": 140,
      "ʼ": 141,
      "ʾ": 142,
      "ʿ": 143,
      "ˈ": 144,
      "ˌ": 145,
      "ː": 146,
      "˚": 147,
      "˝": 148,
      "ˤ": 149,
      "΄": 150,
      "α": 151,
      "β": 152,
      "γ": 153,
      "δ": 154,
      "ε": 155,
      "ζ": 156,
      "η": 157,
      "θ": 158,
      "ι": 159,
      "κ": 160,
      "λ": 161,
      "μ": 162,
      "ν": 163,
      "ξ": 164,
      "ο": 165,
      "π": 166,
      "ρ": 167,
      "ς": 168,
      "σ": 169,
      "τ": 170,
      "υ": 171,
      "φ": 172,
      "χ": 173,
      "ψ": 174,
      "ω": 175,
      "а": 176,
      "б": 177,
      "в": 178,
      "г": 179,
      "д": 180,
      "е": 181,
      "ж": 182,
      "з": 183,
      "и": 184,
      "к": 185,
      "л": 186,
      "м": 187,
      "н": 188,
      "о": 189,
      "п": 190,
      "р": 191,
      "с": 192,
      "т": 193,
      "у": 194,
      "ф": 195,
      "х": 196,
      "ц": 197,
      "ч": 198,
      "ш": 199,
      "щ": 200,
      "ъ": 201,
      "ы": 202,
      "ь": 203,
      "э": 204,
      "ю": 205,
      "я": 206,
      "ђ": 207,
      "є": 208,
      "ѕ": 209,
      "і": 210,
      "ј": 211,
      "љ": 212,
      "њ": 213,
      "ћ": 214,
      "џ": 215,
      "ѣ": 216,
      "ѧ": 217,
      "ґ": 218,
      "ғ": 219,
      "җ": 220,
      "ҙ": 221,
      "қ": 222,
      "ҝ": 223,
      "ҟ": 224,
      "ҡ": 225,
      "ң": 226,
      "ҥ": 227,
      "ҫ": 228,
      "ү": 229,
      "ұ": 230,
      "ҳ": 231,
      "ҷ": 232,
      "һ": 233,
      "ӊ": 234,
      "ӏ": 235,
      "ә": 236,
      "ө": 237,
      "ԥ": 238,
      "ա": 239,
      "բ": 240,
      "գ": 241,
      "դ": 242,
      "ե": 243,
      "զ": 244,
      "է": 245,
      "թ": 246,
      "ի": 247,
      "լ": 248,
      "խ": 249,
      "կ": 250,
      "հ": 251,
      "ձ": 252,
      "ղ": 253,
      "մ": 254,
      "յ": 255,
      "ն": 256,
      "շ": 257,
      "ո": 258,
      "չ": 259,
      "պ": 260,
      "ջ": 261,
      "ռ": 262,
      "ս": 263,
      "վ": 264,
      "տ": 265,
      "ր": 266,
      "ց": 267,
      "ւ": 268,
      "ք": 269,
      "և": 270,
      "׀": 271,
      "א": 272,
      "ב": 273,
      "ג": 274,
      "ד": 275,
      "ה": 276,
      "ו": 277,
      "ח": 278,
      "ט": 279,
      "י": 280,
      "כ": 281,
      "ל": 282,
      "ם": 283,
      "מ": 284,
      "ן": 285,
      "נ": 286,
      "ס": 287,
      "ע": 288,
      "פ": 289,
      "ץ": 290,
      "צ": 291,
      "ק": 292,
      "ר": 293,
      "ש": 294,
      "ת": 295,
      "،": 296,
      "؛": 297,
      "ء": 298,
      "ا": 299,
      "ب": 300,
      "ة": 301,
      "ت": 302,
      "ث": 303,
      "ج": 304,
      "ح": 305,
      "خ": 306,
      "د": 307,
      "ذ": 308,
      "ر": 309,
      "ز": 310,
      "س": 311,
      "ش": 312,
      "ص": 313,
      "ض": 314,
      "ط": 315,
      "ظ": 316,
      "ع": 317,
      "غ": 318,
      "ـ": 319,
      "ف": 320,
      "ق": 321,
      "ك": 322,
      "ل": 323,
      "م": 324,
      "ن": 325,
      "ه": 326,
      "و": 327,
      "ى": 328,
      "ي": 329,
      "٠": 330,
      "١": 331,
      "٢": 332,
      "٣": 333,
      "٤": 334,
      "٥": 335,
      "٦": 336,
      "٧": 337,
      "٨": 338,
      "٩": 339,
      "ٱ": 340,
      "ٲ": 341,
      "ٹ": 342,
      "پ": 343,
      "چ": 344,
      "ک": 345,
      "ڭ": 346,
      "گ": 347,
      "ں": 348,
      "ھ": 349,
      "ہ": 350,
      "ۃ": 351,
      "ۇ": 352,
      "ۋ": 353,
      "ی": 354,
      "ې": 355,
      "ے": 356,
      "ە": 357,
      "ܐ": 358,
      "ܗ": 359,
      "क": 360,
      "ख": 361,
      "ग": 362,
      "च": 363,
      "ज": 364,
      "ड": 365,
      "त": 366,
      "द": 367,
      "न": 368,
      "प": 369,
      "ब": 370,
      "भ": 371,
      "म": 372,
      "य": 373,
      "र": 374,
      "ल": 375,
      "व": 376,
      "श": 377,
      "स": 378,
      "ह": 379,
      "ा": 380,
      "ि": 381,
      "ी": 382,
      "ो": 383,
      "জ": 384,
      "ত": 385,
      "দ": 386,
      "ন": 387,
      "প": 388,
      "ব": 389,
      "ম": 390,
      "য": 391,
      "র": 392,
      "ল": 393,
      "শ": 394,
      "স": 395,
      "হ": 396,
      "া": 397,
      "ি": 398,
      "ে": 399,
      "ા": 400,
      "க": 401,
      "த": 402,
      "ப": 403,
      "ர": 404,
      "ல": 405,
      "ா": 406,
      "ி": 407,
      "ு": 408,
      "ை": 409,
      "ก": 410,
      "ข": 411,
      "ง": 412,
      "จ": 413,
      "ช": 414,
      "ต": 415,
      "ท": 416,
      "น": 417,
      "บ": 418,
      "ป": 419,
      "พ": 420,
      "ม": 421,
      "ย": 422,
      "ร": 423,
      "ล": 424,
      "ว": 425,
      "ส": 426,
      "อ": 427,
      "ะ": 428,
      "า": 429,
      "เ": 430,
      "แ": 431,
      "་": 432,
      "ა": 433,
      "ბ": 434,
      "გ": 435,
      "დ": 436,
      "ე": 437,
      "ვ": 438,
      "ზ": 439,
      "თ": 440,
      "ი": 441,
      "კ": 442,
      "ლ": 443,
      "მ": 444,
      "ნ": 445,
      "ო": 446,
      "პ": 447,
      "რ": 448,
      "ს": 449,
      "ტ": 450,
      "უ": 451,
      "ფ": 452,
      "ქ": 453,
      "ყ": 454,
      "შ": 455,
      "ჩ": 456,
      "ც": 457,
      "ძ": 458,
      "წ": 459,
      "ჭ": 460,
      "ხ": 461,
      "ჯ": 462,
      "ᄀ": 463,
      "ᄁ": 464,
      "ᄂ": 465,
      "ᄃ": 466,
      "ᄄ": 467,
      "ᄅ": 468,
      "ᄆ": 469,
      "ᄇ": 470,
      "ᄈ": 471,
      "ᄉ": 472,
      "ᄊ": 473,
      "ᄋ": 474,
      "ᄌ": 475,
      "ᄍ": 476,
      "ᄎ": 477,
      "ᄏ": 478,
      "ᄐ": 479,
      "ᄑ": 480,
      "ᄒ": 481,
      "ᅡ": 482,
      "ᅢ": 483,
      "ᅣ": 484,
      "ᅥ": 485,
      "ᅦ": 486,
      "ᅧ": 487,
      "ᅨ": 488,
      "ᅩ": 489,
      "ᅪ": 490,
      "ᅫ": 491,
      "ᅬ": 492,
      "ᅭ": 493,
      "ᅮ": 494,
      "ᅯ": 495,
      "ᅰ": 496,
      "ᅱ": 497,
      "ᅲ": 498,
      "ᅳ": 499,
      "ᅴ": 500,
      "ᅵ": 501,
      "ᆨ": 502,
      "ᆫ": 503,
      "ᆮ": 504,
      "ᆯ": 505,
      "ᆷ": 506,
      "ᆸ": 507,
      "ᆹ": 508,
      "ᆺ": 509,
      "ᆻ": 510,
      "ᆼ": 511,
      "ᆽ": 512,
      "ᆾ": 513,
      "ᇀ": 514,
      "ᇂ": 515,
      "ᵒ": 516,
      "‐": 517,
      "‑": 518,
      "‒": 519,
      "–": 520,
      "—": 521,
      "―": 522,
      "‘": 523,
      "’": 524,
      "‚": 525,
      "“": 526,
      "”": 527,
      "„": 528,
      "†": 529,
      "‡": 530,
      "•": 531,
      "…": 532,
      "‰": 533,
      "′": 534,
      "″": 535,
      "‹": 536,
      "›": 537,
      "⁄": 538,
      "₤": 539,
      "₩": 540,
      "€": 541,
      "₹": 542,
      "₽": 543,
      "℃": 544,
      "ℓ": 545,
      "№": 546,
      "™": 547,
      "⅓": 548,
      "⅔": 549,
      "⅛": 550,
      "←": 551,
      "↑": 552,
      "→": 553,
      "↓": 554,
      "↔": 555,
      "↗": 556,
      "↘": 557,
      "∆": 558,
      "−": 559,
      "∙": 560,
      "√": 561,
      "∞": 562,
      "∠": 563,
      "≈": 564,
      "≡": 565,
      "≤": 566,
      "≥": 567,
      "≪": 568,
      "≫": 569,
      "⋅": 570,
      "①": 571,
      "②": 572,
      "─": 573,
      "│": 574,
      "┌": 575,
      "└": 576,
      "▲": 577,
      "▼": 578,
      "◌": 579,
      "●": 580,
      "☉": 581,
      "♠": 582,
      "♣": 583,
      "♥": 584,
      "♦": 585,
      "♭": 586,
      "♯": 587,
      "、": 588,
      "。": 589,
      "〈": 590,
      "〉": 591,
      "《": 592,
      "》": 593,
      "「": 594,
      "」": 595,
      "〜": 596,
      "あ": 597,
      "い": 598,
      "う": 599,
      "え": 600,
      "お": 601,
      "か": 602,
      "き": 603,
      "く": 604,
      "け": 605,
      "こ": 606,
      "さ": 607,
      "し": 608,
      "す": 609,
      "せ": 610,
      "そ": 611,
      "た": 612,
      "ち": 613,
      "っ": 614,
      "つ": 615,
      "て": 616,
      "と": 617,
      "な": 618,
      "に": 619,
      "の": 620,
      "は": 621,
      "ひ": 622,
      "ふ": 623,
      "へ": 624,
      "ま": 625,
      "み": 626,
      "も": 627,
      "よ": 628,
      "ら": 629,
      "り": 630,
      "る": 631,
      "れ": 632,
      "ろ": 633,
      "を": 634,
      "ん": 635,
      "ァ": 636,
      "ア": 637,
      "ィ": 638,
      "イ": 639,
      "ウ": 640,
      "ェ": 641,
      "エ": 642,
      "ォ": 643,
      "オ": 644,
      "カ": 645,
      "キ": 646,
      "ク": 647,
      "ケ": 648,
      "コ": 649,
      "サ": 650,
      "シ": 651,
      "ス": 652,
      "セ": 653,
      "ソ": 654,
      "タ": 655,
      "チ": 656,
      "ッ": 657,
      "ツ": 658,
      "テ": 659,
      "ト": 660,
      "ナ": 661,
      "ニ": 662,
      "ノ": 663,
      "ハ": 664,
      "ヒ": 665,
      "フ": 666,
      "ヘ": 667,
      "ホ": 668,
      "マ": 669,
      "ミ": 670,
      "ム": 671,
      "メ": 672,
      "ャ": 673,
      "ュ": 674,
      "ョ": 675,
      "ラ": 676,
      "リ": 677,
      "ル": 678,
      "レ": 679,
      "ロ": 680,
      "ン": 681,
      "・": 682,
      "ー": 683,
      "一": 684,
      "三": 685,
      "上": 686,
      "下": 687,
      "不": 688,
      "世": 689,
      "东": 690,
      "中": 691,
      "主": 692,
      "乃": 693,
      "义": 694,
      "之": 695,
      "乙": 696,
      "九": 697,
      "乡": 698,
      "二": 699,
      "云": 700,
      "井": 701,
      "京": 702,
      "人": 703,
      "代": 704,
      "伉": 705,
      "会": 706,
      "作": 707,
      "你": 708,
      "來": 709,
      "依": 710,
      "信": 711,
      "們": 712,
      "像": 713,
      "儷": 714,
      "元": 715,
      "光": 716,
      "克": 717,
      "全": 718,
      "公": 719,
      "共": 720,
      "刀": 721,
      "分": 722,
      "切": 723,
      "別": 724,
      "利": 725,
      "前": 726,
      "加": 727,
      "勒": 728,
      "動": 729,
      "勝": 730,
      "化": 731,
      "北": 732,
      "区": 733,
      "區": 734,
      "千": 735,
      "华": 736,
      "南": 737,
      "博": 738,
      "卡": 739,
      "原": 740,
      "县": 741,
      "友": 742,
      "反": 743,
      "口": 744,
      "可": 745,
      "台": 746,
      "史": 747,
      "合": 748,
      "吉": 749,
      "同": 750,
      "君": 751,
      "和": 752,
      "咸": 753,
      "哈": 754,
      "唐": 755,
      "四": 756,
      "回": 757,
      "国": 758,
      "國": 759,
      "團": 760,
      "地": 761,
      "坂": 762,
      "城": 763,
      "域": 764,
      "基": 765,
      "場": 766,
      "塔": 767,
      "壁": 768,
      "夏": 769,
      "外": 770,
      "夜": 771,
      "大": 772,
      "天": 773,
      "太": 774,
      "女": 775,
      "始": 776,
      "嬴": 777,
      "子": 778,
      "孜": 779,
      "学": 780,
      "宁": 781,
      "安": 782,
      "宗": 783,
      "宮": 784,
      "家": 785,
      "富": 786,
      "寧": 787,
      "寶": 788,
      "小": 789,
      "少": 790,
      "尔": 791,
      "尙": 792,
      "尼": 793,
      "山": 794,
      "島": 795,
      "崎": 796,
      "川": 797,
      "州": 798,
      "工": 799,
      "巨": 800,
      "巴": 801,
      "市": 802,
      "布": 803,
      "帝": 804,
      "平": 805,
      "年": 806,
      "广": 807,
      "廣": 808,
      "延": 809,
      "建": 810,
      "式": 811,
      "弘": 812,
      "張": 813,
      "彝": 814,
      "影": 815,
      "徐": 816,
      "德": 817,
      "心": 818,
      "忠": 819,
      "恋": 820,
      "想": 821,
      "意": 822,
      "愛": 823,
      "慶": 824,
      "我": 825,
      "战": 826,
      "戦": 827,
      "手": 828,
      "托": 829,
      "拉": 830,
      "撃": 831,
      "改": 832,
      "攻": 833,
      "政": 834,
      "教": 835,
      "文": 836,
      "斗": 837,
      "斯": 838,
      "新": 839,
      "方": 840,
      "族": 841,
      "日": 842,
      "昌": 843,
      "明": 844,
      "春": 845,
      "昭": 846,
      "時": 847,
      "會": 848,
      "月": 849,
      "朝": 850,
      "木": 851,
      "本": 852,
      "李": 853,
      "村": 854,
      "来": 855,
      "東": 856,
      "松": 857,
      "林": 858,
      "査": 859,
      "榮": 860,
      "樣": 861,
      "歌": 862,
      "正": 863,
      "武": 864,
      "毛": 865,
      "民": 866,
      "気": 867,
      "氣": 868,
      "水": 869,
      "永": 870,
      "汉": 871,
      "汗": 872,
      "江": 873,
      "沙": 874,
      "河": 875,
      "治": 876,
      "泉": 877,
      "法": 878,
      "津": 879,
      "洪": 880,
      "浦": 881,
      "海": 882,
      "清": 883,
      "港": 884,
      "湖": 885,
      "源": 886,
      "漢": 887,
      "澤": 888,
      "火": 889,
      "热": 890,
      "爱": 891,
      "物": 892,
      "特": 893,
      "玉": 894,
      "王": 895,
      "班": 896,
      "瓦": 897,
      "甘": 898,
      "生": 899,
      "田": 900,
      "界": 901,
      "白": 902,
      "的": 903,
      "皇": 904,
      "県": 905,
      "知": 906,
      "石": 907,
      "社": 908,
      "神": 909,
      "福": 910,
      "科": 911,
      "空": 912,
      "立": 913,
      "第": 914,
      "紀": 915,
      "統": 916,
      "總": 917,
      "罗": 918,
      "羅": 919,
      "美": 920,
      "群": 921,
      "義": 922,
      "胡": 923,
      "自": 924,
      "良": 925,
      "花": 926,
      "芸": 927,
      "英": 928,
      "茂": 929,
      "草": 930,
      "華": 931,
      "萬": 932,
      "葉": 933,
      "藏": 934,
      "藤": 935,
      "蜜": 936,
      "行": 937,
      "術": 938,
      "表": 939,
      "西": 940,
      "言": 941,
      "記": 942,
      "誌": 943,
      "語": 944,
      "調": 945,
      "諾": 946,
      "诺": 947,
      "谷": 948,
      "起": 949,
      "越": 950,
      "身": 951,
      "軍": 952,
      "通": 953,
      "進": 954,
      "道": 955,
      "那": 956,
      "郎": 957,
      "郡": 958,
      "部": 959,
      "都": 960,
      "里": 961,
      "重": 962,
      "野": 963,
      "金": 964,
      "銀": 965,
      "鎭": 966,
      "铁": 967,
      "镇": 968,
      "長": 969,
      "門": 970,
      "门": 971,
      "防": 972,
      "阳": 973,
      "阿": 974,
      "陽": 975,
      "隆": 976,
      "青": 977,
      "韓": 978,
      "音": 979,
      "順": 980,
      "風": 981,
      "香": 982,
      "馬": 983,
      "马": 984,
      "高": 985,
      "魂": 986,
      "魯": 987,
      "麗": 988,
      "黄": 989,
      "龍": 990,
      "龙": 991,
      "﴾": 992,
      "﴿": 993,
      "ﺍ": 994,
      "ﺟ": 995,
      "！": 996,
      "（": 997,
      "）": 998,
      "，": 999,
      "－": 1000,
      "：": 1001,
      "ａ": 1002,
      "ｂ": 1003,
      "～": 1004,
      "##с": 1005,
      "##е": 1006,
      "##п": 1007,
      "##т": 1008,
      "##у": 1009,
      "##л": 1010,
      "##р": 1011,
      "##і": 1012,
      "##н": 1013,
      "##о": 1014,
      "##а": 1015,
      "##ы": 1016,
      "##i": 1017,
      "##g": 1018,
      "##e": 1019,
      "##n": 1020,
      "##s": 1021,
      "##t": 1022,
      "##a": 1023,
      "##к": 1024,
      "##и": 1025,
      "##д": 1026,
      "##в": 1027,
      "##м": 1028,
      "##з": 1029,
      "##ч": 1030,
      "##ю": 1031,
      "##ң": 1032,
      "##p": 1033,
      "##h": 1034,
      "##o": 1035,
      "##l": 1036,
      "##ғ": 1037,
      "##5": 1038,
      "##1": 1039,
      "##7": 1040,
      "##6": 1041,
      "##х": 1042,
      "##3": 1043,
      "##қ": 1044,
      "##ц": 1045,
      "##г": 1046,
      "##я": 1047,
      "##ұ": 1048,
      "##r": 1049,
      "##2": 1050,
      "##0": 1051,
      "##4": 1052,
      "##ж": 1053,
      "##ф": 1054,
      "##ь": 1055,
      "##k": 1056,
      "##ɑ": 1057,
      "##m": 1058,
      "##ɪ": 1059,
      "##v": 1060,
      "##z": 1061,
      "##9": 1062,
      "##б": 1063,
      "##ө": 1064,
      "##ә": 1065,
      "##u": 1066,
      "##x": 1067,
      "##y": 1068,
      "##b": 1069,
      "##ш": 1070,
      "##8": 1071,
      "##d": 1072,
      "##щ": 1073,
      "##c": 1074,
      "##ə": 1075,
      "##ү": 1076,
      "##q": 1077,
      "##w": 1078,
      "##°": 1079,
      "##э": 1080,
      "##ъ": 1081,
      "##j": 1082,
      "##һ": 1083,
      "##f": 1084,
      "##ı": 1085,
      "##ل": 1086,
      "##م": 1087,
      "##ش": 1088,
      "##ر": 1089,
      "##ق": 1090,
      "##ᅴ": 1091,
      "##ᄌ": 1092,
      "##ᅡ": 1093,
      "##ᆼ": 1094,
      "##ᅮ": 1095,
      "##ᄀ": 1096,
      "##ᅦ": 1097,
      "##ᄅ": 1098,
      "##ᅳ": 1099,
      "##ᆯ": 1100,
      "##ذ": 1101,
      "##ا": 1102,
      "##ß": 1103,
      "##ز": 1104,
      "##ʻ": 1105,
      "##ł": 1106,
      "##¬": 1107,
      "##ε": 1108,
      "##ω": 1109,
      "##ν": 1110,
      "##ᆫ": 1111,
      "##ᄉ": 1112,
      "##ᆷ": 1113,
      "##ج": 1114,
      "##د": 1115,
      "##ة": 1116,
      "##ح": 1117,
      "##ت": 1118,
      "##ه": 1119,
      "##س": 1120,
      "##ӊ": 1121,
      "##η": 1122,
      "##ρ": 1123,
      "##υ": 1124,
      "##τ": 1125,
      "##ο": 1126,
      "##ς": 1127,
      "##ك": 1128,
      "##ო": 1129,
      "##ს": 1130,
      "##ტ": 1131,
      "##უ": 1132,
      "##მ": 1133,
      "##ი": 1134,
      "##ض": 1135,
      "##ء": 1136,
      "##ع": 1137,
      "##ی": 1138,
      "##÷": 1139,
      "##ي": 1140,
      "##ن": 1141,
      "##×": 1142,
      "##و": 1143,
      "##−": 1144,
      "##ა": 1145,
      "##თ": 1146,
      "##დ": 1147,
      "##რ": 1148,
      "##გ": 1149,
      "##ɹ": 1150,
      "##æ": 1151,
      "##ŋ": 1152,
      "##♠": 1153,
      "##ص": 1154,
      "##ａ": 1155,
      "##ᅵ": 1156,
      "##ᄆ": 1157,
      "##ᄒ": 1158,
      "##œ": 1159,
      "##ᅧ": 1160,
      "##ɨ": 1161,
      "##ι": 1162,
      "##ζ": 1163,
      "##α": 1164,
      "##ø": 1165,
      "##£": 1166,
      "##י": 1167,
      "##ת": 1168,
      "##ᅩ": 1169,
      "##ᇀ": 1170,
      "##ᄋ": 1171,
      "##²": 1172,
      "##ᅣ": 1173,
      "##β": 1174,
      "##þ": 1175,
      "##ð": 1176,
      "##ᆨ": 1177,
      "##ᄃ": 1178,
      "##ᅬ": 1179,
      "##∞": 1180,
      "##º": 1181,
      "##ᅥ": 1182,
      "##غ": 1183,
      "##ス": 1184,
      "##ト": 1185,
      "##ب": 1186,
      "##լ": 1187,
      "##ա": 1188,
      "##վ": 1189,
      "##ե": 1190,
      "##ր": 1191,
      "##դ": 1192,
      "##ո": 1193,
      "##ւ": 1194,
      "##ӏ": 1195,
      "##ᅲ": 1196,
      "##ᄂ": 1197,
      "##ն": 1198,
      "##ف": 1199,
      "##մ": 1200,
      "##բ": 1201,
      "##կ": 1202,
      "##σ": 1203,
      "##μ": 1204,
      "##π": 1205,
      "##λ": 1206,
      "##ᆸ": 1207,
      "##ᅢ": 1208,
      "##ղ": 1209,
      "##ի": 1210,
      "##յ": 1211,
      "##φ": 1212,
      "##љ": 1213,
      "##ᄑ": 1214,
      "##ᅭ": 1215,
      "##ʼ": 1216,
      "##ᆮ": 1217,
      "##ى": 1218,
      "##ல": 1219,
      "##க": 1220,
      "##ை": 1221,
      "##ہ": 1222,
      "##ᄇ": 1223,
      "##ᄎ": 1224,
      "##↓": 1225,
      "##˚": 1226,
      "##ह": 1227,
      "##ल": 1228,
      "##ـ": 1229,
      "##θ": 1230,
      "##ท": 1231,
      "##ร": 1232,
      "##δ": 1233,
      "##γ": 1234,
      "##ʾ": 1235,
      "##ґ": 1236,
      "##ە": 1237,
      "##³": 1238,
      "##є": 1239,
      "##ط": 1240,
      "##の": 1241,
      "##হ": 1242,
      "##ম": 1243,
      "##ে": 1244,
      "##দ": 1245,
      "##ۋ": 1246,
      "##ロ": 1247,
      "##ウ": 1248,
      "##ᅯ": 1249,
      "##κ": 1250,
      "##٤": 1251,
      "##™": 1252,
      "##خ": 1253,
      "##ѣ": 1254,
      "##½": 1255,
      "##ᆽ": 1256,
      "##ҳ": 1257,
      "##њ": 1258,
      "##≫": 1259,
      "##ۇ": 1260,
      "##چ": 1261,
      "##ҡ": 1262,
      "##ʊ": 1263,
      "##ˌ": 1264,
      "##ʒ": 1265,
      "##ו": 1266,
      "##ם": 1267,
      "##ק": 1268,
      "##ב": 1269,
      "##צ": 1270,
      "##ה": 1271,
      "##מ": 1272,
      "##ל": 1273,
      "##ᆻ": 1274,
      "##ე": 1275,
      "##ფ": 1276,
      "##ː": 1277,
      "##ˤ": 1278,
      "##٥": 1279,
      "##ზ": 1280,
      "##კ": 1281,
      "##ᅫ": 1282,
      "##ᆺ": 1283,
      "##─": 1284,
      "##չ": 1285,
      "##ʃ": 1286,
      "##ˈ": 1287,
      "##წ": 1288,
      "##ბ": 1289,
      "##ლ": 1290,
      "##ث": 1291,
      "##ვ": 1292,
      "##א": 1293,
      "##ע": 1294,
      "##→": 1295,
      "##ᆹ": 1296,
      "##ᄁ": 1297,
      "##ʿ": 1298,
      "##գ": 1299,
      "##レ": 1300,
      "##ン": 1301,
      "##đ": 1302,
      "##∙": 1303,
      "##ܗ": 1304,
      "##ܐ": 1305,
      "##ћ": 1306,
      "##↑": 1307,
      "##χ": 1308,
      "##ռ": 1309,
      "##ک": 1310,
      "##ר": 1311,
      "##ɔ": 1312,
      "##տ": 1313,
      "##ჯ": 1314,
      "##ნ": 1315,
      "##ظ": 1316,
      "##ხ": 1317,
      "##ᅪ": 1318,
      "##シ": 1319,
      "##カ": 1320,
      "##შ": 1321,
      "##№": 1322,
      "##٣": 1323,
      "##ג": 1324,
      "##ら": 1325,
      "##す": 1326,
      "##く": 1327,
      "##ち": 1328,
      "##ɾ": 1329,
      "##ɣ": 1330,
      "##ɫ": 1331,
      "##フ": 1332,
      "##া": 1333,
      "##র": 1334,
      "##ত": 1335,
      "##ク": 1336,
      "##ニ": 1337,
      "##ד": 1338,
      "##ψ": 1339,
      "##よ": 1340,
      "##う": 1341,
      "##±": 1342,
      "##る": 1343,
      "##ɛ": 1344,
      "##ふ": 1345,
      "##つ": 1346,
      "##≤": 1347,
      "##پ": 1348,
      "##ѧ": 1349,
      "##は": 1350,
      "##い": 1351,
      "##た": 1352,
      "##ں": 1353,
      "##٠": 1354,
      "##น": 1355,
      "##เ": 1356,
      "##อ": 1357,
      "##®": 1358,
      "##ҷ": 1359,
      "##ٱ": 1360,
      "##ۃ": 1361,
      "##ᅨ": 1362,
      "##ձ": 1363,
      "##ᄐ": 1364,
      "##ミ": 1365,
      "##リ": 1366,
      "##オ": 1367,
      "##ᄊ": 1368,
      "##٨": 1369,
      "##ァ": 1370,
      "##ホ": 1371,
      "##ा": 1372,
      "##ช": 1373,
      "##ม": 1374,
      "##⁄": 1375,
      "##گ": 1376,
      "##ি": 1377,
      "##כ": 1378,
      "##ח": 1379,
      "##℃": 1380,
      "##ք": 1381,
      "##न": 1382,
      "##द": 1383,
      "##र": 1384,
      "##श": 1385,
      "##ख": 1386,
      "##ん": 1387,
      "##ყ": 1388,
      "##য": 1389,
      "##म": 1390,
      "##ी": 1391,
      "##շ": 1392,
      "##ס": 1393,
      "##タ": 1394,
      "##ー": 1395,
      "##♦": 1396,
      "##ন": 1397,
      "##ল": 1398,
      "##ט": 1399,
      "##て": 1400,
      "##٦": 1401,
      "##ि": 1402,
      "##य": 1403,
      "##ム": 1404,
      "##ま": 1405,
      "##し": 1406,
      "##ッ": 1407,
      "##マ": 1408,
      "##キ": 1409,
      "##ル": 1410,
      "##チ": 1411,
      "##ナ": 1412,
      "##พ": 1413,
      "##า": 1414,
      "##ս": 1415,
      "##え": 1416,
      "##≈": 1417,
      "##ן": 1418,
      "##ѕ": 1419,
      "##ҫ": 1420,
      "##ʱ": 1421,
      "##ろ": 1422,
      "##ャ": 1423,
      "##ब": 1424,
      "##¼": 1425,
      "##ʰ": 1426,
      "##נ": 1427,
      "##か": 1428,
      "##り": 1429,
      "##ᄄ": 1430,
      "##ש": 1431,
      "##¹": 1432,
      "##פ": 1433,
      "##～": 1434,
      "##ʔ": 1435,
      "##ᄍ": 1436,
      "##∆": 1437,
      "##ᄈ": 1438,
      "##こ": 1439,
      "##と": 1440,
      "##ア": 1441,
      "##ʁ": 1442,
      "##џ": 1443,
      "##♥": 1444,
      "##っ": 1445,
      "##ҟ": 1446,
      "##コ": 1447,
      "##ɯ": 1448,
      "##ʲ": 1449,
      "##ก": 1450,
      "##ے": 1451,
      "##ɡ": 1452,
      "##ィ": 1453,
      "##ラ": 1454,
      "##¢": 1455,
      "##ڭ": 1456,
      "##せ": 1457,
      "##ા": 1458,
      "##स": 1459,
      "##も": 1460,
      "##ҥ": 1461,
      "##٩": 1462,
      "##◌": 1463,
      "##み": 1464,
      "##↔": 1465,
      "##٢": 1466,
      "##セ": 1467,
      "##イ": 1468,
      "##ᄏ": 1469,
      "##¥": 1470,
      "##ヘ": 1471,
      "##խ": 1472,
      "##հ": 1473,
      "##ज": 1474,
      "##क": 1475,
      "##٧": 1476,
      "##き": 1477,
      "##ェ": 1478,
      "##ツ": 1479,
      "##ξ": 1480,
      "##ᆾ": 1481,
      "##ヒ": 1482,
      "##ј": 1483,
      "##≥": 1484,
      "##ქ": 1485,
      "##˝": 1486,
      "##ٹ": 1487,
      "##ᵒ": 1488,
      "##զ": 1489,
      "##€": 1490,
      "##ग": 1491,
      "##ᅱ": 1492,
      "##←": 1493,
      "##´": 1494,
      "##な": 1495,
      "##ɟ": 1496,
      "##ɵ": 1497,
      "##ց": 1498,
      "##պ": 1499,
      "##れ": 1500,
      "##ュ": 1501,
      "##ो": 1502,
      "##ƣ": 1503,
      "##ې": 1504,
      "##♣": 1505,
      "##ᇂ": 1506,
      "##ħ": 1507,
      "##ड": 1508,
      "##ძ": 1509,
      "##に": 1510,
      "##ҙ": 1511,
      "##ர": 1512,
      "##ჭ": 1513,
      "##テ": 1514,
      "##ᅰ": 1515,
      "##җ": 1516,
      "##ย": 1517,
      "##ล": 1518,
      "##µ": 1519,
      "##त": 1520,
      "##ノ": 1521,
      "##ு": 1522,
      "##ც": 1523,
      "##ʌ": 1524,
      "##व": 1525,
      "##ҝ": 1526,
      "##メ": 1527,
      "##শ": 1528,
      "##ھ": 1529,
      "##জ": 1530,
      "##΄": 1531,
      "##ต": 1532,
      "##ソ": 1533,
      "##ி": 1534,
      "##ப": 1535,
      "##प": 1536,
      "##₽": 1537,
      "##ส": 1538,
      "##ハ": 1539,
      "##პ": 1540,
      "##ჩ": 1541,
      "##¤": 1542,
      "##স": 1543,
      "##ะ": 1544,
      "##թ": 1545,
      "##へ": 1546,
      "##ٲ": 1547,
      "##ջ": 1548,
      "##あ": 1549,
      "##บ": 1550,
      "##ง": 1551,
      "##ว": 1552,
      "##จ": 1553,
      "##⋅": 1554,
      "##և": 1555,
      "##ɲ": 1556,
      "##١": 1557,
      "##お": 1558,
      "##ʕ": 1559,
      "##ケ": 1560,
      "##☉": 1561,
      "##է": 1562,
      "##ɴ": 1563,
      "##แ": 1564,
      "##ɐ": 1565,
      "##ץ": 1566,
      "##ா": 1567,
      "##≡": 1568,
      "##ォ": 1569,
      "##け": 1570,
      "##த": 1571,
      "##ђ": 1572,
      "##ℓ": 1573,
      "##ョ": 1574,
      "##ԥ": 1575,
      "##そ": 1576,
      "##さ": 1577,
      "##エ": 1578,
      "##ব": 1579,
      "##ひ": 1580,
      "##च": 1581,
      "##প": 1582,
      "##サ": 1583,
      "##ข": 1584,
      "##ป": 1585,
      "##ﺍ": 1586,
      "##ʙ": 1587,
      "##ｂ": 1588,
      "##¾": 1589,
      "##ан": 1590,
      "##ар": 1591,
      "##ын": 1592,
      "##ер": 1593,
      "##ал": 1594,
      "##ен": 1595,
      "##ды": 1596,
      "##he": 1597,
      "##ас": 1598,
      "##ін": 1599,
      "##да": 1600,
      "##ат": 1601,
      "the": 1602,
      "##ыл": 1603,
      "##ст": 1604,
      "##er": 1605,
      "##ет": 1606,
      "##ол": 1607,
      "##in": 1608,
      "##ғы": 1609,
      "##ек": 1610,
      "##ың": 1611,
      "##on": 1612,
      "##ық": 1613,
      "##ді": 1614,
      "##ed": 1615,
      "##ия": 1616,
      "##аи": 1617,
      "##ел": 1618,
      "##nd": 1619,
      "##ес": 1620,
      "##at": 1621,
      "##es": 1622,
      "##or": 1623,
      "##де": 1624,
      "##ам": 1625,
      "##ақ": 1626,
      "##ar": 1627,
      "##en": 1628,
      "##ор": 1629,
      "in": 1630,
      "##гі": 1631,
      "##ем": 1632,
      "##лі": 1633,
      "##ір": 1634,
      "##ұр": 1635,
      "##an": 1636,
      "##al": 1637,
      "of": 1638,
      "##ында": 1639,
      "##еи": 1640,
      "##он": 1641,
      "19": 1642,
      "##ыр": 1643,
      "##аз": 1644,
      "##as": 1645,
      "##it": 1646,
      "##ыс": 1647,
      "##ған": 1648,
      "##ing": 1649,
      "##ин": 1650,
      "##is": 1651,
      "##ің": 1652,
      "and": 1653,
      "##дар": 1654,
      "##не": 1655,
      "ал": 1656,
      "##та": 1657,
      "##ом": 1658,
      "##ының": 1659,
      "to": 1660,
      "20": 1661,
      "##дер": 1662,
      "##ic": 1663,
      "##ті": 1664,
      "##ов": 1665,
      "##ог": 1666,
      "##ик": 1667,
      "##ои": 1668,
      "##ou": 1669,
      "жыл": 1670,
      "##ым": 1671,
      "ор": 1672,
      "##тер": 1673,
      "жә": 1674,
      "##ау": 1675,
      "##ion": 1676,
      "сан": 1677,
      "##re": 1678,
      "және": 1679,
      "өз": 1680,
      "##ты": 1681,
      "бол": 1682,
      "##ит": 1683,
      "ау": 1684,
      "##іл": 1685,
      "##ады": 1686,
      "су": 1687,
      "##інің": 1688,
      "##аб": 1689,
      "##om": 1690,
      "##дан": 1691,
      "##тар": 1692,
      "##il": 1693,
      "##інде": 1694,
      "##el": 1695,
      "##ып": 1696,
      "құр": 1697,
      "##ына": 1698,
      "##ша": 1699,
      "кө": 1700,
      "##ға": 1701,
      "th": 1702,
      "##ген": 1703,
      "##алық": 1704,
      "##ск": 1705,
      "##те": 1706,
      "##асы": 1707,
      "##ec": 1708,
      "##ent": 1709,
      "санат": 1710,
      "200": 1711,
      "рес": 1712,
      "##мет": 1713,
      "##ағ": 1714,
      "қар": 1715,
      "бас": 1716,
      "##ил": 1717,
      "##st": 1718,
      "##ары": 1719,
      "##ac": 1720,
      "мә": 1721,
      "де": 1722,
      "ар": 1723,
      "пр": 1724,
      "тү": 1725,
      "##дың": 1726,
      "##am": 1727,
      "өзен": 1728,
      "##ad": 1729,
      "##ім": 1730,
      "##et": 1731,
      "##ур": 1732,
      "##ыз": 1733,
      "##ro": 1734,
      "қаз": 1735,
      "##аң": 1736,
      "##ос": 1737,
      "##қан": 1738,
      "##нал": 1739,
      "об": 1740,
      "##ұл": 1741,
      "##ез": 1742,
      "##им": 1743,
      "бір": 1744,
      "on": 1745,
      "was": 1746,
      "##ur": 1747,
      "##ol": 1748,
      "st": 1749,
      "бои": 1750,
      "##ынша": 1751,
      "##ге": 1752,
      "тұр": 1753,
      "##ның": 1754,
      "##дам": 1755,
      "##ии": 1756,
      "##le": 1757,
      "##ап": 1758,
      "##ік": 1759,
      "for": 1760,
      "##сы": 1761,
      "##ir": 1762,
      "##асында": 1763,
      "боиынша": 1764,
      "##ly": 1765,
      "##ны": 1766,
      "##ак": 1767,
      "мен": 1768,
      "##ең": 1769,
      "##ул": 1770,
      "##шыл": 1771,
      "адам": 1772,
      "##стан": 1773,
      "##ші": 1774,
      "##сі": 1775,
      "##қы": 1776,
      "##іне": 1777,
      "##ция": 1778,
      "қал": 1779,
      "##id": 1780,
      "as": 1781,
      "##iv": 1782,
      "##ter": 1783,
      "##ig": 1784,
      "##ot": 1785,
      "##ед": 1786,
      "##лық": 1787,
      "мәлі": 1788,
      "##im": 1789,
      "жер": 1790,
      "##өз": 1791,
      "##од": 1792,
      "жылы": 1793,
      "қазақ": 1794,
      "ком": 1795,
      "мәлімет": 1796,
      "##ру": 1797,
      "##мен": 1798,
      "##тық": 1799,
      "##ра": 1800,
      "##ие": 1801,
      "##елер": 1802,
      "re": 1803,
      "ко": 1804,
      "##ерек": 1805,
      "##лар": 1806,
      "##ut": 1807,
      "##ест": 1808,
      "##ығы": 1809,
      "со": 1810,
      "##ay": 1811,
      "##ынан": 1812,
      "##ow": 1813,
      "##лек": 1814,
      "##ысы": 1815,
      "ин": 1816,
      "##ith": 1817,
      "##тал": 1818,
      "##дық": 1819,
      "be": 1820,
      "al": 1821,
      "##ист": 1822,
      "##арт": 1823,
      "ақ": 1824,
      "##еді": 1825,
      "##ation": 1826,
      "##ир": 1827,
      "##із": 1828,
      "мәліметтер": 1829,
      "жү": 1830,
      "with": 1831,
      "##ағы": 1832,
      "##лік": 1833,
      "дерек": 1834,
      "км": 1835,
      "##қа": 1836,
      "201": 1837,
      "##00": 1838,
      "##ері": 1839,
      "##ыст": 1840,
      "that": 1841,
      "##өздер": 1842,
      "##ент": 1843,
      "орнал": 1844,
      "орналас": 1845,
      "##em": 1846,
      "##уы": 1847,
      "wh": 1848,
      "##ғын": 1849,
      "it": 1850,
      "##тік": 1851,
      "##ев": 1852,
      "##ers": 1853,
      "по": 1854,
      "##us": 1855,
      "an": 1856,
      "бө": 1857,
      "is": 1858,
      "дерекк": 1859,
      "con": 1860,
      "дереккөздер": 1861,
      "at": 1862,
      "fr": 1863,
      "by": 1864,
      "199": 1865,
      "##ая": 1866,
      "##еиін": 1867,
      "ресеи": 1868,
      "he": 1869,
      "##est": 1870,
      "##ch": 1871,
      "##уб": 1872,
      "##ран": 1873,
      "бар": 1874,
      "ат": 1875,
      "##но": 1876,
      "##атын": 1877,
      "кү": 1878,
      "##ce": 1879,
      "##ag": 1880,
      "##аст": 1881,
      "##дің": 1882,
      "##алар": 1883,
      "##ив": 1884,
      "##ығ": 1885,
      "##их": 1886,
      "##th": 1887,
      "##ul": 1888,
      "аудан": 1889,
      "##ав": 1890,
      "18": 1891,
      "##ver": 1892,
      "##ерт": 1893,
      "деп": 1894,
      "сыр": 1895,
      "##оп": 1896,
      "жас": 1897,
      "құрам": 1898,
      "не": 1899,
      "##дері": 1900,
      "##тем": 1901,
      "##ap": 1902,
      "##ун": 1903,
      "##os": 1904,
      "ch": 1905,
      "##кен": 1906,
      "коды": 1907,
      "от": 1908,
      "##and": 1909,
      "обл": 1910,
      "##ден": 1911,
      "##ика": 1912,
      "жат": 1913,
      "##олог": 1914,
      "##ain": 1915,
      "бұл": 1916,
      "##лан": 1917,
      "##кі": 1918,
      "##аиды": 1919,
      "сал": 1920,
      "##her": 1921,
      "мем": 1922,
      "кез": 1923,
      "##um": 1924,
      "кел": 1925,
      "##тқы": 1926,
      "com": 1927,
      "his": 1928,
      "ст": 1929,
      "мемлек": 1930,
      "түр": 1931,
      "##av": 1932,
      "мемлекет": 1933,
      "##дік": 1934,
      "##темелер": 1935,
      "сіл": 1936,
      "##есі": 1937,
      "##ис": 1938,
      "##ару": 1939,
      "##аш": 1940,
      "##ындағы": 1941,
      "кат": 1942,
      "құ": 1943,
      "ер": 1944,
      "##из": 1945,
      "ел": 1946,
      "ре": 1947,
      "тұрғын": 1948,
      "##иялық": 1949,
      "жо": 1950,
      "сыртқы": 1951,
      "тар": 1952,
      "##дағы": 1953,
      "сілтемелер": 1954,
      "ұл": 1955,
      "##дарының": 1956,
      "комм": 1957,
      "##от": 1958,
      "##ель": 1959,
      "##дары": 1960,
      "##ок": 1961,
      "##гіз": 1962,
      "орналасқан": 1963,
      "##ич": 1964,
      "жал": 1965,
      "қазақстан": 1966,
      "##od": 1967,
      "##ct": 1968,
      "##ид": 1969,
      "қыз": 1970,
      "pro": 1971,
      "de": 1972,
      "##алог": 1973,
      "su": 1974,
      "##алы": 1975,
      "на": 1976,
      "##об": 1977,
      "##даи": 1978,
      "##ess": 1979,
      "from": 1980,
      "##ип": 1981,
      "se": 1982,
      "##ег": 1983,
      "10": 1984,
      "каталог": 1985,
      "##тың": 1986,
      "##ут": 1987,
      "##індегі": 1988,
      "##тор": 1989,
      "##ылым": 1990,
      "##оз": 1991,
      "мек": 1992,
      "жаң": 1993,
      "ex": 1994,
      "үш": 1995,
      "##ab": 1996,
      "ок": 1997,
      "тө": 1998,
      "эк": 1999,
      "##лігі": 2000,
      "##ого": 2001,
      "##ri": 2002,
      "зерт": 2003,
      "##ist": 2004,
      "##ect": 2005,
      "##икалық": 2006,
      "##se": 2007,
      "алаб": 2008,
      "##рі": 2009,
      "##un": 2010,
      "ол": 2011,
      "ne": 2012,
      "қаи": 2013,
      "ан": 2014,
      "##лер": 2015,
      "##еу": 2016,
      "сол": 2017,
      "халық": 2018,
      "##op": 2019,
      "бер": 2020,
      "таб": 2021,
      "##ся": 2022,
      "##ill": 2023,
      "шығ": 2024,
      "жағ": 2025,
      "##лім": 2026,
      "##дығы": 2027,
      "##аның": 2028,
      "sh": 2029,
      "##мір": 2030,
      "ar": 2031,
      "##ere": 2032,
      "аум": 2033,
      "##асындағы": 2034,
      "жаңа": 2035,
      "##ies": 2036,
      "##oc": 2037,
      "##аль": 2038,
      "##igh": 2039,
      "##ard": 2040,
      "11": 2041,
      "15": 2042,
      "##ыт": 2043,
      "көр": 2044,
      "оның": 2045,
      "ауыл": 2046,
      "қол": 2047,
      "деиін": 2048,
      "фран": 2049,
      "##if": 2050,
      "##art": 2051,
      "##ион": 2052,
      "##ak": 2053,
      "##ашыл": 2054,
      "##ман": 2055,
      "мемлекеттік": 2056,
      "or": 2057,
      "##all": 2058,
      "##ber": 2059,
      "##ад": 2060,
      "##ld": 2061,
      "қат": 2062,
      "баи": 2063,
      "un": 2064,
      "жұ": 2065,
      "##ate": 2066,
      "pl": 2067,
      "шам": 2068,
      "жар": 2069,
      "ең": 2070,
      "##ort": 2071,
      "##раф": 2072,
      "le": 2073,
      "##иц": 2074,
      "те": 2075,
      "##тан": 2076,
      "##ant": 2077,
      "pr": 2078,
      "км²": 2079,
      "198": 2080,
      "##етін": 2081,
      "##ка": 2082,
      "саи": 2083,
      "##ich": 2084,
      "were": 2085,
      "##стік": 2086,
      "##пы": 2087,
      "##аты": 2088,
      "мұ": 2089,
      "##pp": 2090,
      "##шы": 2091,
      "##qu": 2092,
      "##аған": 2093,
      "sp": 2094,
      "облысы": 2095,
      "сон": 2096,
      "##ымен": 2097,
      "##едер": 2098,
      "гз": 2099,
      "##оқ": 2100,
      "ту": 2101,
      "##ud": 2102,
      "болып": 2103,
      "##асының": 2104,
      "бел": 2105,
      "да": 2106,
      "ге": 2107,
      "жалпы": 2108,
      "##іп": 2109,
      "##тары": 2110,
      "үшін": 2111,
      "##аруашыл": 2112,
      "##gh": 2113,
      "өн": 2114,
      "12": 2115,
      "##ie": 2116,
      "ұлт": 2117,
      "##ong": 2118,
      "қор": 2119,
      "##ограф": 2120,
      "tr": 2121,
      "саны": 2122,
      "##иясы": 2123,
      "##тү": 2124,
      "##ity": 2125,
      "тұрғындарының": 2126,
      "жоғ": 2127,
      "##ated": 2128,
      "##ive": 2129,
      "##убл": 2130,
      "мү": 2131,
      "en": 2132,
      "федер": 2133,
      "##сп": 2134,
      "дә": 2135,
      "жет": 2136,
      "тә": 2137,
      "жаз": 2138,
      "олар": 2139,
      "##амент": 2140,
      "197": 2141,
      "қос": 2142,
      "##есе": 2143,
      "инд": 2144,
      "кең": 2145,
      "тіз": 2146,
      "##оном": 2147,
      "##ame": 2148,
      "17": 2149,
      "##ке": 2150,
      "жұм": 2151,
      "##ах": 2152,
      "шығар": 2153,
      "##our": 2154,
      "##ore": 2155,
      "болды": 2156,
      "##бек": 2157,
      "##інен": 2158,
      "##ше": 2159,
      "тұ": 2160,
      "##нің": 2161,
      "тер": 2162,
      "негіз": 2163,
      "##алды": 2164,
      "##еп": 2165,
      "респ": 2166,
      "had": 2167,
      "департ": 2168,
      "##іс": 2169,
      "##ack": 2170,
      "##ылған": 2171,
      "республ": 2172,
      "##гер": 2173,
      "##тап": 2174,
      "әл": 2175,
      "##ияс": 2176,
      "ұлттық": 2177,
      "ныс": 2178,
      "нысан": 2179,
      "адамды": 2180,
      "##ast": 2181,
      "департамент": 2182,
      "##ств": 2183,
      "##оль": 2184,
      "болған": 2185,
      "қо": 2186,
      "##ov": 2187,
      "##ge": 2188,
      "##ip": 2189,
      "##дегі": 2190,
      "196": 2191,
      "коммун": 2192,
      "##еб": 2193,
      "аи": 2194,
      "паи": 2195,
      "##ля": 2196,
      "##ear": 2197,
      "мекен": 2198,
      "окру": 2199,
      "би": 2200,
      "зертте": 2201,
      "нем": 2202,
      "2009": 2203,
      "##ту": 2204,
      "##тр": 2205,
      "көп": 2206,
      "алып": 2207,
      "ои": 2208,
      "are": 2209,
      "##астыр": 2210,
      "##кін": 2211,
      "which": 2212,
      "рет": 2213,
      "##ough": 2214,
      "##са": 2215,
      "##ell": 2216,
      "##тері": 2217,
      "мин": 2218,
      "жылғы": 2219,
      "##ment": 2220,
      "13": 2221,
      "14": 2222,
      "##иль": 2223,
      "құраиды": 2224,
      "##ian": 2225,
      "not": 2226,
      "##ia": 2227,
      "##ial": 2228,
      "##екті": 2229,
      "##еск": 2230,
      "индек": 2231,
      "из": 2232,
      "##ми": 2233,
      "әр": 2234,
      "16": 2235,
      "af": 2236,
      "##лен": 2237,
      "##стит": 2238,
      "кл": 2239,
      "##ақты": 2240,
      "құрамына": 2241,
      "##pt": 2242,
      "аз": 2243,
      "##ound": 2244,
      "2006": 2245,
      "##ost": 2246,
      "##ight": 2247,
      "##қар": 2248,
      "ав": 2249,
      "##ост": 2250,
      "cl": 2251,
      "##ация": 2252,
      "194": 2253,
      "##аңыз": 2254,
      "бал": 2255,
      "ұз": 2256,
      "##тің": 2257,
      "##асты": 2258,
      "аим": 2259,
      "##түстік": 2260,
      "wor": 2261,
      "##тау": 2262,
      "елді": 2263,
      "##ine": 2264,
      "әк": 2265,
      "##gc": 2266,
      "алабы": 2267,
      "жатқан": 2268,
      "##урст": 2269,
      "##out": 2270,
      "sc": 2271,
      "rec": 2272,
      "##ақтар": 2273,
      "##ust": 2274,
      "##пар": 2275,
      "##ылады": 2276,
      "іш": 2277,
      "##уз": 2278,
      "whe": 2279,
      "ес": 2280,
      "кар": 2281,
      "пар": 2282,
      "##ary": 2283,
      "тур": 2284,
      "##ных": 2285,
      "##иет": 2286,
      "сә": 2287,
      "баз": 2288,
      "ресурст": 2289,
      "республик": 2290,
      "##на": 2291,
      "кеиін": 2292,
      "пер": 2293,
      "##oun": 2294,
      "##естр": 2295,
      "кон": 2296,
      "br": 2297,
      "инстит": 2298,
      "##дал": 2299,
      "##лы": 2300,
      "алм": 2301,
      "ғылым": 2302,
      "##иг": 2303,
      "##ана": 2304,
      "ad": 2305,
      "##cc": 2306,
      "##ысты": 2307,
      "қызмет": 2308,
      "жол": 2309,
      "her": 2310,
      "##og": 2311,
      "##ical": 2312,
      "195": 2313,
      "ене": 2314,
      "##ология": 2315,
      "тағы": 2316,
      "##өн": 2317,
      "##шаруашыл": 2318,
      "енеді": 2319,
      "##тен": 2320,
      "мар": 2321,
      "қаб": 2322,
      "##iz": 2323,
      "франция": 2324,
      "өте": 2325,
      "мәліметтері": 2326,
      "үл": 2327,
      "##ave": 2328,
      "болады": 2329,
      "сушаруашыл": 2330,
      "comp": 2331,
      "##ро": 2332,
      "тіл": 2333,
      "##act": 2334,
      "кі": 2335,
      "реестр": 2336,
      "inc": 2337,
      "дем": 2338,
      "жан": 2339,
      "##ілім": 2340,
      "##иғ": 2341,
      "объ": 2342,
      "but": 2343,
      "##тті": 2344,
      "оң": 2345,
      "fir": 2346,
      "##нои": 2347,
      "##аж": 2348,
      "##еш": 2349,
      "деген": 2350,
      "##ож": 2351,
      "бат": 2352,
      "өл": 2353,
      "##аг": 2354,
      "##ord": 2355,
      "аумағы": 2356,
      "##ther": 2357,
      "##тын": 2358,
      "##ыш": 2359,
      "##so": 2360,
      "##тел": 2361,
      "немесе": 2362,
      "this": 2363,
      "##рит": 2364,
      "##ли": 2365,
      "тарих": 2366,
      "ab": 2367,
      "am": 2368,
      "##қыл": 2369,
      "ос": 2370,
      "##ould": 2371,
      "пол": 2372,
      "##шілік": 2373,
      "##імен": 2374,
      "gr": 2375,
      "##емп": 2376,
      "##улер": 2377,
      "##ous": 2378,
      "cont": 2379,
      "осы": 2380,
      "tw": 2381,
      "том": 2382,
      "int": 2383,
      "##ина": 2384,
      "193": 2385,
      "##гінің": 2386,
      "new": 2387,
      "##итет": 2388,
      "##ания": 2389,
      "##ологиялық": 2390,
      "##дес": 2391,
      "##ғаш": 2392,
      "##ұлды": 2393,
      "##ions": 2394,
      "after": 2395,
      "жөн": 2396,
      "шамасында": 2397,
      "first": 2398,
      "##ure": 2399,
      "базасындағы": 2400,
      "оиын": 2401,
      "орын": 2402,
      "##ре": 2403,
      "##ют": 2404,
      "##ода": 2405,
      "##ish": 2406,
      "##инал": 2407,
      "##ұлдыз": 2408,
      "res": 2409,
      "##уға": 2410,
      "эконом": 2411,
      "бөл": 2412,
      "mar": 2413,
      "##ue": 2414,
      "its": 2415,
      "##ғыл": 2416,
      "##алау": 2417,
      "баилан": 2418,
      "##ub": 2419,
      "##ус": 2420,
      "##ign": 2421,
      "##per": 2422,
      "өзендері": 2423,
      "##ok": 2424,
      "man": 2425,
      "жел": 2426,
      "all": 2427,
      "сп": 2428,
      "##ные": 2429,
      "ұзын": 2430,
      "про": 2431,
      "он": 2432,
      "табиғ": 2433,
      "кр": 2434,
      "ата": 2435,
      "өс": 2436,
      "their": 2437,
      "go": 2438,
      "өң": 2439,
      "one": 2440,
      "##лері": 2441,
      "##иб": 2442,
      "##ase": 2443,
      "##ныи": 2444,
      "##унал": 2445,
      "пош": 2446,
      "ас": 2447,
      "департаментінің": 2448,
      "##есс": 2449,
      "##баи": 2450,
      "##ome": 2451,
      "##ическ": 2452,
      "тау": 2453,
      "коммунал": 2454,
      "##ass": 2455,
      "сү": 2456,
      "per": 2457,
      "белгі": 2458,
      "us": 2459,
      "күн": 2460,
      "жатады": 2461,
      "##age": 2462,
      "she": 2463,
      "##бол": 2464,
      "##ұс": 2465,
      "##шысы": 2466,
      "қарасты": 2467,
      "бөлігі": 2468,
      "бұ": 2469,
      "өт": 2470,
      "екі": 2471,
      "коммуналары": 2472,
      "гер": 2473,
      "аст": 2474,
      "қараңыз": 2475,
      "##пен": 2476,
      "##ire": 2477,
      "жүр": 2478,
      "also": 2479,
      "##ти": 2480,
      "объекті": 2481,
      "##ond": 2482,
      "tim": 2483,
      "cr": 2484,
      "##истр": 2485,
      "жоғар": 2486,
      "мекендері": 2487,
      "оқ": 2488,
      "rel": 2489,
      "##ater": 2490,
      "##oll": 2491,
      "##гін": 2492,
      "##ide": 2493,
      "ауданы": 2494,
      "стат": 2495,
      "ser": 2496,
      "##ного": 2497,
      "##ност": 2498,
      "##аттар": 2499,
      "сағ": 2500,
      "##ада": 2501,
      "##иел": 2502,
      "##ans": 2503,
      "##orm": 2504,
      "зерттеулер": 2505,
      "##тір": 2506,
      "##du": 2507,
      "part": 2508,
      "даи": 2509,
      "св": 2510,
      "##сті": 2511,
      "##20": 2512,
      "ресми": 2513,
      "тығы": 2514,
      "##лектр": 2515,
      "ag": 2516,
      "туған": 2517,
      "##өл": 2518,
      "был": 2519,
      "fe": 2520,
      "түс": 2521,
      "төмен": 2522,
      "тығыз": 2523,
      "##ile": 2524,
      "##асына": 2525,
      "жақ": 2526,
      "пошта": 2527,
      "##торы": 2528,
      "des": 2529,
      "жоғарғы": 2530,
      "##ения": 2531,
      "they": 2532,
      "орналасуы": 2533,
      "##аттық": 2534,
      "ngc": 2535,
      "##ылды": 2536,
      "##ылыс": 2537,
      "two": 2538,
      "әкім": 2539,
      "электр": 2540,
      "25": 2541,
      "нө": 2542,
      "comm": 2543,
      "кір": 2544,
      "гор": 2545,
      "app": 2546,
      "жылдан": 2547,
      "dis": 2548,
      "##анд": 2549,
      "индексі": 2550,
      "өмір": 2551,
      "##hed": 2552,
      "тең": 2553,
      "##ери": 2554,
      "демограф": 2555,
      "##алған": 2556,
      "орт": 2557,
      "##ence": 2558,
      "##то": 2559,
      "##ff": 2560,
      "нөмір": 2561,
      "00": 2562,
      "қолдан": 2563,
      "have": 2564,
      "тізім": 2565,
      "##дастыр": 2566,
      "##ва": 2567,
      "ұзындығы": 2568,
      "##ілді": 2569,
      "##деи": 2570,
      "##ба": 2571,
      "##сет": 2572,
      "we": 2573,
      "##ма": 2574,
      "##алары": 2575,
      "шығы": 2576,
      "2010": 2577,
      "##ally": 2578,
      "who": 2579,
      "##pl": 2580,
      "bec": 2581,
      "##end": 2582,
      "арнал": 2583,
      "ем": 2584,
      "статист": 2585,
      "##дардың": 2586,
      "##ется": 2587,
      "жұмыс": 2588,
      "ro": 2589,
      "##ry": 2590,
      "##ition": 2591,
      "топ": 2592,
      "ак": 2593,
      "##ance": 2594,
      "##хан": 2595,
      "министр": 2596,
      "##пер": 2597,
      "##ыстар": 2598,
      "im": 2599,
      "дам": 2600,
      "құрады": 2601,
      "##ice": 2602,
      "year": 2603,
      "30": 2604,
      "отыр": 2605,
      "еңбек": 2606,
      "off": 2607,
      "қыр": 2608,
      "##ілген": 2609,
      "##сіз": 2610,
      "##ra": 2611,
      "21": 2612,
      "өзенінің": 2613,
      "##own": 2614,
      "##ама": 2615,
      "##пн": 2616,
      "##шылары": 2617,
      "көрсет": 2618,
      "car": 2619,
      "басқа": 2620,
      "##лем": 2621,
      "play": 2622,
      "##ағына": 2623,
      "##ru": 2624,
      "##ықтық": 2625,
      "жылдың": 2626,
      "жөніндегі": 2627,
      "##кер": 2628,
      "им": 2629,
      "шоқ": 2630,
      "##ree": 2631,
      "фут": 2632,
      "чемп": 2633,
      "өңір": 2634,
      "тол": 2635,
      "чемпион": 2636,
      "кор": 2637,
      "been": 2638,
      "##ян": 2639,
      "has": 2640,
      "мұн": 2641,
      "1999": 2642,
      "##асыр": 2643,
      "коммуна": 2644,
      "co": 2645,
      "##ник": 2646,
      "##ely": 2647,
      "қаш": 2648,
      "ағы": 2649,
      "##аны": 2650,
      "табиғи": 2651,
      "соң": 2652,
      "саласы": 2653,
      "##uring": 2654,
      "##ory": 2655,
      "тығыздығы": 2656,
      "арналған": 2657,
      "##ылуы": 2658,
      "мат": 2659,
      "##ным": 2660,
      "##қылы": 2661,
      "other": 2662,
      "гид": 2663,
      "кездес": 2664,
      "##елі": 2665,
      "over": 2666,
      "can": 2667,
      "солтүстік": 2668,
      "футбол": 2669,
      "inter": 2670,
      "##ult": 2671,
      "пен": 2672,
      "қам": 2673,
      "тұрғы": 2674,
      "##ят": 2675,
      "##ace": 2676,
      "31": 2677,
      "әск": 2678,
      "орта": 2679,
      "ден": 2680,
      "ен": 2681,
      "дж": 2682,
      "жағалау": 2683,
      "01": 2684,
      "сая": 2685,
      "##уты": 2686,
      "##lud": 2687,
      "##ations": 2688,
      "раз": 2689,
      "дү": 2690,
      "##бір": 2691,
      "##асын": 2692,
      "##ерс": 2693,
      "округінің": 2694,
      "##рет": 2695,
      "тал": 2696,
      "алабының": 2697,
      "##сер": 2698,
      "аш": 2699,
      "bo": 2700,
      "қаита": 2701,
      "үлкен": 2702,
      "кеи": 2703,
      "192": 2704,
      "out": 2705,
      "##ритор": 2706,
      "территор": 2707,
      "сондаи": 2708,
      "##акт": 2709,
      "##иясын": 2710,
      "демографиясы": 2711,
      "191": 2712,
      "##ember": 2713,
      "жылдары": 2714,
      "##ль": 2715,
      "##ган": 2716,
      "ev": 2717,
      "##wn": 2718,
      "##сінің": 2719,
      "##нан": 2720,
      "te": 2721,
      "up": 2722,
      "24": 2723,
      "##ach": 2724,
      "ғасыр": 2725,
      "институты": 2726,
      "туралы": 2727,
      "dec": 2728,
      "fl": 2729,
      "мед": 2730,
      "##жұлдыз": 2731,
      "алматы": 2732,
      "##ier": 2733,
      "арал": 2734,
      "алғаш": 2735,
      "бағ": 2736,
      "жын": 2737,
      "##шылар": 2738,
      "##ail": 2739,
      "pre": 2740,
      "##рат": 2741,
      "##ke": 2742,
      "##уд": 2743,
      "##талған": 2744,
      "##ii": 2745,
      "##ens": 2746,
      "өтеді": 2747,
      "##пнұс": 2748,
      "түпнұс": 2749,
      "fin": 2750,
      "##еч": 2751,
      "шоқжұлдыз": 2752,
      "##land": 2753,
      "##ни": 2754,
      "даиында": 2755,
      "when": 2756,
      "арқылы": 2757,
      "хан": 2758,
      "att": 2759,
      "##орт": 2760,
      "22": 2761,
      "##ib": 2762,
      "қазір": 2763,
      "##дастыру": 2764,
      "##еж": 2765,
      "##ite": 2766,
      "2007": 2767,
      "##ынды": 2768,
      "мет": 2769,
      "бұр": 2770,
      "##ғал": 2771,
      "бү": 2772,
      "##ount": 2773,
      "##pr": 2774,
      "қан": 2775,
      "##еин": 2776,
      "гидр": 2777,
      "##one": 2778,
      "кеңес": 2779,
      "03": 2780,
      "##дем": 2781,
      "так": 2782,
      "##ang": 2783,
      "##скии": 2784,
      "##инг": 2785,
      "жүие": 2786,
      "##ade": 2787,
      "##тағы": 2788,
      "sim": 2789,
      "##ки": 2790,
      "##иым": 2791,
      "нә": 2792,
      "##ую": 2793,
      "##стер": 2794,
      "time": 2795,
      "сақ": 2796,
      "тан": 2797,
      "fil": 2798,
      "там": 2799,
      "##ward": 2800,
      "аит": 2801,
      "##уль": 2802,
      "тел": 2803,
      "ретінде": 2804,
      "em": 2805,
      "мақ": 2806,
      "me": 2807,
      "экономикалық": 2808,
      "##urn": 2809,
      "includ": 2810,
      "##ғам": 2811,
      "##ациясы": 2812,
      "##сіп": 2813,
      "ун": 2814,
      "bl": 2815,
      "ам": 2816,
      "сл": 2817,
      "##ict": 2818,
      "аген": 2819,
      "##ates": 2820,
      "##же": 2821,
      "##ced": 2822,
      "##сан": 2823,
      "during": 2824,
      "федералды": 2825,
      "##тін": 2826,
      "##еке": 2827,
      "ind": 2828,
      "өнер": 2829,
      "sec": 2830,
      "комп": 2831,
      "would": 2832,
      "##ks": 2833,
      "әиел": 2834,
      "##man": 2835,
      "қараи": 2836,
      "##ение": 2837,
      "27": 2838,
      "қатар": 2839,
      "болатын": 2840,
      "##ited": 2841,
      "##еиді": 2842,
      "зерттел": 2843,
      "23": 2844,
      "ext": 2845,
      "карт": 2846,
      "статистика": 2847,
      "гео": 2848,
      "##изм": 2849,
      "бет": 2850,
      "##we": 2851,
      "##еств": 2852,
      "уақ": 2853,
      "тұрғыдан": 2854,
      "act": 2855,
      "аимағына": 2856,
      "##стр": 2857,
      "паидал": 2858,
      "әлем": 2859,
      "##уге": 2860,
      "him": 2861,
      "ресурстар": 2862,
      "жең": 2863,
      "##ле": 2864,
      "олардың": 2865,
      "ear": 2866,
      "##тас": 2867,
      "into": 2868,
      "##параттық": 2869,
      "сер": 2870,
      "##int": 2871,
      "ресеидегі": 2872,
      "тр": 2873,
      "жария": 2874,
      "##си": 2875,
      "par": 2876,
      "шық": 2877,
      "jo": 2878,
      "хал": 2879,
      "cent": 2880,
      "министрлігі": 2881,
      "##ами": 2882,
      "год": 2883,
      "тек": 2884,
      "##го": 2885,
      "гр": 2886,
      "##ци": 2887,
      "эт": 2888,
      "film": 2889,
      "кс": 2890,
      "ая": 2891,
      "сөз": 2892,
      "war": 2893,
      "ағыл": 2894,
      "ағып": 2895,
      "char": 2896,
      "баиланысты": 2897,
      "##уш": 2898,
      "рф": 2899,
      "қау": 2900,
      "##лары": 2901,
      "қои": 2902,
      "нөмірі": 2903,
      "##amp": 2904,
      "ді": 2905,
      "##ased": 2906,
      "##ная": 2907,
      "агентті": 2908,
      "федерациясы": 2909,
      "мүм": 2910,
      "жүз": 2911,
      "##ick": 2912,
      "кен": 2913,
      "қашықтық": 2914,
      "##ков": 2915,
      "##nder": 2916,
      "құрамы": 2917,
      "##ix": 2918,
      "##кіз": 2919,
      "паидалан": 2920,
      "##ied": 2921,
      "экология": 2922,
      "өзеннің": 2923,
      "облыс": 2924,
      "##aw": 2925,
      "аумақтар": 2926,
      "##лау": 2927,
      "ішінде": 2928,
      "##ум": 2929,
      "el": 2930,
      "мам": 2931,
      "кет": 2932,
      "гал": 2933,
      "##ose": 2934,
      "бі": 2935,
      "##оч": 2936,
      "##тады": 2937,
      "2008": 2938,
      "мүмкін": 2939,
      "##itt": 2940,
      "##онды": 2941,
      "тізілім": 2942,
      "##able": 2943,
      "##таи": 2944,
      "жаи": 2945,
      "агенттігі": 2946,
      "жоғары": 2947,
      "bet": 2948,
      "more": 2949,
      "бек": 2950,
      "кә": 2951,
      "##дел": 2952,
      "##ара": 2953,
      "##бе": 2954,
      "##ияның": 2955,
      "қазіргі": 2956,
      "##ью": 2957,
      "##ces": 2958,
      "##ft": 2959,
      "##орм": 2960,
      "мәліметі": 2961,
      "даиындаған": 2962,
      "ресурстары": 2963,
      "зерттелу": 2964,
      "өңіріне": 2965,
      "##уір": 2966,
      "жау": 2967,
      "##деб": 2968,
      "аинал": 2969,
      "гидрологиялық": 2970,
      "##old": 2971,
      "##бас": 2972,
      "##сат": 2973,
      "тізілімінің": 2974,
      "көш": 2975,
      "##les": 2976,
      "##атр": 2977,
      "##ции": 2978,
      "көз": 2979,
      "##дет": 2980,
      "28": 2981,
      "сағасы": 2982,
      "газ": 2983,
      "шығарылуы": 2984,
      "аудандастыру": 2985,
      "аумақтарынан": 2986,
      "##ents": 2987,
      "мәден": 2988,
      "##иверс": 2989,
      "##ild": 2990,
      "##ла": 2991,
      "төр": 2992,
      "##ко": 2993,
      "шығыс": 2994,
      "томының": 2995,
      "##ақпараттық": 2996,
      "геоақпараттық": 2997,
      "сушаруашылық": 2998,
      "тех": 2999,
      "сушаруашылығы": 3000,
      "негізгі": 3001,
      "cons": 3002,
      "##ілі": 3003,
      "000": 3004,
      "##vel": 3005,
      "саит": 3006,
      "тұрақты": 3007,
      "универс": 3008,
      "##уі": 3009,
      "соғы": 3010,
      "ағылш": 3011,
      "acc": 3012,
      "территориясын": 3013,
      "##інші": 3014,
      "реестрінің": 3015,
      "жүи": 3016,
      "form": 3017,
      "уақыт": 3018,
      "объектісінің": 3019,
      "эн": 3020,
      "реестріндегі": 3021,
      "мон": 3022,
      "құи": 3023,
      "бөлім": 3024,
      "##way": 3025,
      "##30": 3026,
      "##ье": 3027,
      "50": 3028,
      "##иф": 3029,
      "клуб": 3030,
      "26": 3031,
      "қара": 3032,
      "қашықтықта": 3033,
      "под": 3034,
      "мыс": 3035,
      "республикасының": 3036,
      "gen": 3037,
      "во": 3038,
      "кол": 3039,
      "ашыл": 3040,
      "мекте": 3041,
      "ортал": 3042,
      "air": 3043,
      "әкімшілік": 3044,
      "күш": 3045,
      "##ors": 3046,
      "әдеб": 3047,
      "##шасы": 3048,
      "пор": 3049,
      "деиінгі": 3050,
      "еск": 3051,
      "##ind": 3052,
      "game": 3053,
      "авт": 3054,
      "##ings": 3055,
      "франц": 3056,
      "қызыл": 3057,
      "##иядағы": 3058,
      "жағдаи": 3059,
      "##ое": 3060,
      "бастап": 3061,
      "while": 3062,
      "##се": 3063,
      "##form": 3064,
      "тип": 3065,
      "##ние": 3066,
      "##оқсан": 3067,
      "mus": 3068,
      "тас": 3069,
      "дв": 3070,
      "##iss": 3071,
      "##ons": 3072,
      "қоғам": 3073,
      "2002": 3074,
      "ass": 3075,
      "##port": 3076,
      "no": 3077,
      "өнді": 3078,
      "желт": 3079,
      "##ылып": 3080,
      "##quest": 3081,
      "##ake": 3082,
      "##раз": 3083,
      "##аус": 3084,
      "##қын": 3085,
      "100": 3086,
      "##ымдар": 3087,
      "thr": 3088,
      "nor": 3089,
      "нау": 3090,
      "##ыб": 3091,
      "##сын": 3092,
      "##ылу": 3093,
      "produ": 3094,
      "rem": 3095,
      "##ұлы": 3096,
      "##нов": 3097,
      "коммунаның": 3098,
      "##ican": 3099,
      "жағалауынан": 3100,
      "29": 3101,
      "most": 3102,
      "##еф": 3103,
      "обь": 3104,
      "qu": 3105,
      "мал": 3106,
      "##там": 3107,
      "ұш": 3108,
      "кітап": 3109,
      "рас": 3110,
      "сар": 3111,
      "желтоқсан": 3112,
      "##gr": 3113,
      "сен": 3114,
      "маи": 3115,
      "##ург": 3116,
      "келген": 3117,
      "француз": 3118,
      "col": 3119,
      "##бер": 3120,
      "карта": 3121,
      "there": 3122,
      "##скои": 3123,
      "еді": 3124,
      "бірі": 3125,
      "##ood": 3126,
      "пл": 3127,
      "оны": 3128,
      "од": 3129,
      "##50": 3130,
      "##aus": 3131,
      "song": 3132,
      "##дыр": 3133,
      "##тыр": 3134,
      "bu": 3135,
      "##ey": 3136,
      "map": 3137,
      "wr": 3138,
      "##fer": 3139,
      "түрлі": 3140,
      "kn": 3141,
      "батыс": 3142,
      "болм": 3143,
      "##reat": 3144,
      "##ход": 3145,
      "##иров": 3146,
      "how": 3147,
      "бірінші": 3148,
      "##ious": 3149,
      "республикасы": 3150,
      "##ubl": 3151,
      "төменгі": 3152,
      "жи": 3153,
      "##елен": 3154,
      "##10": 3155,
      "как": 3156,
      "##ph": 3157,
      "pe": 3158,
      "##став": 3159,
      "40": 3160,
      "##att": 3161,
      "##шісі": 3162,
      "##ілер": 3163,
      "бірақ": 3164,
      "##ction": 3165,
      "##ске": 3166,
      "университет": 3167,
      "##ved": 3168,
      "үи": 3169,
      "ғылыми": 3170,
      "көк": 3171,
      "sy": 3172,
      "заң": 3173,
      "##нен": 3174,
      "reg": 3175,
      "may": 3176,
      "later": 3177,
      "анық": 3178,
      "исп": 3179,
      "оңтүстік": 3180,
      "тем": 3181,
      "mon": 3182,
      "##тарда": 3183,
      "шамасы": 3184,
      "ph": 3185,
      "кезінде": 3186,
      "##ное": 3187,
      "##пр": 3188,
      "##ational": 3189,
      "under": 3190,
      "only": 3191,
      "емес": 3192,
      "again": 3193,
      "паида": 3194,
      "##кр": 3195,
      "so": 3196,
      "2005": 3197,
      "картада": 3198,
      "құиылыс": 3199,
      "rev": 3200,
      "ret": 3201,
      "орн": 3202,
      "##oth": 3203,
      "екін": 3204,
      "до": 3205,
      "work": 3206,
      "ерек": 3207,
      "тәр": 3208,
      "францияның": 3209,
      "жариялан": 3210,
      "аб": 3211,
      "##te": 3212,
      "тір": 3213,
      "about": 3214,
      "пред": 3215,
      "шаруашыл": 3216,
      "##ала": 3217,
      "алғашқы": 3218,
      "##гері": 3219,
      "для": 3220,
      "кезде": 3221,
      "##дау": 3222,
      "##лам": 3223,
      "than": 3224,
      "##gan": 3225,
      "саиты": 3226,
      "герман": 3227,
      "фил": 3228,
      "қоз": 3229,
      "жынысы": 3230,
      "ди": 3231,
      "some": 3232,
      "тор": 3233,
      "пос": 3234,
      "саитындағы": 3235,
      "bro": 3236,
      "индекс": 3237,
      "муз": 3238,
      "##als": 3239,
      "қалып": 3240,
      "##rib": 3241,
      "ғана": 3242,
      "сы": 3243,
      "ти": 3244,
      "##ock": 3245,
      "##ақшасы": 3246,
      "қас": 3247,
      "##ант": 3248,
      "##імді": 3249,
      "еур": 3250,
      "ұиым": 3251,
      "года": 3252,
      "##ова": 3253,
      "##see": 3254,
      "##оф": 3255,
      "##ath": 3256,
      "жеке": 3257,
      "dr": 3258,
      "po": 3259,
      "pol": 3260,
      "##ason": 3261,
      "2011": 3262,
      "them": 3263,
      "теңіз": 3264,
      "##тіп": 3265,
      "франциядағы": 3266,
      "жап": 3267,
      "##уч": 3268,
      "іст": 3269,
      "##ме": 3270,
      "сурет": 3271,
      "##лікті": 3272,
      "##eld": 3273,
      "##rop": 3274,
      "мың": 3275,
      "##баев": 3276,
      "##рем": 3277,
      "through": 3278,
      "жүргіз": 3279,
      "##тердің": 3280,
      "ақш": 3281,
      "##аф": 3282,
      "картасында": 3283,
      "парақшасы": 3284,
      "rele": 3285,
      "##ween": 3286,
      "three": 3287,
      "департаментінде": 3288,
      "insee": 3289,
      "sa": 3290,
      "ma": 3291,
      "электронды": 3292,
      "##аралық": 3293,
      "жин": 3294,
      "mapquest": 3295,
      "min": 3296,
      "between": 3297,
      "пров": 3298,
      "##ғыз": 3299,
      "институт": 3300,
      "##hn": 3301,
      "day": 3302,
      "шар": 3303,
      "##ug": 3304,
      "шек": 3305,
      "##ец": 3306,
      "ие": 3307,
      "ac": 3308,
      "li": 3309,
      "high": 3310,
      "қу": 3311,
      "##ics": 3312,
      "ман": 3313,
      "атал": 3314,
      "қарсы": 3315,
      "ауылдық": 3316,
      "##деу": 3317,
      "##outh": 3318,
      "ет": 3319,
      "сам": 3320,
      "қатыс": 3321,
      "году": 3322,
      "ep": 3323,
      "орган": 3324,
      "end": 3325,
      "eng": 3326,
      "қаж": 3327,
      "##ать": 3328,
      "қаң": 3329,
      "##ollow": 3330,
      "##son": 3331,
      "болса": 3332,
      "##ского": 3333,
      "географ": 3334,
      "##асынан": 3335,
      "ака": 3336,
      "наз": 3337,
      "дүние": 3338,
      "record": 3339,
      "##атор": 3340,
      "ic": 3341,
      "##iew": 3342,
      "орталығы": 3343,
      "то": 3344,
      "##кіл": 3345,
      "екінші": 3346,
      "##hip": 3347,
      "куб": 3348,
      "таи": 3349,
      "қыс": 3350,
      "галакт": 3351,
      "өзге": 3352,
      "world": 3353,
      "при": 3354,
      "190": 3355,
      "##қты": 3356,
      "sm": 3357,
      "білім": 3358,
      "##иясының": 3359,
      "күр": 3360,
      "##ered": 3361,
      "second": 3362,
      "amer": 3363,
      "кезең": 3364,
      "нәти": 3365,
      "pres": 3366,
      "do": 3367,
      "##імдік": 3368,
      "см": 3369,
      "мүш": 3370,
      "##fore": 3371,
      "маус": 3372,
      "##ters": 3373,
      "follow": 3374,
      "##тардың": 3375,
      "алды": 3376,
      "бірне": 3377,
      "##ук": 3378,
      "##40": 3379,
      "бағы": 3380,
      "num": 3381,
      "оиыншылары": 3382,
      "##теген": 3383,
      "##orn": 3384,
      "сау": 3385,
      "маусым": 3386,
      "sub": 3387,
      "есеп": 3388,
      "әді": 3389,
      "##аиы": 3390,
      "бірнеше": 3391,
      "##тіл": 3392,
      "тарихы": 3393,
      "02": 3394,
      "бақ": 3395,
      "шығарм": 3396,
      "туғандар": 3397,
      "фк": 3398,
      "##ирек": 3399,
      "##итель": 3400,
      "##io": 3401,
      "мол": 3402,
      "2012": 3403,
      "north": 3404,
      "келесі": 3405,
      "басылым": 3406,
      "cap": 3407,
      "орталық": 3408,
      "##ильм": 3409,
      "##есінде": 3410,
      "сов": 3411,
      "def": 3412,
      "ис": 3413,
      "##елері": 3414,
      "where": 3415,
      "##ющ": 3416,
      "##бі": 3417,
      "ұлы": 3418,
      "барлық": 3419,
      "spec": 3420,
      "жі": 3421,
      "##іледі": 3422,
      "##ект": 3423,
      "##амб": 3424,
      "жерде": 3425,
      "басты": 3426,
      "gu": 3427,
      "ксро": 3428,
      "##60": 3429,
      "2001": 3430,
      "##үр": 3431,
      "##ақыр": 3432,
      "бр": 3433,
      "итал": 3434,
      "##az": 3435,
      "##алады": 3436,
      "pos": 3437,
      "##амен": 3438,
      "##ном": 3439,
      "##есін": 3440,
      "през": 3441,
      "##атив": 3442,
      "##цияс": 3443,
      "four": 3444,
      "атындағы": 3445,
      "##арлар": 3446,
      "##сыз": 3447,
      "##ікті": 3448,
      "mov": 3449,
      "##ее": 3450,
      "##ular": 3451,
      "галактика": 3452,
      "нәтиж": 3453,
      "что": 3454,
      "әдебиет": 3455,
      "##иек": 3456,
      "арн": 3457,
      "##атты": 3458,
      "##ral": 3459,
      "##ұрт": 3460,
      "белгілі": 3461,
      "45": 3462,
      "##ульт": 3463,
      "publ": 3464,
      "team": 3465,
      "сип": 3466,
      "##ло": 3467,
      "35": 3468,
      "академ": 3469,
      "##ss": 3470,
      "##қым": 3471,
      "табылады": 3472,
      "техн": 3473,
      "before": 3474,
      "dat": 3475,
      "##сел": 3476,
      "##iн": 3477,
      "орыс": 3478,
      "sur": 3479,
      "##улары": 3480,
      "80": 3481,
      "##жан": 3482,
      "себ": 3483,
      "##аитын": 3484,
      "##ision": 3485,
      "2004": 3486,
      "alb": 3487,
      "##арыш": 3488,
      "##ых": 3489,
      "шеш": 3490,
      "кем": 3491,
      "тізімі": 3492,
      "ірі": 3493,
      "тоб": 3494,
      "өсімдік": 3495,
      "##ames": 3496,
      "басқар": 3497,
      "қараған": 3498,
      "өзінің": 3499,
      "##ep": 3500,
      "lar": 3501,
      "##ушы": 3502,
      "32": 3503,
      "ап": 3504,
      "тұл": 3505,
      "өткіз": 3506,
      "sing": 3507,
      "sch": 3508,
      "##70": 3509,
      "##анды": 3510,
      "мер": 3511,
      "мәдениет": 3512,
      "##икасы": 3513,
      "көптеген": 3514,
      "will": 3515,
      "##ности": 3516,
      "қала": 3517,
      "##атур": 3518,
      "театр": 3519,
      "##ию": 3520,
      "өр": 3521,
      "##ағын": 3522,
      "##ode": 3523,
      "##рам": 3524,
      "мұр": 3525,
      "##пан": 3526,
      "##дықтан": 3527,
      "arm": 3528,
      "##асс": 3529,
      "ғарыш": 3530,
      "бітір": 3531,
      "ән": 3532,
      "##др": 3533,
      "##үл": 3534,
      "##ived": 3535,
      "made": 3536,
      "ме": 3537,
      "##ард": 3538,
      "##іш": 3539,
      "беи": 3540,
      "2000": 3541,
      "қазан": 3542,
      "such": 3543,
      "шыққан": 3544,
      "##ңг": 3545,
      "еуроп": 3546,
      "##air": 3547,
      "бұрын": 3548,
      "##ating": 3549,
      "##қару": 3550,
      "жоқ": 3551,
      "season": 3552,
      "округі": 3553,
      "##ton": 3554,
      "орны": 3555,
      "тап": 3556,
      "атқар": 3557,
      "art": 3558,
      "nas": 3559,
      "қабыл": 3560,
      "алу": 3561,
      "count": 3562,
      "gener": 3563,
      "за": 3564,
      "str": 3565,
      "##90": 3566,
      "ed": 3567,
      "ақын": 3568,
      "years": 3569,
      "##жен": 3570,
      "##hes": 3571,
      "extr": 3572,
      "60": 3573,
      "қаит": 3574,
      "##ished": 3575,
      "call": 3576,
      "сонымен": 3577,
      "аң": 3578,
      "мо": 3579,
      "қорғ": 3580,
      "келеді": 3581,
      "loc": 3582,
      "south": 3583,
      "33": 3584,
      "германия": 3585,
      "әскери": 3586,
      "inv": 3587,
      "қажет": 3588,
      "##сен": 3589,
      "##ня": 3590,
      "әрі": 3591,
      "##ained": 3592,
      "##ever": 3593,
      "##ые": 3594,
      "##інеді": 3595,
      "##ve": 3596,
      "парт": 3597,
      "##ғаи": 3598,
      "типті": 3599,
      "##лов": 3600,
      "##actic": 3601,
      "2013": 3602,
      "қаланың": 3603,
      "##ury": 3604,
      "таң": 3605,
      "ру": 3606,
      "халықаралық": 3607,
      "дін": 3608,
      "тағ": 3609,
      "##tern": 3610,
      "##let": 3611,
      "united": 3612,
      "supp": 3613,
      "амер": 3614,
      "или": 3615,
      "ғал": 3616,
      "ip": 3617,
      "фильм": 3618,
      "тізіміне": 3619,
      "ұр": 3620,
      "met": 3621,
      "##ыстық": 3622,
      "sever": 3623,
      "##лав": 3624,
      "##ected": 3625,
      "add": 3626,
      "бірге": 3627,
      "##гіне": 3628,
      "мін": 3629,
      "музы": 3630,
      "##ank": 3631,
      "##ection": 3632,
      "##au": 3633,
      "epis": 3634,
      "##ред": 3635,
      "##ардың": 3636,
      "##ning": 3637,
      "stud": 3638,
      "##аға": 3639,
      "қон": 3640,
      "##21": 3641,
      "тарм": 3642,
      "##ily": 3643,
      "үз": 3644,
      "##шылық": 3645,
      "##ағының": 3646,
      "деи": 3647,
      "бөлін": 3648,
      "##ров": 3649,
      "##или": 3650,
      "show": 3651,
      "соз": 3652,
      "месс": 3653,
      "##80": 3654,
      "көб": 3655,
      "##али": 3656,
      "##ife": 3657,
      "алады": 3658,
      "құрылым": 3659,
      "##терін": 3660,
      "##ific": 3661,
      "##oup": 3662,
      "аудар": 3663,
      "album": 3664,
      "##ван": 3665,
      "##аман": 3666,
      "##алдар": 3667,
      "абаи": 3668,
      "уч": 3669,
      "back": 3670,
      "both": 3671,
      "ерті": 3672,
      "проф": 3673,
      "сия": 3674,
      "##ement": 3675,
      "ашылуы": 3676,
      "ағылшынша": 3677,
      "mill": 3678,
      "##ual": 3679,
      "воз": 3680,
      "бағыт": 3681,
      "however": 3682,
      "datab": 3683,
      "түпнұсқа": 3684,
      "мектеп": 3685,
      "then": 3686,
      "##ри": 3687,
      "database": 3688,
      "темір": 3689,
      "саяси": 3690,
      "nasa": 3691,
      "кал": 3692,
      "қозғал": 3693,
      "bar": 3694,
      "##ғыш": 3695,
      "түпнұсқ": 3696,
      "##ery": 3697,
      "жаб": 3698,
      "being": 3699,
      "##алдық": 3700,
      "нысандарының": 3701,
      "##лю": 3702,
      "##velop": 3703,
      "іс": 3704,
      "аль": 3705,
      "##bad": 3706,
      "алтын": 3707,
      "оқу": 3708,
      "бөлі": 3709,
      "bel": 3710,
      "мун": 3711,
      "2014": 3712,
      "##екс": 3713,
      "әу": 3714,
      "rece": 3715,
      "атты": 3716,
      "##руг": 3717,
      "жасау": 3718,
      "керек": 3719,
      "inst": 3720,
      "французша": 3721,
      "well": 3722,
      "##діктен": 3723,
      "##гінде": 3724,
      "##alactic": 3725,
      "##ланд": 3726,
      "lead": 3727,
      "op": 3728,
      "##цион": 3729,
      "нысанына": 3730,
      "long": 3731,
      "көл": 3732,
      "2003": 3733,
      "##елік": 3734,
      "used": 3735,
      "viz": 3736,
      "қаралған": 3737,
      "mc": 3738,
      "част": 3739,
      "құл": 3740,
      "алған": 3741,
      "these": 3742,
      "басылымының": 3743,
      "##сыл": 3744,
      "##ale": 3745,
      "құиылысына": 3746,
      "жарияланымдар": 3747,
      "екен": 3748,
      "##рав": 3749,
      "зерттеу": 3750,
      "##иан": 3751,
      "34": 3752,
      "##еитін": 3753,
      "вер": 3754,
      "##ора": 3755,
      "found": 3756,
      "проц": 3757,
      "мессье": 3758,
      "vizier": 3759,
      "шоқжұлдызында": 3760,
      "##ather": 3761,
      "каталогтың": 3762,
      "##agalactic": 3763,
      "каталогтағы": 3764,
      "extragalactic": 3765,
      "түпнұсқасындағы": 3766,
      "simbad": 3767,
      "ipac": 3768,
      "ter": 3769,
      "##ием": 3770,
      "##urr": 3771,
      "##уына": 3772,
      "##olog": 3773,
      "##uc": 3774,
      "ск": 3775,
      "әсер": 3776,
      "set": 3777,
      "сын": 3778,
      "against": 3779,
      "##лин": 3780,
      "кіреді": 3781,
      "##iet": 3782,
      "түрі": 3783,
      "##other": 3784,
      "many": 3785,
      "бекі": 3786,
      "series": 3787,
      "провин": 3788,
      "##ert": 3789,
      "хим": 3790,
      "сап": 3791,
      "main": 3792,
      "асп": 3793,
      "##led": 3794,
      "##anc": 3795,
      "##алардың": 3796,
      "charac": 3797,
      "##ются": 3798,
      "үн": 3799,
      "inf": 3800,
      "бә": 3801,
      "develop": 3802,
      "##ivers": 3803,
      "mat": 3804,
      "ки": 3805,
      "##кт": 3806,
      "қаитыс": 3807,
      "##ines": 3808,
      "сияқты": 3809,
      "сат": 3810,
      "##сон": 3811,
      "тәу": 3812,
      "тұрады": 3813,
      "pop": 3814,
      "сем": 3815,
      "states": 3816,
      "##ыстыр": 3817,
      "##ықты": 3818,
      "##ince": 3819,
      "dire": 3820,
      "city": 3821,
      "##лед": 3822,
      "батыр": 3823,
      "##igin": 3824,
      "##ool": 3825,
      "пат": 3826,
      "##ья": 3827,
      "қыт": 3828,
      "##га": 3829,
      "атаулары": 3830,
      "##ise": 3831,
      "бу": 3832,
      "нов": 3833,
      "##oy": 3834,
      "өзені": 3835,
      "music": 3836,
      "##ause": 3837,
      "number": 3838,
      "hist": 3839,
      "жеті": 3840,
      "trans": 3841,
      "арасында": 3842,
      "##ицип": 3843,
      "но": 3844,
      "batt": 3845,
      "##кімет": 3846,
      "өзі": 3847,
      "state": 3848,
      "##сии": 3849,
      "##дерінің": 3850,
      "cre": 3851,
      "муницип": 3852,
      "мор": 3853,
      "##еге": 3854,
      "##па": 3855,
      "дер": 3856,
      "үст": 3857,
      "perform": 3858,
      "ген": 3859,
      "origin": 3860,
      "##aps": 3861,
      "##кү": 3862,
      "38": 3863,
      "36": 3864,
      "##ғыр": 3865,
      "қатын": 3866,
      "маң": 3867,
      "including": 3868,
      "##еті": 3869,
      "маңыз": 3870,
      "оған": 3871,
      "кеибір": 3872,
      "қытаи": 3873,
      "##ower": 3874,
      "early": 3875,
      "кездескен": 3876,
      "##ont": 3877,
      "печ": 3878,
      "##лығы": 3879,
      "##она": 3880,
      "1998": 3881,
      "түркі": 3882,
      "нар": 3883,
      "фр": 3884,
      "##22": 3885,
      "фак": 3886,
      "##рыз": 3887,
      "сек": 3888,
      "##ures": 3889,
      "##дігі": 3890,
      "жылдар": 3891,
      "әрек": 3892,
      "##улар": 3893,
      "##дж": 3894,
      "##sp": 3895,
      "##vern": 3896,
      "кубог": 3897,
      "##дас": 3898,
      "наурыз": 3899,
      "##гр": 3900,
      "нас": 3901,
      "became": 3902,
      "la": 3903,
      "гол": 3904,
      "его": 3905,
      "70": 3906,
      "##ised": 3907,
      "өлең": 3908,
      "mil": 3909,
      "several": 3910,
      "қаласы": 3911,
      "##рад": 3912,
      "әскер": 3913,
      "##иж": 3914,
      "ауданының": 3915,
      "стан": 3916,
      "##ись": 3917,
      "##исс": 3918,
      "вы": 3919,
      "ob": 3920,
      "өндірі": 3921,
      "тоқ": 3922,
      "john": 3923,
      "##бр": 3924,
      "тілі": 3925,
      "##тегі": 3926,
      "келесідеи": 3927,
      "##тып": 3928,
      "түз": 3929,
      "##its": 3930,
      "##ырақ": 3931,
      "##есінің": 3932,
      "сипат": 3933,
      "##11": 3934,
      "##ork": 3935,
      "форм": 3936,
      "##ынған": 3937,
      "аяқ": 3938,
      "##гал": 3939,
      "врем": 3940,
      "мөл": 3941,
      "мәсел": 3942,
      "марап": 3943,
      "кәсіп": 3944,
      "тұқым": 3945,
      "мамыр": 3946,
      "қосылу": 3947,
      "sl": 3948,
      "сыил": 3949,
      "##мин": 3950,
      "боль": 3951,
      "did": 3952,
      "соғыс": 3953,
      "объектісі": 3954,
      "##ылаи": 3955,
      "мұнаи": 3956,
      "dist": 3957,
      "ек": 3958,
      "est": 3959,
      "nov": 3960,
      "астан": 3961,
      "##ылатын": 3962,
      "ку": 3963,
      "05": 3964,
      "қр": 3965,
      "жарық": 3966,
      "##еген": 3967,
      "ann": 3968,
      "2015": 3969,
      "##пи": 3970,
      "жур": 3971,
      "1997": 3972,
      "баш": 3973,
      "##теу": 3974,
      "мысалы": 3975,
      "##ғының": 3976,
      "##are": 3977,
      "құрмет": 3978,
      "##ities": 3979,
      "episode": 3980,
      "прав": 3981,
      "каталогтарда": 3982,
      "189": 3983,
      "кер": 3984,
      "кездескендіктен": 3985,
      "govern": 3986,
      "комитет": 3987,
      "##ole": 3988,
      "##гл": 3989,
      "##пақ": 3990,
      "порту": 3991,
      "##уж": 3992,
      "прои": 3993,
      "##ществ": 3994,
      "##би": 3995,
      "##ann": 3996,
      "##яз": 3997,
      "##дерін": 3998,
      "тұлғ": 3999,
      "матери": 4000,
      "##дір": 4001,
      "также": 4002,
      "##ouse": 4003,
      "##вля": 4004,
      "әлеу": 4005,
      "##ative": 4006,
      "##ить": 4007,
      "жыр": 4008,
      "ев": 4009,
      "халқы": 4010,
      "орден": 4011,
      "қаңтар": 4012,
      "жұлдыз": 4013,
      "188": 4014,
      "рад": 4015,
      "##его": 4016,
      "құрыл": 4017,
      "мл": 4018,
      "пост": 4019,
      "pers": 4020,
      "##ду": 4021,
      "##аптары": 4022,
      "##теді": 4023,
      "өзгері": 4024,
      "##ность": 4025,
      "appear": 4026,
      "##терді": 4027,
      "##ley": 4028,
      "##кері": 4029,
      "##der": 4030,
      "said": 4031,
      "##вер": 4032,
      "serv": 4033,
      "спорт": 4034,
      "crit": 4035,
      "37": 4036,
      "american": 4037,
      "##px": 4038,
      "##дердің": 4039,
      "тұрғындар": 4040,
      "жерінде": 4041,
      "толық": 4042,
      "##кіш": 4043,
      "түсін": 4044,
      "сө": 4045,
      "журнал": 4046,
      "##таб": 4047,
      "##ех": 4048,
      "бітірген": 4049,
      "өлш": 4050,
      "бастады": 4051,
      "бан": 4052,
      "brit": 4053,
      "##сақ": 4054,
      "design": 4055,
      "рос": 4056,
      "king": 4057,
      "med": 4058,
      "##xt": 4059,
      "##ll": 4060,
      "mod": 4061,
      "##ross": 4062,
      "##ығының": 4063,
      "өткен": 4064,
      "##ось": 4065,
      "##алл": 4066,
      "contin": 4067,
      "деңг": 4068,
      "которы": 4069,
      "шіл": 4070,
      "дан": 4071,
      "dep": 4072,
      "котор": 4073,
      "west": 4074,
      "39": 4075,
      "гүл": 4076,
      "##ио": 4077,
      "оқы": 4078,
      "group": 4079,
      "##elf": 4080,
      "1990": 4081,
      "жарт": 4082,
      "##ful": 4083,
      "div": 4084,
      "сәуір": 4085,
      "қазақстанның": 4086,
      "##ыи": 4087,
      "const": 4088,
      "##uch": 4089,
      "##гілікті": 4090,
      "exp": 4091,
      "##til": 4092,
      "##тамасы": 4093,
      "win": 4094,
      "could": 4095,
      "##ield": 4096,
      "хр": 4097,
      "##ron": 4098,
      "физ": 4099,
      "aust": 4100,
      "oper": 4101,
      "sign": 4102,
      "##ird": 4103,
      "direct": 4104,
      "кан": 4105,
      "онда": 4106,
      "перв": 4107,
      "док": 4108,
      "дол": 4109,
      "##ought": 4110,
      "##фер": 4111,
      "##дин": 4112,
      "disc": 4113,
      "беин": 4114,
      "prov": 4115,
      "##ства": 4116,
      "түсті": 4117,
      "мөлш": 4118,
      "##азы": 4119,
      "шы": 4120,
      "1996": 4121,
      "аимақ": 4122,
      "мұх": 4123,
      "др": 4124,
      "##імі": 4125,
      "арт": 4126,
      "##eng": 4127,
      "desc": 4128,
      "тік": 4129,
      "ист": 4130,
      "ii": 4131,
      "##тілген": 4132,
      "город": 4133,
      "##етр": 4134,
      "жергілікті": 4135,
      "national": 4136,
      "##ah": 4137,
      "тамыз": 4138,
      "астр": 4139,
      "dif": 4140,
      "##ская": 4141,
      "##iam": 4142,
      "##ствен": 4143,
      "ету": 4144,
      "near": 4145,
      "fam": 4146,
      "қыркү": 4147,
      "conc": 4148,
      "дин": 4149,
      "##ty": 4150,
      "ауданындағы": 4151,
      "марапат": 4152,
      "сәик": 4153,
      "return": 4154,
      "иег": 4155,
      "##геру": 4156,
      "арх": 4157,
      "жу": 4158,
      "mem": 4159,
      "оин": 4160,
      "any": 4161,
      "##iver": 4162,
      "1992": 4163,
      "43": 4164,
      "##құрт": 4165,
      "award": 4166,
      "##ica": 4167,
      "57": 4168,
      "gre": 4169,
      "беру": 4170,
      "##ange": 4171,
      "##оя": 4172,
      "port": 4173,
      "following": 4174,
      "47": 4175,
      "down": 4176,
      "##ism": 4177,
      "нор": 4178,
      "alth": 4179,
      "ste": 4180,
      "run": 4181,
      "басшысы": 4182,
      "although": 4183,
      "ағ": 4184,
      "cor": 4185,
      "опер": 4186,
      "id": 4187,
      "my": 4188,
      "береді": 4189,
      "jun": 4190,
      "кіші": 4191,
      "одан": 4192,
      "географиялық": 4193,
      "бор": 4194,
      "##ern": 4195,
      "ұст": 4196,
      "әс": 4197,
      "ром": 4198,
      "шаб": 4199,
      "##ually": 4200,
      "қаират": 4201,
      "own": 4202,
      "land": 4203,
      "вл": 4204,
      "бері": 4205,
      "сұр": 4206,
      "##жел": 4207,
      "кин": 4208,
      "##row": 4209,
      "импер": 4210,
      "##сін": 4211,
      "әлеумет": 4212,
      "115": 4213,
      "known": 4214,
      "offic": 4215,
      "##дарды": 4216,
      "ger": 4217,
      "##фр": 4218,
      "pgc": 4219,
      "##ject": 4220,
      "##нач": 4221,
      "теор": 4222,
      "лю": 4223,
      "##ңгі": 4224,
      "##enn": 4225,
      "##ован": 4226,
      "##ылм": 4227,
      "cour": 4228,
      "провинцияс": 4229,
      "башқұрт": 4230,
      "күи": 4231,
      "feat": 4232,
      "rep": 4233,
      "мең": 4234,
      "асыр": 4235,
      "көлем": 4236,
      "##оны": 4237,
      "жазу": 4238,
      "дәст": 4239,
      "алд": 4240,
      "pass": 4241,
      "##скеу": 4242,
      "лен": 4243,
      "##ob": 4244,
      "болуы": 4245,
      "облысының": 4246,
      "основ": 4247,
      "қорғау": 4248,
      "red": 4249,
      "кеш": 4250,
      "баиқ": 4251,
      "##ele": 4252,
      "шет": 4253,
      "жем": 4254,
      "мил": 4255,
      "мәскеу": 4256,
      "54": 4257,
      "eff": 4258,
      "жақсы": 4259,
      "##аин": 4260,
      "##ued": 4261,
      "друг": 4262,
      "##ident": 4263,
      "чер": 4264,
      "##таған": 4265,
      "астроном": 4266,
      "open": 4267,
      "алаптары": 4268,
      "##gin": 4269,
      "қасиет": 4270,
      "##қор": 4271,
      "school": 4272,
      "because": 4273,
      "like": 4274,
      "2016": 4275,
      "##ских": 4276,
      "заттар": 4277,
      "әрекет": 4278,
      "1994": 4279,
      "##елеи": 4280,
      "образ": 4281,
      "prev": 4282,
      "##ople": 4283,
      "##иев": 4284,
      "##ium": 4285,
      "жағынан": 4286,
      "##еда": 4287,
      "ship": 4288,
      "яғ": 4289,
      "##12": 4290,
      "ерекш": 4291,
      "har": 4292,
      "лиг": 4293,
      "түрде": 4294,
      "##ьер": 4295,
      "##aking": 4296,
      "телеф": 4297,
      "along": 4298,
      "шын": 4299,
      "ші": 4300,
      "imp": 4301,
      "1991": 4302,
      "##stem": 4303,
      "нач": 4304,
      "until": 4305,
      "began": 4306,
      "08": 4307,
      "дирек": 4308,
      "##ство": 4309,
      "called": 4310,
      "##ена": 4311,
      "біз": 4312,
      "яғни": 4313,
      "released": 4314,
      "мак": 4315,
      "қауым": 4316,
      "шаи": 4317,
      "саб": 4318,
      "1995": 4319,
      "##ека": 4320,
      "ашқан": 4321,
      "прин": 4322,
      "##ull": 4323,
      "##ными": 4324,
      "##дак": 4325,
      "##ccess": 4326,
      "көм": 4327,
      "##естер": 4328,
      "дәл": 4329,
      "07": 4330,
      "ішкі": 4331,
      "04": 4332,
      "мән": 4333,
      "resp": 4334,
      "##ists": 4335,
      "##ution": 4336,
      "өлк": 4337,
      "##ined": 4338,
      "##ықтар": 4339,
      "тарихи": 4340,
      "заман": 4341,
      "##юр": 4342,
      "оп": 4343,
      "##аида": 4344,
      "##шілігі": 4345,
      "million": 4346,
      "медиц": 4347,
      "қатысты": 4348,
      "##ys": 4349,
      "av": 4350,
      "##скен": 4351,
      "life": 4352,
      "бағдар": 4353,
      "just": 4354,
      "point": 4355,
      "тармағының": 4356,
      "59": 4357,
      "##стар": 4358,
      "азам": 4359,
      "55": 4360,
      "44": 4361,
      "ода": 4362,
      "шаш": 4363,
      "соңғы": 4364,
      "явля": 4365,
      "##зв": 4366,
      "азия": 4367,
      "system": 4368,
      "##ene": 4369,
      "##els": 4370,
      "1993": 4371,
      "##аев": 4372,
      "мақсат": 4373,
      "186": 4374,
      "##икл": 4375,
      "аин": 4376,
      "шо": 4377,
      "bg": 4378,
      "кездеседі": 4379,
      "maj": 4380,
      "##yp": 4381,
      "##ided": 4382,
      "қи": 4383,
      "##osed": 4384,
      "48": 4385,
      "қалыптас": 4386,
      "##дарын": 4387,
      "46": 4388,
      "укр": 4389,
      "42": 4390,
      "үкімет": 4391,
      "best": 4392,
      "чел": 4393,
      "зат": 4394,
      "каз": 4395,
      "орында": 4396,
      "таз": 4397,
      "ju": 4398,
      "шақыр": 4399,
      "##яд": 4400,
      "сред": 4401,
      "##ении": 4402,
      "редак": 4403,
      "бастау": 4404,
      "состав": 4405,
      "star": 4406,
      "із": 4407,
      "маг": 4408,
      "##ially": 4409,
      "people": 4410,
      "aut": 4411,
      "09": 4412,
      "49": 4413,
      "ge": 4414,
      "##ized": 4415,
      "001": 4416,
      "бл": 4417,
      "темп": 4418,
      "##ативтік": 4419,
      "басқару": 4420,
      "португал": 4421,
      "##iң": 4422,
      "##ерг": 4423,
      "##ецк": 4424,
      "##ығында": 4425,
      "##000": 4426,
      "шө": 4427,
      "башқұртстан": 4428,
      "дәстүр": 4429,
      "##истік": 4430,
      "##кент": 4431,
      "##ины": 4432,
      "ғасырдың": 4433,
      "gl": 4434,
      "##эн": 4435,
      "##ізді": 4436,
      "син": 4437,
      "##тон": 4438,
      "lo": 4439,
      "әб": 4440,
      "bre": 4441,
      "презид": 4442,
      "бөлінеді": 4443,
      "var": 4444,
      "class": 4445,
      "ауру": 4446,
      "##ырау": 4447,
      "##циясы": 4448,
      "аиыр": 4449,
      "wee": 4450,
      "##атының": 4451,
      "around": 4452,
      "compan": 4453,
      "##талды": 4454,
      "##ured": 4455,
      "##ina": 4456,
      "нап": 4457,
      "##илар": 4458,
      "қыркүиек": 4459,
      "тәуел": 4460,
      "##талады": 4461,
      "дәре": 4462,
      "балық": 4463,
      "hel": 4464,
      "41": 4465,
      "##кем": 4466,
      "сәикес": 4467,
      "сің": 4468,
      "жерлер": 4469,
      "##bers": 4470,
      "без": 4471,
      "##ср": 4472,
      "қаласында": 4473,
      "көрін": 4474,
      "64": 4475,
      "since": 4476,
      "##астан": 4477,
      "coll": 4478,
      "adv": 4479,
      "араб": 4480,
      "##гар": 4481,
      "if": 4482,
      "шілде": 4483,
      "##аян": 4484,
      "##cl": 4485,
      "##ива": 4486,
      "##шілер": 4487,
      "ever": 4488,
      "сәул": 4489,
      "##инск": 4490,
      "ақпан": 4491,
      "зап": 4492,
      "head": 4493,
      "univers": 4494,
      "##red": 4495,
      "еділ": 4496,
      "##яр": 4497,
      "##oot": 4498,
      "##ains": 4499,
      "бес": 4500,
      "әлеуметтік": 4501,
      "##енің": 4502,
      "##up": 4503,
      "##ession": 4504,
      "чемпионы": 4505,
      "еуропа": 4506,
      "филос": 4507,
      "aug": 4508,
      "east": 4509,
      "тарт": 4510,
      "пал": 4511,
      "##ts": 4512,
      "##cept": 4513,
      "ауыр": 4514,
      "элем": 4515,
      "бүкіл": 4516,
      "same": 4517,
      "ви": 4518,
      "65": 4519,
      "dem": 4520,
      "sw": 4521,
      "##мб": 4522,
      "музык": 4523,
      "road": 4524,
      "##ove": 4525,
      "writ": 4526,
      "қалалық": 4527,
      "90": 4528,
      "##gest": 4529,
      "##ымал": 4530,
      "##uss": 4531,
      "public": 4532,
      "көтер": 4533,
      "үил": 4534,
      "дәрі": 4535,
      "ник": 4536,
      "дост": 4537,
      "##get": 4538,
      "tri": 4539,
      "үздік": 4540,
      "##ments": 4541,
      "пов": 4542,
      "prom": 4543,
      "six": 4544,
      "автом": 4545,
      "62": 4546,
      "##тыл": 4547,
      "##ane": 4548,
      "арасындағы": 4549,
      "соб": 4550,
      "кам": 4551,
      "##ently": 4552,
      "sept": 4553,
      "major": 4554,
      "success": 4555,
      "##леу": 4556,
      "өнім": 4557,
      "хат": 4558,
      "conf": 4559,
      "мас": 4560,
      "##кә": 4561,
      "философ": 4562,
      "шт": 4563,
      "58": 4564,
      "##ott": 4565,
      "ғалым": 4566,
      "arr": 4567,
      "қараша": 4568,
      "187": 4569,
      "дом": 4570,
      "##аларын": 4571,
      "##аларды": 4572,
      "болмаиды": 4573,
      "##ысында": 4574,
      "стал": 4575,
      "use": 4576,
      "бекітілген": 4577,
      "##ark": 4578,
      "професс": 4579,
      "che": 4580,
      "det": 4581,
      "сары": 4582,
      "##und": 4583,
      "occ": 4584,
      "you": 4585,
      "##циялық": 4586,
      "##ную": 4587,
      "күні": 4588,
      "##ыстан": 4589,
      "august": 4590,
      "##андық": 4591,
      "нысандары": 4592,
      "line": 4593,
      "мүшесі": 4594,
      "тәж": 4595,
      "each": 4596,
      "mcg": 4597,
      "##ruct": 4598,
      "september": 4599,
      "describ": 4600,
      "75": 4601,
      "##неи": 4602,
      "жылға": 4603,
      "support": 4604,
      "##ісі": 4605,
      "отырып": 4606,
      "нәтижесінде": 4607,
      "##amed": 4608,
      "##ольз": 4609,
      "oct": 4610,
      "темпер": 4611,
      "house": 4612,
      "еш": 4613,
      "сұл": 4614,
      "сондықтан": 4615,
      "ерекше": 4616,
      "дау": 4617,
      "67": 4618,
      "нұр": 4619,
      "##ible": 4620,
      "деңгеи": 4621,
      "қарағанды": 4622,
      "area": 4623,
      "төрт": 4624,
      "##iл": 4625,
      "##ired": 4626,
      "қарж": 4627,
      "##уп": 4628,
      "start": 4629,
      "km": 4630,
      "character": 4631,
      "құм": 4632,
      "##иден": 4633,
      "1980": 4634,
      "great": 4635,
      "ағаш": 4636,
      "##bo": 4637,
      "эксп": 4638,
      "енгіз": 4639,
      "final": 4640,
      "small": 4641,
      "қалған": 4642,
      "build": 4643,
      "53": 4644,
      "конц": 4645,
      "result": 4646,
      "##пол": 4647,
      "another": 4648,
      "президент": 4649,
      "##ели": 4650,
      "soc": 4651,
      "қосп": 4652,
      "56": 4653,
      "##ended": 4654,
      "##ble": 4655,
      "температур": 4656,
      "құқ": 4657,
      "цент": 4658,
      "51": 4659,
      "финал": 4660,
      "attack": 4661,
      "бил": 4662,
      "##ими": 4663,
      "кес": 4664,
      "түсір": 4665,
      "1970": 4666,
      "##ерлері": 4667,
      "##ея": 4668,
      "поэ": 4669,
      "##aph": 4670,
      "раи": 4671,
      "##ants": 4672,
      "ли": 4673,
      "old": 4674,
      "лу": 4675,
      "таип": 4676,
      "##ues": 4677,
      "адамдар": 4678,
      "british": 4679,
      "austral": 4680,
      "ір": 4681,
      "##шек": 4682,
      "##вет": 4683,
      "жж": 4684,
      "took": 4685,
      "биік": 4686,
      "##өбе": 4687,
      "book": 4688,
      "реж": 4689,
      "##кеи": 4690,
      "camp": 4691,
      "##hing": 4692,
      "##дыру": 4693,
      "даму": 4694,
      "##ets": 4695,
      "адамның": 4696,
      "mid": 4697,
      "##ияда": 4698,
      "энерг": 4699,
      "##aving": 4700,
      "##аларының": 4701,
      "жану": 4702,
      "білді": 4703,
      "қатынас": 4704,
      "аустр": 4705,
      "басп": 4706,
      "##sc": 4707,
      "сез": 4708,
      "мест": 4709,
      "##тарының": 4710,
      "олим": 4711,
      "vers": 4712,
      "орынбас": 4713,
      "сим": 4714,
      "##aining": 4715,
      "report": 4716,
      "ах": 4717,
      "##ох": 4718,
      "иде": 4719,
      "band": 4720,
      "кама": 4721,
      "century": 4722,
      "five": 4723,
      "##ner": 4724,
      "intern": 4725,
      "xv": 4726,
      "құб": 4727,
      "consid": 4728,
      "етеді": 4729,
      "алекс": 4730,
      "government": 4731,
      "дәуір": 4732,
      "77": 4733,
      "біл": 4734,
      "##ауы": 4735,
      "##ik": 4736,
      "##терінің": 4737,
      "вс": 4738,
      "##ида": 4739,
      "##атель": 4740,
      "child": 4741,
      "ауылы": 4742,
      "терең": 4743,
      "##тарды": 4744,
      "міндет": 4745,
      "mag": 4746,
      "##дап": 4747,
      "арнаиы": 4748,
      "hal": 4749,
      "complet": 4750,
      "chr": 4751,
      "##ям": 4752,
      "##жыр": 4753,
      "совет": 4754,
      "бау": 4755,
      "##aced": 4756,
      "##ober": 4757,
      "больш": 4758,
      "german": 4759,
      "шаруашылығы": 4760,
      "mark": 4761,
      "del": 4762,
      "құрылыс": 4763,
      "##еден": 4764,
      "келіс": 4765,
      "52": 4766,
      "города": 4767,
      "##app": 4768,
      "sk": 4769,
      "stre": 4770,
      "нысанды": 4771,
      "қоң": 4772,
      "келтір": 4773,
      "##роп": 4774,
      "##ink": 4775,
      "##тамасыз": 4776,
      "october": 4777,
      "##уст": 4778,
      "алаң": 4779,
      "ra": 4780,
      "##ives": 4781,
      "нұс": 4782,
      "##ындаи": 4783,
      "жасалған": 4784,
      "команд": 4785,
      "right": 4786,
      "eu": 4787,
      "каталогында": 4788,
      "ест": 4789,
      "зак": 4790,
      "rout": 4791,
      "##лардың": 4792,
      "нөмірге": 4793,
      "нен": 4794,
      "өзін": 4795,
      "turn": 4796,
      "раб": 4797,
      "##hern": 4798,
      "89": 4799,
      "contro": 4800,
      "жағдаида": 4801,
      "76": 4802,
      "##ыстары": 4803,
      "tit": 4804,
      "##ility": 4805,
      "рег": 4806,
      "general": 4807,
      "қамтамасыз": 4808,
      "негізінен": 4809,
      "partic": 4810,
      "received": 4811,
      "wind": 4812,
      "##ағанда": 4813,
      "##ically": 4814,
      "ұқ": 4815,
      "маңызды": 4816,
      "leg": 4817,
      "##ди": 4818,
      "әул": 4819,
      "##шық": 4820,
      "##таиды": 4821,
      "##олько": 4822,
      "##inc": 4823,
      "last": 4824,
      "орынбасары": 4825,
      "##enc": 4826,
      "шеб": 4827,
      "##ural": 4828,
      "аса": 4829,
      "ke": 4830,
      "россии": 4831,
      "##есіне": 4832,
      "пав": 4833,
      "##лас": 4834,
      "##шақ": 4835,
      "рек": 4836,
      "##ger": 4837,
      "68": 4838,
      "1989": 4839,
      "құрамында": 4840,
      "негізінде": 4841,
      "қолданылады": 4842,
      "гру": 4843,
      "ежел": 4844,
      "review": 4845,
      "##ately": 4846,
      "##na": 4847,
      "бақыл": 4848,
      "##лор": 4849,
      "ent": 4850,
      "##ales": 4851,
      "person": 4852,
      "val": 4853,
      "##iving": 4854,
      "death": 4855,
      "##13": 4856,
      "short": 4857,
      "ық": 4858,
      "елдер": 4859,
      "ислам": 4860,
      "млн": 4861,
      "home": 4862,
      "время": 4863,
      "кап": 4864,
      "##ені": 4865,
      "ref": 4866,
      "федеративтік": 4867,
      "due": 4868,
      "әз": 4869,
      "жүзеге": 4870,
      "бұрынғы": 4871,
      "ескерт": 4872,
      "гос": 4873,
      "төрағ": 4874,
      "меңгеру": 4875,
      "ұсын": 4876,
      "газет": 4877,
      "103": 4878,
      "left": 4879,
      "##ins": 4880,
      "##ола": 4881,
      "бос": 4882,
      "прот": 4883,
      "кеиде": 4884,
      "##ому": 4885,
      "кв": 4886,
      "рөл": 4887,
      "games": 4888,
      "баиланыс": 4889,
      "##ух": 4890,
      "өнеркә": 4891,
      "march": 4892,
      "рим": 4893,
      "june": 4894,
      "##терге": 4895,
      "егер": 4896,
      "law": 4897,
      "what": 4898,
      "##ария": 4899,
      "conv": 4900,
      "rest": 4901,
      "астам": 4902,
      "әдет": 4903,
      "cast": 4904,
      "тері": 4905,
      "##дия": 4906,
      "эр": 4907,
      "2017": 4908,
      "story": 4909,
      "көркем": 4910,
      "шал": 4911,
      "дүниеге": 4912,
      "сүр": 4913,
      "профессор": 4914,
      "саясат": 4915,
      "power": 4916,
      "##гог": 4917,
      "##бург": 4918,
      "наи": 4919,
      "jan": 4920,
      "жиі": 4921,
      "##ored": 4922,
      "##шіл": 4923,
      "құрылған": 4924,
      "крас": 4925,
      "men": 4926,
      "##ric": 4927,
      "##15": 4928,
      "дел": 4929,
      "##су": 4930,
      "арм": 4931,
      "англ": 4932,
      "##14": 4933,
      "1960": 4934,
      "black": 4935,
      "болғандар": 4936,
      "command": 4937,
      "бұз": 4938,
      "##басы": 4939,
      "cal": 4940,
      "##арлық": 4941,
      "тәрізді": 4942,
      "fur": 4943,
      "##ления": 4944,
      "way": 4945,
      "стр": 4946,
      "much": 4947,
      "single": 4948,
      "динам": 4949,
      "06": 4950,
      "##ики": 4951,
      "хар": 4952,
      "грек": 4953,
      "66": 4954,
      "эп": 4955,
      "185": 4956,
      "тыс": 4957,
      "##лет": 4958,
      "ад": 4959,
      "prot": 4960,
      "қамқор": 4961,
      "##ax": 4962,
      "##ңғ": 4963,
      "top": 4964,
      "ертіс": 4965,
      "##улы": 4966,
      "мұндаи": 4967,
      "##қыр": 4968,
      "july": 4969,
      "##ата": 4970,
      "1986": 4971,
      "##br": 4972,
      "##алитет": 4973,
      "##lish": 4974,
      "family": 4975,
      "##вест": 4976,
      "york": 4977,
      "care": 4978,
      "использ": 4979,
      "incre": 4980,
      "алтаи": 4981,
      "##ission": 4982,
      "##ріп": 4983,
      "##ison": 4984,
      "ir": 4985,
      "##мұ": 4986,
      "vis": 4987,
      "вал": 4988,
      "рез": 4989,
      "2018": 4990,
      "хор": 4991,
      "лау": 4992,
      "##ogr": 4993,
      "gun": 4994,
      "сүи": 4995,
      "##удың": 4996,
      "пом": 4997,
      "kill": 4998,
      "##ліп": 4999,
      "##ағында": 5000,
      "##over": 5001,
      "##ку": 5002,
      "##лердің": 5003,
      "based": 5004,
      "##олю": 5005,
      "истор": 5006,
      "##уды": 5007,
      "##hen": 5008,
      "november": 5009,
      "third": 5010,
      "қоғамдық": 5011,
      "track": 5012,
      "event": 5013,
      "ағылшын": 5014,
      "##төбе": 5015,
      "##ович": 5016,
      "элемент": 5017,
      "оларды": 5018,
      "town": 5019,
      "муниципалитет": 5020,
      "500": 5021,
      "park": 5022,
      "үнді": 5023,
      "ant": 5024,
      "##ғына": 5025,
      "differ": 5026,
      "##ime": 5027,
      "accord": 5028,
      "apr": 5029,
      "мез": 5030,
      "##аса": 5031,
      "##амм": 5032,
      "##ague": 5033,
      "шв": 5034,
      "энц": 5035,
      "##ute": 5036,
      "шықты": 5037,
      "63": 5038,
      "183": 5039,
      "##ians": 5040,
      "түрік": 5041,
      "рус": 5042,
      "hum": 5043,
      "ста": 5044,
      "##oss": 5045,
      "тұлғалар": 5046,
      "large": 5047,
      "88": 5048,
      "bus": 5049,
      "##aim": 5050,
      "allow": 5051,
      "##ient": 5052,
      "хаб": 5053,
      "жалғ": 5054,
      "сіңір": 5055,
      "company": 5056,
      "қыш": 5057,
      "құн": 5058,
      "биікті": 5059,
      "##жа": 5060,
      "pat": 5061,
      "appro": 5062,
      "##ively": 5063,
      "облыстық": 5064,
      "мүмкіндік": 5065,
      "history": 5066,
      "ми": 5067,
      "even": 5068,
      "мекеннің": 5069,
      "##пе": 5070,
      "squ": 5071,
      "##omet": 5072,
      "1988": 5073,
      "##ош": 5074,
      "етті": 5075,
      "##iii": 5076,
      "##атар": 5077,
      "##ilt": 5078,
      "april": 5079,
      "соци": 5080,
      "жақын": 5081,
      "кубогы": 5082,
      "ир": 5083,
      "үлгі": 5084,
      "river": 5085,
      "бен": 5086,
      "club": 5087,
      "астрономы": 5088,
      "астана": 5089,
      "автоном": 5090,
      "hand": 5091,
      "progr": 5092,
      "##онд": 5093,
      "##тарын": 5094,
      "##urch": 5095,
      "december": 5096,
      "##ань": 5097,
      "##empt": 5098,
      "ang": 5099,
      "##ms": 5100,
      "ортақ": 5101,
      "##idge": 5102,
      "##оде": 5103,
      "expl": 5104,
      "меж": 5105,
      "capt": 5106,
      "##чи": 5107,
      "##ила": 5108,
      "vide": 5109,
      "enter": 5110,
      "##ынады": 5111,
      "түрлері": 5112,
      "##raft": 5113,
      "##ғым": 5114,
      "жұмыстар": 5115,
      "place": 5116,
      "жеткіз": 5117,
      "ежелгі": 5118,
      "зав": 5119,
      "алаида": 5120,
      "##орд": 5121,
      "##ония": 5122,
      "саилау": 5123,
      "post": 5124,
      "now": 5125,
      "өзгер": 5126,
      "##res": 5127,
      "кур": 5128,
      "маш": 5129,
      "##лде": 5130,
      "##ылық": 5131,
      "##ats": 5132,
      "month": 5133,
      "пс": 5134,
      "##bert": 5135,
      "##por": 5136,
      "##23": 5137,
      "жолы": 5138,
      "##опед": 5139,
      "##удар": 5140,
      "##ling": 5141,
      "жібер": 5142,
      "69": 5143,
      "##анов": 5144,
      "##ten": 5145,
      "##uary": 5146,
      "dam": 5147,
      "##eal": 5148,
      "far": 5149,
      "вол": 5150,
      "spe": 5151,
      "после": 5152,
      "сот": 5153,
      "1987": 5154,
      "##side": 5155,
      "жос": 5156,
      "##25": 5157,
      "##ash": 5158,
      "##ages": 5159,
      "вел": 5160,
      "species": 5161,
      "выс": 5162,
      "атауы": 5163,
      "дал": 5164,
      "тұратын": 5165,
      "сөил": 5166,
      "##ified": 5167,
      "78": 5168,
      "сұ": 5169,
      "##цен": 5170,
      "прим": 5171,
      "бағдарлам": 5172,
      "150": 5173,
      "##ыстың": 5174,
      "қауіп": 5175,
      "орал": 5176,
      "times": 5177,
      "это": 5178,
      "все": 5179,
      "army": 5180,
      "ни": 5181,
      "тың": 5182,
      "жатыр": 5183,
      "##ret": 5184,
      "addition": 5185,
      "vict": 5186,
      "##зы": 5187,
      "ті": 5188,
      "##ony": 5189,
      "гар": 5190,
      "##едел": 5191,
      "ele": 5192,
      "ескі": 5193,
      "қатты": 5194,
      "73": 5195,
      "келді": 5196,
      "их": 5197,
      "мәдени": 5198,
      "name": 5199,
      "##ығына": 5200,
      "меңгерушісі": 5201,
      "қазақстанда": 5202,
      "түркістан": 5203,
      "мож": 5204,
      "##min": 5205,
      "##ball": 5206,
      "led": 5207,
      "боиы": 5208,
      "##by": 5209,
      "дәреж": 5210,
      "##erg": 5211,
      "island": 5212,
      "##erv": 5213,
      "тран": 5214,
      "##ital": 5215,
      "##ench": 5216,
      "##ало": 5217,
      "##аттың": 5218,
      "rad": 5219,
      "жетек": 5220,
      "ұқс": 5221,
      "according": 5222,
      "сев": 5223,
      "орман": 5224,
      "storm": 5225,
      "wom": 5226,
      "сор": 5227,
      "шабу": 5228,
      "көмір": 5229,
      "салм": 5230,
      "были": 5231,
      "##ister": 5232,
      "##ыва": 5233,
      "85": 5234,
      "##ting": 5235,
      "кас": 5236,
      "биіктігі": 5237,
      "##ention": 5238,
      "басқарм": 5239,
      "##түсті": 5240,
      "шарт": 5241,
      "каф": 5242,
      "ақпар": 5243,
      "маз": 5244,
      "##ody": 5245,
      "included": 5246,
      "water": 5247,
      "нұсқ": 5248,
      "##каз": 5249,
      "##ень": 5250,
      "иегерлері": 5251,
      "##sh": 5252,
      "##med": 5253,
      "аиналды": 5254,
      "педа": 5255,
      "within": 5256,
      "өлкесі": 5257,
      "факульт": 5258,
      "##има": 5259,
      "нек": 5260,
      "##16": 5261,
      "пет": 5262,
      "##лич": 5263,
      "си": 5264,
      "па": 5265,
      "##умен": 5266,
      "##avy": 5267,
      "##ience": 5268,
      "сауда": 5269,
      "интер": 5270,
      "##ғанда": 5271,
      "##rote": 5272,
      "##18": 5273,
      "шығару": 5274,
      "банк": 5275,
      "##қыз": 5276,
      "bill": 5277,
      "polit": 5278,
      "метр": 5279,
      "билік": 5280,
      "педагог": 5281,
      "europ": 5282,
      "тарат": 5283,
      "партия": 5284,
      "белсен": 5285,
      "##аттары": 5286,
      "##ится": 5287,
      "elect": 5288,
      "александ": 5289,
      "тәуелсіз": 5290,
      "ның": 5291,
      "##ne": 5292,
      "##ица": 5293,
      "##19": 5294,
      "өкіл": 5295,
      "саиын": 5296,
      "##ще": 5297,
      "##унк": 5298,
      "##24": 5299,
      "##кір": 5300,
      "өсір": 5301,
      "##тин": 5302,
      "было": 5303,
      "күм": 5304,
      "қорған": 5305,
      "organ": 5306,
      "етіп": 5307,
      "механ": 5308,
      "300": 5309,
      "university": 5310,
      "уп": 5311,
      "previous": 5312,
      "##ides": 5313,
      "оқыту": 5314,
      "аға": 5315,
      "жүиесі": 5316,
      "##қои": 5317,
      "##aged": 5318,
      "##ior": 5319,
      "отан": 5320,
      "##сында": 5321,
      "##уда": 5322,
      "жамб": 5323,
      "##гіш": 5324,
      "жетістік": 5325,
      "1985": 5326,
      "original": 5327,
      "қысқа": 5328,
      "сыз": 5329,
      "маман": 5330,
      "stand": 5331,
      "##фф": 5332,
      "init": 5333,
      "##ыв": 5334,
      "балалар": 5335,
      "belie": 5336,
      "##ven": 5337,
      "white": 5338,
      "wrote": 5339,
      "печора": 5340,
      "автомоб": 5341,
      "##apan": 5342,
      "played": 5343,
      "champ": 5344,
      "opp": 5345,
      "металл": 5346,
      "##мер": 5347,
      "184": 5348,
      "production": 5349,
      "гл": 5350,
      "кру": 5351,
      "шаруашылық": 5352,
      "дыб": 5353,
      "iss": 5354,
      "кср": 5355,
      "##гел": 5356,
      "##ато": 5357,
      "тұз": 5358,
      "##сіл": 5359,
      "##кел": 5360,
      "##бар": 5361,
      "release": 5362,
      "bas": 5363,
      "берілген": 5364,
      "still": 5365,
      "шабуыл": 5366,
      "74": 5367,
      "тән": 5368,
      "attempt": 5369,
      "сақтау": 5370,
      "саналады": 5371,
      "жануарлар": 5372,
      "##ared": 5373,
      "олимпи": 5374,
      "make": 5375,
      "университеті": 5376,
      "won": 5377,
      "челов": 5378,
      "қоңыр": 5379,
      "зар": 5380,
      "##af": 5381,
      "##wg": 5382,
      "##mer": 5383,
      "піш": 5384,
      "canad": 5385,
      "##ences": 5386,
      "late": 5387,
      "real": 5388,
      "##итын": 5389,
      "xx": 5390,
      "ле": 5391,
      "##ьев": 5392,
      "президен": 5393,
      "described": 5394,
      "##ығын": 5395,
      "january": 5396,
      "##28": 5397,
      "##анда": 5398,
      "among": 5399,
      "##hest": 5400,
      "авторы": 5401,
      "##ps": 5402,
      "әсір": 5403,
      "ла": 5404,
      "болгар": 5405,
      "named": 5406,
      "жинақ": 5407,
      "japan": 5408,
      "сөздер": 5409,
      "zwg": 5410,
      "бірл": 5411,
      "тұрғындары": 5412,
      "одн": 5413,
      "nat": 5414,
      "жамбыл": 5415,
      "##aff": 5416,
      "##iм": 5417,
      "super": 5418,
      "ашық": 5419,
      "##сыр": 5420,
      "typ": 5421,
      "минер": 5422,
      "foot": 5423,
      "қа": 5424,
      "1984": 5425,
      "##ские": 5426,
      "1945": 5427,
      "##за": 5428,
      "себеп": 5429,
      "##ee": 5430,
      "фер": 5431,
      "қоспағанда": 5432,
      "##пал": 5433,
      "those": 5434,
      "commun": 5435,
      "rock": 5436,
      "құрал": 5437,
      "эл": 5438,
      "жылдық": 5439,
      "қаласынан": 5440,
      "##iod": 5441,
      "##omin": 5442,
      "автор": 5443,
      "sold": 5444,
      "##тарға": 5445,
      "дон": 5446,
      "является": 5447,
      "тұрған": 5448,
      "джон": 5449,
      "##делі": 5450,
      "##itions": 5451,
      "deb": 5452,
      "milit": 5453,
      "##дарға": 5454,
      "##ilar": 5455,
      "білдір": 5456,
      "##ғыст": 5457,
      "video": 5458,
      "стран": 5459,
      "view": 5460,
      "sol": 5461,
      "##огда": 5462,
      "##истер": 5463,
      "##ption": 5464,
      "берді": 5465,
      "route": 5466,
      "##yr": 5467,
      "list": 5468,
      "сел": 5469,
      "christ": 5470,
      "##емат": 5471,
      "государ": 5472,
      "орташа": 5473,
      "further": 5474,
      "##циялар": 5475,
      "very": 5476,
      "##емен": 5477,
      "europe": 5478,
      "2019": 5479,
      "қағ": 5480,
      "effect": 5481,
      "қамқоршысы": 5482,
      "pa": 5483,
      "##кин": 5484,
      "разв": 5485,
      "қабыр": 5486,
      "##bs": 5487,
      "force": 5488,
      "league": 5489,
      "произв": 5490,
      "мах": 5491,
      "##17": 5492,
      "ұшыр": 5493,
      "##iation": 5494,
      "академиясының": 5495,
      "шекар": 5496,
      "##akes": 5497,
      "халқ": 5498,
      "##ival": 5499,
      "##ась": 5500,
      "тын": 5501,
      "##atic": 5502,
      "week": 5503,
      "бақылау": 5504,
      "құрылымы": 5505,
      "##хана": 5506,
      "құрамындағы": 5507,
      "рев": 5508,
      "##ted": 5509,
      "##паи": 5510,
      "##ұм": 5511,
      "repr": 5512,
      "youn": 5513,
      "repl": 5514,
      "next": 5515,
      "##ілік": 5516,
      "nort": 5517,
      "ға": 5518,
      "##лігін": 5519,
      "вен": 5520,
      "мерз": 5521,
      "тақыр": 5522,
      "##ине": 5523,
      "была": 5524,
      "иб": 5525,
      "tour": 5526,
      "##ology": 5527,
      "battle": 5528,
      "тақ": 5529,
      "tele": 5530,
      "аталады": 5531,
      "##ике": 5532,
      "ерте": 5533,
      "әсіресе": 5534,
      "##бор": 5535,
      "exper": 5536,
      "бастаған": 5537,
      "##теп": 5538,
      "dest": 5539,
      "1950": 5540,
      "##ысының": 5541,
      "италиядағы": 5542,
      "афр": 5543,
      "##иссер": 5544,
      "##ырт": 5545,
      "округ": 5546,
      "бастауынан": 5547,
      "roy": 5548,
      "##ации": 5549,
      "##iven": 5550,
      "service": 5551,
      "poss": 5552,
      "ec": 5553,
      "бо": 5554,
      "plan": 5555,
      "95": 5556,
      "former": 5557,
      "##онт": 5558,
      "similar": 5559,
      "87": 5560,
      "##аиым": 5561,
      "period": 5562,
      "##ances": 5563,
      "##aken": 5564,
      "##iнiң": 5565,
      "good": 5566,
      "сах": 5567,
      "##дерді": 5568,
      "99": 5569,
      "##ыста": 5570,
      "өзара": 5571,
      "##рлі": 5572,
      "##ікір": 5573,
      "баян": 5574,
      "же": 5575,
      "мод": 5576,
      "құрылды": 5577,
      "провинциясында": 5578,
      "1982": 5579,
      "ұзақ": 5580,
      "тілінде": 5581,
      "ve": 5582,
      "компания": 5583,
      "жағда": 5584,
      "division": 5585,
      "##iр": 5586,
      "prop": 5587,
      "жауап": 5588,
      "though": 5589,
      "қарап": 5590,
      "##lu": 5591,
      "##қас": 5592,
      "french": 5593,
      "реин": 5594,
      "##ren": 5595,
      "##ач": 5596,
      "дар": 5597,
      "лет": 5598,
      "cle": 5599,
      "тон": 5600,
      "энцикл": 5601,
      "##жым": 5602,
      "test": 5603,
      "180": 5604,
      "##augh": 5605,
      "псих": 5606,
      "##ached": 5607,
      "ненецк": 5608,
      "ері": 5609,
      "##ілетін": 5610,
      "##істі": 5611,
      "sound": 5612,
      "прод": 5613,
      "энциклопед": 5614,
      "##форм": 5615,
      "##жү": 5616,
      "local": 5617,
      "##line": 5618,
      "##ников": 5619,
      "енді": 5620,
      "##ae": 5621,
      "##актер": 5622,
      "##27": 5623,
      "court": 5624,
      "pet": 5625,
      "match": 5626,
      "президенті": 5627,
      "assoc": 5628,
      "press": 5629,
      "members": 5630,
      "##еуі": 5631,
      "директоры": 5632,
      "жетіс": 5633,
      "термин": 5634,
      "held": 5635,
      "##26": 5636,
      "сұлтан": 5637,
      "көтері": 5638,
      "келіп": 5639,
      "##ech": 5640,
      "әзір": 5641,
      "аралығында": 5642,
      "estab": 5643,
      "##bru": 5644,
      "име": 5645,
      "медицина": 5646,
      "семеи": 5647,
      "мм": 5648,
      "##оды": 5649,
      "1976": 5650,
      "##ирен": 5651,
      "1972": 5652,
      "##кені": 5653,
      "жартылаи": 5654,
      "америка": 5655,
      "built": 5656,
      "##hor": 5657,
      "79": 5658,
      "пікір": 5659,
      "ақтөбе": 5660,
      "студ": 5661,
      "1930": 5662,
      "автомобиль": 5663,
      "86": 5664,
      "суб": 5665,
      "аты": 5666,
      "более": 5667,
      "##нир": 5668,
      "##ness": 5669,
      "болу": 5670,
      "аиналыс": 5671,
      "центр": 5672,
      "days": 5673,
      "екат": 5674,
      "қажетті": 5675,
      "geor": 5676,
      "fre": 5677,
      "vi": 5678,
      "##ented": 5679,
      "eas": 5680,
      "##ying": 5681,
      "мөлшер": 5682,
      "жоспар": 5683,
      "қырғыз": 5684,
      "ант": 5685,
      "##ract": 5686,
      "##ars": 5687,
      "prof": 5688,
      "desp": 5689,
      "mount": 5690,
      "##ense": 5691,
      "тұң": 5692,
      "##делген": 5693,
      "order": 5694,
      "1974": 5695,
      "қақ": 5696,
      "##bn": 5697,
      "роман": 5698,
      "begin": 5699,
      "97": 5700,
      "role": 5701,
      "##ulation": 5702,
      "актер": 5703,
      "атырау": 5704,
      "телефон": 5705,
      "ом": 5706,
      "##даған": 5707,
      "##ымды": 5708,
      "178": 5709,
      "бірік": 5710,
      "##дігін": 5711,
      "ока": 5712,
      "##раж": 5713,
      "control": 5714,
      "өзбек": 5715,
      "febru": 5716,
      "february": 5717,
      "caus": 5718,
      "je": 5719,
      "келісім": 5720,
      "представ": 5721,
      "side": 5722,
      "help": 5723,
      "1975": 5724,
      "equ": 5725,
      "coun": 5726,
      "say": 5727,
      "##ушылар": 5728,
      "tot": 5729,
      "кітаб": 5730,
      "##ующ": 5731,
      "vir": 5732,
      "william": 5733,
      "1978": 5734,
      "мик": 5735,
      "sout": 5736,
      "пә": 5737,
      "##ney": 5738,
      "##ауға": 5739,
      "sum": 5740,
      "##ылар": 5741,
      "түрк": 5742,
      "96": 5743,
      "кафед": 5744,
      "масс": 5745,
      "жоб": 5746,
      "light": 5747,
      "##итор": 5748,
      "##еди": 5749,
      "##естік": 5750,
      "өмірб": 5751,
      "талап": 5752,
      "##лу": 5753,
      "##amm": 5754,
      "та": 5755,
      "##лап": 5756,
      "тыр": 5757,
      "1941": 5758,
      "tem": 5759,
      "arch": 5760,
      "турнир": 5761,
      "тіршілік": 5762,
      "vol": 5763,
      "1979": 5764,
      "1973": 5765,
      "жауын": 5766,
      "few": 5767,
      "план": 5768,
      "басында": 5769,
      "тұт": 5770,
      "тұңғыш": 5771,
      "##имар": 5772,
      "нан": 5773,
      "көне": 5774,
      "1983": 5775,
      "крист": 5776,
      "##еит": 5777,
      "танымал": 5778,
      "mer": 5779,
      "##анған": 5780,
      "қорыт": 5781,
      "international": 5782,
      "регион": 5783,
      "fire": 5784,
      "компан": 5785,
      "##аларында": 5786,
      "half": 5787,
      "зор": 5788,
      "эм": 5789,
      "ұи": 5790,
      "ленин": 5791,
      "бур": 5792,
      "депут": 5793,
      "түрлер": 5794,
      "##ropical": 5795,
      "ертіске": 5796,
      "шах": 5797,
      "медал": 5798,
      "статистикасы": 5799,
      "##жүз": 5800,
      "##люч": 5801,
      "having": 5802,
      "##ogle": 5803,
      "марапатталған": 5804,
      "кг": 5805,
      "##ator": 5806,
      "получ": 5807,
      "county": 5808,
      "экономика": 5809,
      "##отор": 5810,
      "связ": 5811,
      "##овтың": 5812,
      "жылдам": 5813,
      "қызметкер": 5814,
      "##ched": 5815,
      "тұрм": 5816,
      "тамыр": 5817,
      "мәселелер": 5818,
      "кеиінгі": 5819,
      "##ler": 5820,
      "party": 5821,
      "##ота": 5822,
      "1981": 5823,
      "##ног": 5824,
      "шың": 5825,
      "мағын": 5826,
      "қалың": 5827,
      "president": 5828,
      "оз": 5829,
      "##ize": 5830,
      "##ирован": 5831,
      "жор": 5832,
      "lab": 5833,
      "сырт": 5834,
      "##стері": 5835,
      "1966": 5836,
      "##орын": 5837,
      "google": 5838,
      "мекем": 5839,
      "often": 5840,
      "жататын": 5841,
      "дамы": 5842,
      "шұ": 5843,
      "##ipp": 5844,
      "##estern": 5845,
      "тәжір": 5846,
      "##стің": 5847,
      "##орда": 5848,
      "діни": 5849,
      "##аиын": 5850,
      "sug": 5851,
      "stat": 5852,
      "every": 5853,
      "қызметін": 5854,
      "##тель": 5855,
      "фин": 5856,
      "##ощ": 5857,
      "##лігінің": 5858,
      "##ғыс": 5859,
      "басып": 5860,
      "өсімдіктер": 5861,
      "##ograph": 5862,
      "beh": 5863,
      "##lex": 5864,
      "##ических": 5865,
      "##тыру": 5866,
      "##bc": 5867,
      "mo": 5868,
      "жек": 5869,
      "##ғақ": 5870,
      "века": 5871,
      "san": 5872,
      "##окс": 5873,
      "комитетінің": 5874,
      "##эр": 5875,
      "көбін": 5876,
      "##егі": 5877,
      "христ": 5878,
      "гран": 5879,
      "двина": 5880,
      "##uted": 5881,
      "италия": 5882,
      "ғасырлар": 5883,
      "оил": 5884,
      "##қыш": 5885,
      "1971": 5886,
      "pri": 5887,
      "##29": 5888,
      "never": 5889,
      "көмек": 5890,
      "came": 5891,
      "low": 5892,
      "##сау": 5893,
      "бург": 5894,
      "салыстыр": 5895,
      "общ": 5896,
      "##маи": 5897,
      "ус": 5898,
      "##ари": 5899,
      "take": 5900,
      "әкел": 5901,
      "england": 5902,
      "##енді": 5903,
      "sal": 5904,
      "қосым": 5905,
      "##wards": 5906,
      "пь": 5907,
      "mor": 5908,
      "дамыт": 5909,
      "дүниежүз": 5910,
      "84": 5911,
      "83": 5912,
      "##талып": 5913,
      "##еля": 5914,
      "республикалық": 5915,
      "##бег": 5916,
      "##илия": 5917,
      "##ленген": 5918,
      "common": 5919,
      "##ское": 5920,
      "##бат": 5921,
      "жеңіл": 5922,
      "royal": 5923,
      "нү": 5924,
      "##дарында": 5925,
      "without": 5926,
      "##ическои": 5927,
      "тәжіриб": 5928,
      "##ланған": 5929,
      "claim": 5930,
      "север": 5931,
      "шағын": 5932,
      "1968": 5933,
      "ұғым": 5934,
      "##енно": 5935,
      "bur": 5936,
      "аиында": 5937,
      "##itten": 5938,
      "see": 5939,
      "тобы": 5940,
      "player": 5941,
      "lond": 5942,
      "өтті": 5943,
      "##бегі": 5944,
      "iii": 5945,
      "considered": 5946,
      "##ости": 5947,
      "less": 5948,
      "fact": 5949,
      "cross": 5950,
      "rom": 5951,
      "##ерн": 5952,
      "сво": 5953,
      "атау": 5954,
      "aff": 5955,
      "london": 5956,
      "##ящ": 5957,
      "альб": 5958,
      "##түрлі": 5959,
      "chart": 5960,
      "тұрғыны": 5961,
      "##ama": 5962,
      "1940": 5963,
      "уақытта": 5964,
      "##сылман": 5965,
      "әдетте": 5966,
      "коми": 5967,
      "функ": 5968,
      "##par": 5969,
      "tre": 5970,
      "##eder": 5971,
      "career": 5972,
      "cover": 5973,
      "тез": 5974,
      "халқының": 5975,
      "чис": 5976,
      "level": 5977,
      "ескерткіш": 5978,
      "мұсылман": 5979,
      "##иялар": 5980,
      "##ruction": 5981,
      "mich": 5982,
      "жиын": 5983,
      "сіңірген": 5984,
      "despite": 5985,
      "жои": 5986,
      "көбінесе": 5987,
      "development": 5988,
      "хабар": 5989,
      "##ены": 5990,
      "##ana": 5991,
      "version": 5992,
      "санының": 5993,
      "comb": 5994,
      "жері": 5995,
      "histor": 5996,
      "олимпиада": 5997,
      "night": 5998,
      "түрінде": 5999,
      "cop": 6000,
      "зем": 6001,
      "оч": 6002,
      "fun": 6003,
      "love": 6004,
      "##rodu": 6005,
      "different": 6006,
      "инжен": 6007,
      "испания": 6008,
      "қарағанда": 6009,
      "химиялық": 6010,
      "орнат": 6011,
      "ғимар": 6012,
      "құиылысынан": 6013,
      "дек": 6014,
      "##іт": 6015,
      "аталған": 6016,
      "1967": 6017,
      "бав": 6018,
      "1964": 6019,
      "этн": 6020,
      "don": 6021,
      "ло": 6022,
      "sty": 6023,
      "себеб": 6024,
      "repres": 6025,
      "мұнда": 6026,
      "continued": 6027,
      "ten": 6028,
      "салынған": 6029,
      "sent": 6030,
      "##ском": 6031,
      "##ices": 6032,
      "род": 6033,
      "##дарда": 6034,
      "anim": 6035,
      "түскен": 6036,
      "соның": 6037,
      "##імп": 6038,
      "бала": 6039,
      "##ысын": 6040,
      "наход": 6041,
      "өндіру": 6042,
      "фар": 6043,
      "шару": 6044,
      "түи": 6045,
      "94": 6046,
      "##інді": 6047,
      "##ает": 6048,
      "##read": 6049,
      "##пии": 6050,
      "##нам": 6051,
      "military": 6052,
      "##есті": 6053,
      "әкесі": 6054,
      "облысына": 6055,
      "##ыч": 6056,
      "field": 6057,
      "шешім": 6058,
      "sel": 6059,
      "##ried": 6060,
      "белсенді": 6061,
      "төрағасы": 6062,
      "күрделі": 6063,
      "##яды": 6064,
      "жинал": 6065,
      "есеб": 6066,
      "поз": 6067,
      "let": 6068,
      "уә": 6069,
      "америк": 6070,
      "dav": 6071,
      "мои": 6072,
      "##нит": 6073,
      "әдеби": 6074,
      "##шік": 6075,
      "жеңімп": 6076,
      "құқық": 6077,
      "##ards": 6078,
      "моз": 6079,
      "##ещ": 6080,
      "##шель": 6081,
      "##деп": 6082,
      "##ымыз": 6083,
      "свои": 6084,
      "кеңесінің": 6085,
      "дәстүрлі": 6086,
      "ее": 6087,
      "даиын": 6088,
      "бастығы": 6089,
      "клим": 6090,
      "жасаған": 6091,
      "әртүрлі": 6092,
      "1969": 6093,
      "аитқан": 6094,
      "қаласына": 6095,
      "украи": 6096,
      "бап": 6097,
      "##ово": 6098,
      "1961": 6099,
      "##press": 6100,
      "93": 6101,
      "мектеб": 6102,
      "##ots": 6103,
      "1977": 6104,
      "ке": 6105,
      "##hel": 6106,
      "invol": 6107,
      "вид": 6108,
      "##гор": 6109,
      "марк": 6110,
      "country": 6111,
      "стар": 6112,
      "isbn": 6113,
      "litt": 6114,
      "cy": 6115,
      "##іні": 6116,
      "##umb": 6117,
      "mad": 6118,
      "##ck": 6119,
      "##onom": 6120,
      "өседі": 6121,
      "forces": 6122,
      "үр": 6123,
      "##vision": 6124,
      "##iend": 6125,
      "##иды": 6126,
      "chang": 6127,
      "wat": 6128,
      "іске": 6129,
      "поп": 6130,
      "бөлік": 6131,
      "mi": 6132,
      "##co": 6133,
      "influ": 6134,
      "##етті": 6135,
      "lat": 6136,
      "songs": 6137,
      "fle": 6138,
      "english": 6139,
      "announ": 6140,
      "##ones": 6141,
      "аур": 6142,
      "lim": 6143,
      "##дi": 6144,
      "##ослав": 6145,
      "көң": 6146,
      "hig": 6147,
      "аимақтар": 6148,
      "1965": 6149,
      "күміс": 6150,
      "знач": 6151,
      "##фор": 6152,
      "##езия": 6153,
      "жазылған": 6154,
      "канд": 6155,
      "##орск": 6156,
      "##aster": 6157,
      "иван": 6158,
      "become": 6159,
      "written": 6160,
      "аралас": 6161,
      "әңгі": 6162,
      "прог": 6163,
      "want": 6164,
      "жүрген": 6165,
      "назар": 6166,
      "отырған": 6167,
      "##ves": 6168,
      "##аим": 6169,
      "##ief": 6170,
      "сыилығының": 6171,
      "медаль": 6172,
      "алынған": 6173,
      "miss": 6174,
      "gold": 6175,
      "сост": 6176,
      "ради": 6177,
      "champions": 6178,
      "қап": 6179,
      "##ысқа": 6180,
      "phil": 6181,
      "##ияға": 6182,
      "көшесі": 6183,
      "арқ": 6184,
      "шығып": 6185,
      "дор": 6186,
      "пери": 6187,
      "##ует": 6188,
      "қаңтарында": 6189,
      "##ерлік": 6190,
      "1963": 6191,
      "шамамен": 6192,
      "##омб": 6193,
      "тораб": 6194,
      "arg": 6195,
      "анықтау": 6196,
      "келе": 6197,
      "highway": 6198,
      "##ғар": 6199,
      "colle": 6200,
      "иск": 6201,
      "98": 6202,
      "total": 6203,
      "street": 6204,
      "##атов": 6205,
      "матч": 6206,
      "##аяны": 6207,
      "iv": 6208,
      "##асымен": 6209,
      "кірген": 6210,
      "берілді": 6211,
      "##pg": 6212,
      "trad": 6213,
      "распол": 6214,
      "wal": 6215,
      "влад": 6216,
      "##уын": 6217,
      "##ивті": 6218,
      "жүлде": 6219,
      "капит": 6220,
      "10300": 6221,
      "атаиды": 6222,
      "1920": 6223,
      "moved": 6224,
      "##гіл": 6225,
      "##ірек": 6226,
      "##теріне": 6227,
      "мұз": 6228,
      "кеткен": 6229,
      "little": 6230,
      "tro": 6231,
      "класс": 6232,
      "содан": 6233,
      "қауымының": 6234,
      "фор": 6235,
      "басым": 6236,
      "негізін": 6237,
      "1957": 6238,
      "##iety": 6239,
      "##леи": 6240,
      "project": 6241,
      "қаласының": 6242,
      "1962": 6243,
      "lost": 6244,
      "##ese": 6245,
      "анал": 6246,
      "friend": 6247,
      "патш": 6248,
      "көтерілі": 6249,
      "##ита": 6250,
      "author": 6251,
      "father": 6252,
      "вост": 6253,
      "##иру": 6254,
      "неи": 6255,
      "жуық": 6256,
      "1958": 6257,
      "##цев": 6258,
      "халықтың": 6259,
      "##илер": 6260,
      "топырақ": 6261,
      "refer": 6262,
      "##que": 6263,
      "қаласындағы": 6264,
      "##ком": 6265,
      "##рах": 6266,
      "тікелеи": 6267,
      "rail": 6268,
      "##ника": 6269,
      "##ai": 6270,
      "ауданында": 6271,
      "broad": 6272,
      "бауыр": 6273,
      "жағдаилар": 6274,
      "##уіне": 6275,
      "существ": 6276,
      "conn": 6277,
      "##енных": 6278,
      "##нек": 6279,
      "##игі": 6280,
      "##ille": 6281,
      "##ops": 6282,
      "suggest": 6283,
      "##ams": 6284,
      "##деиді": 6285,
      "strong": 6286,
      "мир": 6287,
      "құрама": 6288,
      "##яв": 6289,
      "нес": 6290,
      "шоғыр": 6291,
      "building": 6292,
      "жасады": 6293,
      "position": 6294,
      "jack": 6295,
      "##iter": 6296,
      "bat": 6297,
      "бавария": 6298,
      "ауыз": 6299,
      "қалды": 6300,
      "##есіп": 6301,
      "##вор": 6302,
      "университетінің": 6303,
      "өнеркәсіп": 6304,
      "бола": 6305,
      "##лион": 6306,
      "табиғат": 6307,
      "##yn": 6308,
      "дене": 6309,
      "##ларының": 6310,
      "құрамасының": 6311,
      "1944": 6312,
      "тапсыр": 6313,
      "##ста": 6314,
      "##ура": 6315,
      "##iness": 6316,
      "нам": 6317,
      "шир": 6318,
      "##ged": 6319,
      "##ыны": 6320,
      "import": 6321,
      "жетістіктері": 6322,
      "son": 6323,
      "##ших": 6324,
      "сист": 6325,
      "математ": 6326,
      "баб": 6327,
      "##тес": 6328,
      "нақты": 6329,
      "##irc": 6330,
      "front": 6331,
      "pal": 6332,
      "қазақтың": 6333,
      "еркін": 6334,
      "##іпті": 6335,
      "##ows": 6336,
      "үшінші": 6337,
      "есім": 6338,
      "тен": 6339,
      "ала": 6340,
      "##деген": 6341,
      "жүргізу": 6342,
      "##қаи": 6343,
      "##ising": 6344,
      "ұя": 6345,
      "әрбір": 6346,
      "##сіздік": 6347,
      "болгариядағы": 6348,
      "##ца": 6349,
      "мәж": 6350,
      "##тану": 6351,
      "ins": 6352,
      "western": 6353,
      "ион": 6354,
      "социал": 6355,
      "##ление": 6356,
      "children": 6357,
      "ақм": 6358,
      "лин": 6359,
      "given": 6360,
      "hy": 6361,
      "##self": 6362,
      "қарам": 6363,
      "published": 6364,
      "шым": 6365,
      "шығады": 6366,
      "жасуш": 6367,
      "bgm": 6368,
      "tropical": 6369,
      "еткен": 6370,
      "ord": 6371,
      "ұиымдастыр": 6372,
      "##urs": 6373,
      "emaps": 6374,
      "bgmaps": 6375,
      "чемпионат": 6376,
      "тру": 6377,
      "##ылыстар": 6378,
      "##жар": 6379,
      "қаржы": 6380,
      "екатте": 6381,
      "шә": 6382,
      "только": 6383,
      "реак": 6384,
      "сил": 6385,
      "өмірбаяны": 6386,
      "002": 6387,
      "##elt": 6388,
      "отр": 6389,
      "##aint": 6390,
      "1948": 6391,
      "120": 6392,
      "мөлшері": 6393,
      "##ако": 6394,
      "институтының": 6395,
      "get": 6396,
      "hun": 6397,
      "юн": 6398,
      "меи": 6399,
      "find": 6400,
      "trav": 6401,
      "қарастыр": 6402,
      "##ғыстау": 6403,
      "қарсыл": 6404,
      "1959": 6405,
      "400": 6406,
      "##ета": 6407,
      "##шар": 6408,
      "ұжым": 6409,
      "өит": 6410,
      "зия": 6411,
      "mot": 6412,
      "көлемі": 6413,
      "гу": 6414,
      "##дармен": 6415,
      "вод": 6416,
      "қабылдан": 6417,
      "##ency": 6418,
      "ұқсас": 6419,
      "##терінде": 6420,
      "young": 6421,
      "##адр": 6422,
      "particular": 6423,
      "read": 6424,
      "мақал": 6425,
      "##lin": 6426,
      "using": 6427,
      "1939": 6428,
      "age": 6429,
      "##ались": 6430,
      "буд": 6431,
      "##пт": 6432,
      "hour": 6433,
      "дәлел": 6434,
      "wall": 6435,
      "##uck": 6436,
      "##оян": 6437,
      "##ches": 6438,
      "##ования": 6439,
      "вас": 6440,
      "##sequ": 6441,
      "түседі": 6442,
      "кандида": 6443,
      "##cess": 6444,
      "имен": 6445,
      "##34": 6446,
      "##ьян": 6447,
      "##так": 6448,
      "hurr": 6449,
      "тұрғындардың": 6450,
      "ауылынан": 6451,
      "##быр": 6452,
      "##нев": 6453,
      "compet": 6454,
      "requ": 6455,
      "hurrican": 6456,
      "##ильям": 6457,
      "1942": 6458,
      "produced": 6459,
      "returned": 6460,
      "##тқыш": 6461,
      "eight": 6462,
      "материал": 6463,
      "қим": 6464,
      "##ories": 6465,
      "қарақ": 6466,
      "##аил": 6467,
      "сом": 6468,
      "ғылымдарының": 6469,
      "tur": 6470,
      "##дерде": 6471,
      "атом": 6472,
      "church": 6473,
      "извест": 6474,
      "cas": 6475,
      "жағы": 6476,
      "шыр": 6477,
      "##oint": 6478,
      "күрес": 6479,
      "мог": 6480,
      "ақпарат": 6481,
      "somet": 6482,
      "граф": 6483,
      "аман": 6484,
      "глав": 6485,
      "қарат": 6486,
      "ғасырда": 6487,
      "official": 6488,
      "##ыми": 6489,
      "##ham": 6490,
      "##ха": 6491,
      "комисс": 6492,
      "одағының": 6493,
      "critic": 6494,
      "russ": 6495,
      "##ысына": 6496,
      "##қоим": 6497,
      "##арту": 6498,
      "##ef": 6499,
      "автономиялық": 6500,
      "өиткені": 6501,
      "vo": 6502,
      "жүк": 6503,
      "атқару": 6504,
      "##оген": 6505,
      "##асти": 6506,
      "меші": 6507,
      "каль": 6508,
      "##дерге": 6509,
      "құрамдас": 6510,
      "павло": 6511,
      "##ald": 6512,
      "дұр": 6513,
      "шот": 6514,
      "әкімшілігі": 6515,
      "##гi": 6516,
      "##истрі": 6517,
      "include": 6518,
      "1938": 6519,
      "net": 6520,
      "##echn": 6521,
      "біздің": 6522,
      "##rew": 6523,
      "##дарына": 6524,
      "христиан": 6525,
      "performance": 6526,
      "##нос": 6527,
      "1956": 6528,
      "players": 6529,
      "тегі": 6530,
      "du": 6531,
      "##ева": 6532,
      "ықпал": 6533,
      "дүниежүзілік": 6534,
      "ball": 6535,
      "маусымда": 6536,
      "кеңесіне": 6537,
      "gave": 6538,
      "суқоим": 6539,
      "сүт": 6540,
      "себебі": 6541,
      "free": 6542,
      "асс": 6543,
      "##ага": 6544,
      "вос": 6545,
      "##гель": 6546,
      "##ford": 6547,
      "reported": 6548,
      "cіл": 6549,
      "went": 6550,
      "surv": 6551,
      "##един": 6552,
      "##бан": 6553,
      "television": 6554,
      "ететін": 6555,
      "қаираткері": 6556,
      "need": 6557,
      "##ailed": 6558,
      "пан": 6559,
      "center": 6560,
      "cілтемелер": 6561,
      "орнына": 6562,
      "popular": 6563,
      "##me": 6564,
      "stated": 6565,
      "губ": 6566,
      "моңғ": 6567,
      "александр": 6568,
      "##lo": 6569,
      "маңғыстау": 6570,
      "cost": 6571,
      "мұғал": 6572,
      "interest": 6573,
      "бог": 6574,
      "special": 6575,
      "дет": 6576,
      "кәсіпорын": 6577,
      "cult": 6578,
      "доп": 6579,
      "моңғол": 6580,
      "earl": 6581,
      "dev": 6582,
      "##ическии": 6583,
      "##гінен": 6584,
      "61": 6585,
      "##станов": 6586,
      "құж": 6587,
      "mass": 6588,
      "қостан": 6589,
      "атқарды": 6590,
      "производ": 6591,
      "xix": 6592,
      "докторы": 6593,
      "лит": 6594,
      "қола": 6595,
      "throughout": 6596,
      "идея": 6597,
      "##osp": 6598,
      "гершель": 6599,
      "##лады": 6600,
      "республика": 6601,
      "бiл": 6602,
      "уильям": 6603,
      "##35": 6604,
      "жетісу": 6605,
      "миллион": 6606,
      "##ead": 6607,
      "бю": 6608,
      "##еим": 6609,
      "1943": 6610,
      "тағам": 6611,
      "##38": 6612,
      "күл": 6613,
      "circ": 6614,
      "manag": 6615,
      "энциклопедиясы": 6616,
      "оф": 6617,
      "ег": 6618,
      "киім": 6619,
      "##ание": 6620,
      "көрсету": 6621,
      "central": 6622,
      "бөлшек": 6623,
      "women": 6624,
      "иль": 6625,
      "сәт": 6626,
      "револю": 6627,
      "ұсақ": 6628,
      "##терде": 6629,
      "культ": 6630,
      "##оло": 6631,
      "##ларын": 6632,
      "1946": 6633,
      "қызылорда": 6634,
      "hot": 6635,
      "жазушы": 6636,
      "полит": 6637,
      "live": 6638,
      "##қаш": 6639,
      "зан": 6640,
      "қыл": 6641,
      "1954": 6642,
      "depart": 6643,
      "grand": 6644,
      "##ably": 6645,
      "2020": 6646,
      "ap": 6647,
      "ын": 6648,
      "##ploy": 6649,
      "should": 6650,
      "179": 6651,
      "техникалық": 6652,
      "мәр": 6653,
      "әлемдік": 6654,
      "тәсіл": 6655,
      "sat": 6656,
      "##used": 6657,
      "sun": 6658,
      "систем": 6659,
      "##ократ": 6660,
      "hall": 6661,
      "##дықтар": 6662,
      "көрсетеді": 6663,
      "##xim": 6664,
      "туынды": 6665,
      "political": 6666,
      "қосымша": 6667,
      "дө": 6668,
      "әуез": 6669,
      "aud": 6670,
      "##dom": 6671,
      "кент": 6672,
      "##дылық": 6673,
      "барысында": 6674,
      "##ress": 6675,
      "демографиялық": 6676,
      "сұи": 6677,
      "ерекшелік": 6678,
      "defe": 6679,
      "музыка": 6680,
      "никол": 6681,
      "техник": 6682,
      "##бет": 6683,
      "hom": 6684,
      "coast": 6685,
      "##аларға": 6686,
      "өзгерісі": 6687,
      "қостанаи": 6688,
      "##aign": 6689,
      "павлодар": 6690,
      "techn": 6691,
      "##ологиясы": 6692,
      "prim": 6693,
      "##остран": 6694,
      "берген": 6695,
      "##ларды": 6696,
      "72": 6697,
      "мих": 6698,
      "либ": 6699,
      "ground": 6700,
      "дос": 6701,
      "өзіне": 6702,
      "present": 6703,
      "fac": 6704,
      "қалады": 6705,
      "қышқыл": 6706,
      "upon": 6707,
      "##гімен": 6708,
      "ugc": 6709,
      "suff": 6710,
      "осындаи": 6711,
      "australia": 6712,
      "жасал": 6713,
      "ауа": 6714,
      "ду": 6715,
      "gir": 6716,
      "##ицы": 6717,
      "region": 6718,
      "##зия": 6719,
      "неміс": 6720,
      "роб": 6721,
      "уез": 6722,
      "introdu": 6723,
      "##play": 6724,
      "fall": 6725,
      "##ape": 6726,
      "алатын": 6727,
      "71": 6728,
      "елдің": 6729,
      "once": 6730,
      "музыкалық": 6731,
      "##36": 6732,
      "қалыпт": 6733,
      "көзқар": 6734,
      "cam": 6735,
      "раст": 6736,
      "characters": 6737,
      "##vers": 6738,
      "##овои": 6739,
      "мұраж": 6740,
      "вып": 6741,
      "##дерінде": 6742,
      "шығармашыл": 6743,
      "dou": 6744,
      "атанды": 6745,
      "жен": 6746,
      "campaign": 6747,
      "язы": 6748,
      "##талар": 6749,
      "##ические": 6750,
      "каспии": 6751,
      "##iмдер": 6752,
      "күз": 6753,
      "сағасына": 6754,
      "making": 6755,
      "station": 6756,
      "нәр": 6757,
      "terr": 6758,
      "өлшем": 6759,
      "sn": 6760,
      "прив": 6761,
      "fem": 6762,
      "##ges": 6763,
      "himself": 6764,
      "brother": 6765,
      "hor": 6766,
      "жазған": 6767,
      "аиқын": 6768,
      "##ефа": 6769,
      "саз": 6770,
      "ауыс": 6771,
      "динамикасы": 6772,
      "қатысқан": 6773,
      "hol": 6774,
      "##дады": 6775,
      "##абр": 6776,
      "recorded": 6777,
      "ru": 6778,
      "атап": 6779,
      "##alth": 6780,
      "тарал": 6781,
      "##ries": 6782,
      "паидалану": 6783,
      "некотор": 6784,
      "қорек": 6785,
      "##ино": 6786,
      "кино": 6787,
      "##көл": 6788,
      "##іліп": 6789,
      "мног": 6790,
      "эст": 6791,
      "қалп": 6792,
      "##тасы": 6793,
      "шөл": 6794,
      "ян": 6795,
      "##изн": 6796,
      "деиств": 6797,
      "башқұртстанның": 6798,
      "160": 6799,
      "##тауы": 6800,
      "##iment": 6801,
      "печорск": 6802,
      "мақс": 6803,
      "produc": 6804,
      "##ael": 6805,
      "##егион": 6806,
      "cro": 6807,
      "ажыр": 6808,
      "promot": 6809,
      "##сты": 6810,
      "двинск": 6811,
      "hit": 6812,
      "құрметті": 6813,
      "қызметі": 6814,
      "қабат": 6815,
      "championship": 6816,
      "боя": 6817,
      "фон": 6818,
      "электрон": 6819,
      "##орон": 6820,
      "##ensive": 6821,
      "fav": 6822,
      "##day": 6823,
      "көрген": 6824,
      "##осфер": 6825,
      "провинциясының": 6826,
      "ао": 6827,
      "тиіс": 6828,
      "сеи": 6829,
      "супер": 6830,
      "тұқымд": 6831,
      "кот": 6832,
      "hurricane": 6833,
      "aver": 6834,
      "муниципалдық": 6835,
      "##до": 6836,
      "организм": 6837,
      "ядр": 6838,
      "##iting": 6839,
      "1947": 6840,
      "##rict": 6841,
      "america": 6842,
      "bi": 6843,
      "##лерінің": 6844,
      "африка": 6845,
      "across": 6846,
      "##craft": 6847,
      "hold": 6848,
      "##ущ": 6849,
      "##нии": 6850,
      "ill": 6851,
      "қылм": 6852,
      "##ring": 6853,
      "##шии": 6854,
      "может": 6855,
      "қаин": 6856,
      "поч": 6857,
      "awards": 6858,
      "европ": 6859,
      "##ритания": 6860,
      "writing": 6861,
      "бірлік": 6862,
      "works": 6863,
      "##дор": 6864,
      "ибн": 6865,
      "соқ": 6866,
      "econom": 6867,
      "modern": 6868,
      "шетел": 6869,
      "##евич": 6870,
      "full": 6871,
      "signific": 6872,
      "##ked": 6873,
      "##ябр": 6874,
      "салық": 6875,
      "##ett": 6876,
      "cat": 6877,
      "james": 6878,
      "##егор": 6879,
      "ит": 6880,
      "##itive": 6881,
      "office": 6882,
      "иран": 6883,
      "лауре": 6884,
      "##37": 6885,
      "##ества": 6886,
      "особ": 6887,
      "тіпті": 6888,
      "акт": 6889,
      "developed": 6890,
      "##ned": 6891,
      "di": 6892,
      "карьер": 6893,
      "қиын": 6894,
      "##yl": 6895,
      "##ius": 6896,
      "##істер": 6897,
      "##деріне": 6898,
      "спир": 6899,
      "##iк": 6900,
      "various": 6901,
      "##ықтың": 6902,
      "enc": 6903,
      "опр": 6904,
      "петр": 6905,
      "##ска": 6906,
      "non": 6907,
      "ақмола": 6908,
      "big": 6909,
      "##ration": 6910,
      "##стру": 6911,
      "паидаланылады": 6912,
      "indust": 6913,
      "##ength": 6914,
      "##ument": 6915,
      "доб": 6916,
      "құдаи": 6917,
      "істеиді": 6918,
      "##вин": 6919,
      "1937": 6920,
      "##ғында": 6921,
      "human": 6922,
      "instead": 6923,
      "##иясында": 6924,
      "мына": 6925,
      "гип": 6926,
      "##ұқ": 6927,
      "алдың": 6928,
      "кеңесi": 6929,
      "business": 6930,
      "лим": 6931,
      "##есте": 6932,
      "##ингия": 6933,
      "##екул": 6934,
      "##iмдерiнiң": 6935,
      "##иция": 6936,
      "әдебиеті": 6937,
      "қарапаиым": 6938,
      "bri": 6939,
      "каб": 6940,
      "title": 6941,
      "##ался": 6942,
      "жасап": 6943,
      "sen": 6944,
      "##нер": 6945,
      "украина": 6946,
      "шер": 6947,
      "окато": 6948,
      "мозель": 6949,
      "аспап": 6950,
      "красно": 6951,
      "##65": 6952,
      "беретін": 6953,
      "1918": 6954,
      "бiлiмдерiнiң": 6955,
      "назван": 6956,
      "насел": 6957,
      "##acy": 6958,
      "жаилы": 6959,
      "announced": 6960,
      "##қаз": 6961,
      "##лом": 6962,
      "destro": 6963,
      "##48": 6964,
      "көлік": 6965,
      "sea": 6966,
      "born": 6967,
      "##сының": 6968,
      "##ымы": 6969,
      "ur": 6970,
      "cond": 6971,
      "составля": 6972,
      "##дения": 6973,
      "thought": 6974,
      "##дов": 6975,
      "##еннои": 6976,
      "ереж": 6977,
      "сте": 6978,
      "##имер": 6979,
      "key": 6980,
      "жеріне": 6981,
      "сак": 6982,
      "##стық": 6983,
      "body": 6984,
      "наш": 6985,
      "англия": 6986,
      "дұрыс": 6987,
      "##цип": 6988,
      "ide": 6989,
      "##стың": 6990,
      "жапыр": 6991,
      "##ither": 6992,
      "композ": 6993,
      "##түстігінде": 6994,
      "sym": 6995,
      "##мент": 6996,
      "уефа": 6997,
      "remained": 6998,
      "ft": 6999,
      "fif": 7000,
      "се": 7001,
      "pra": 7002,
      "created": 7003,
      "мазмұ": 7004,
      "поль": 7005,
      "адамдардың": 7006,
      "шір": 7007,
      "too": 7008,
      "struct": 7009,
      "кіш": 7010,
      "##гіт": 7011,
      "которые": 7012,
      "зам": 7013,
      "1917": 7014,
      "obs": 7015,
      "есептел": 7016,
      "look": 7017,
      "кав": 7018,
      "##ография": 7019,
      "послед": 7020,
      "институтын": 7021,
      "ін": 7022,
      "жасаиды": 7023,
      "оқиғ": 7024,
      "##бин": 7025,
      "seven": 7026,
      "анасы": 7027,
      "base": 7028,
      "curr": 7029,
      "өрі": 7030,
      "##ость": 7031,
      "аталатын": 7032,
      "##далған": 7033,
      "екенін": 7034,
      "put": 7035,
      "##елерінің": 7036,
      "##ығымен": 7037,
      "тиімді": 7038,
      "құс": 7039,
      "бастапқы": 7040,
      "##иш": 7041,
      "##енко": 7042,
      "сирек": 7043,
      "southern": 7044,
      "жерге": 7045,
      "барлығы": 7046,
      "##гов": 7047,
      "1936": 7048,
      "##мат": 7049,
      "died": 7050,
      "түн": 7051,
      "футболшылары": 7052,
      "аңыз": 7053,
      "втор": 7054,
      "sil": 7055,
      "##гу": 7056,
      "генер": 7057,
      "##ering": 7058,
      "еңбегі": 7059,
      "northern": 7060,
      "##ақтары": 7061,
      "relations": 7062,
      "которыи": 7063,
      "быт": 7064,
      "сі": 7065,
      "hill": 7066,
      "##дарынан": 7067,
      "george": 7068,
      "##елердің": 7069,
      "аустрия": 7070,
      "тои": 7071,
      "##ened": 7072,
      "noted": 7073,
      "жанр": 7074,
      "кәсі": 7075,
      "секілді": 7076,
      "vill": 7077,
      "##45": 7078,
      "##дығын": 7079,
      "браз": 7080,
      "болж": 7081,
      "##сия": 7082,
      "вн": 7083,
      "##егда": 7084,
      "mac": 7085,
      "өңдеу": 7086,
      "##тат": 7087,
      "##ациялық": 7088,
      "##ращ": 7089,
      "1955": 7090,
      "##olution": 7091,
      "дүни": 7092,
      "thom": 7093,
      "бөлініс": 7094,
      "велик": 7095,
      "##бен": 7096,
      "көңіл": 7097,
      "##держ": 7098,
      "##itted": 7099,
      "mm": 7100,
      "төң": 7101,
      "##ического": 7102,
      "шебер": 7103,
      "##енныи": 7104,
      "areas": 7105,
      "kingdom": 7106,
      "##ағат": 7107,
      "den": 7108,
      "jpg": 7109,
      "##ara": 7110,
      "##ушілер": 7111,
      "мұхит": 7112,
      "felt": 7113,
      "1949": 7114,
      "##сек": 7115,
      "архе": 7116,
      "қабіл": 7117,
      "##уде": 7118,
      "вар": 7119,
      "драм": 7120,
      "##fic": 7121,
      "##иттер": 7122,
      "sit": 7123,
      "decl": 7124,
      "телефоны": 7125,
      "##шілері": 7126,
      "##тек": 7127,
      "между": 7128,
      "##erc": 7129,
      "кос": 7130,
      "##iction": 7131,
      "aircraft": 7132,
      "months": 7133,
      "race": 7134,
      "бүр": 7135,
      "##field": 7136,
      "11530": 7137,
      "вз": 7138,
      "##work": 7139,
      "жалғыз": 7140,
      "бөлімш": 7141,
      "##ерк": 7142,
      "наурызда": 7143,
      "ident": 7144,
      "период": 7145,
      "они": 7146,
      "hon": 7147,
      "fort": 7148,
      "бірдеи": 7149,
      "##ализ": 7150,
      "er": 7151,
      "##orts": 7152,
      "brown": 7153,
      "нәтижесі": 7154,
      "away": 7155,
      "god": 7156,
      "таш": 7157,
      "1953": 7158,
      "##arch": 7159,
      "қож": 7160,
      "eg": 7161,
      "сос": 7162,
      "seen": 7163,
      "тараған": 7164,
      "eventually": 7165,
      "los": 7166,
      "##ality": 7167,
      "##илл": 7168,
      "que": 7169,
      "егін": 7170,
      "case": 7171,
      "##idence": 7172,
      "қабырғ": 7173,
      "кеп": 7174,
      "##iec": 7175,
      "өркен": 7176,
      "молекул": 7177,
      "редактор": 7178,
      "сәулет": 7179,
      "style": 7180,
      "meet": 7181,
      "машин": 7182,
      "##елерін": 7183,
      "жүрек": 7184,
      "agre": 7185,
      "химия": 7186,
      "wood": 7187,
      "әлі": 7188,
      "бөлімінің": 7189,
      "однако": 7190,
      "##елек": 7191,
      "esc": 7192,
      "##ститу": 7193,
      "кетті": 7194,
      "lou": 7195,
      "теңізі": 7196,
      "волог": 7197,
      "##оид": 7198,
      "##ники": 7199,
      "canada": 7200,
      "##tain": 7201,
      "miles": 7202,
      "##альнои": 7203,
      "##utes": 7204,
      "##ple": 7205,
      "алдында": 7206,
      "дамыған": 7207,
      "##ino": 7208,
      "##кл": 7209,
      "##ици": 7210,
      "аудандық": 7211,
      "process": 7212,
      "construction": 7213,
      "##кои": 7214,
      "##most": 7215,
      "человек": 7216,
      "деиді": 7217,
      "кеиіп": 7218,
      "social": 7219,
      "jour": 7220,
      "##итр": 7221,
      "bom": 7222,
      "rich": 7223,
      "лат": 7224,
      "range": 7225,
      "mean": 7226,
      "хол": 7227,
      "civ": 7228,
      "әуезов": 7229,
      "##уші": 7230,
      "football": 7231,
      "hard": 7232,
      "toget": 7233,
      "invest": 7234,
      "##нет": 7235,
      "##аммед": 7236,
      "артық": 7237,
      "ван": 7238,
      "stri": 7239,
      "институтында": 7240,
      "together": 7241,
      "атақты": 7242,
      "##isted": 7243,
      "кері": 7244,
      "пром": 7245,
      "##ements": 7246,
      "ships": 7247,
      "алдыңғы": 7248,
      "бірқ": 7249,
      "##ization": 7250,
      "фот": 7251,
      "сәуірде": 7252,
      "##ият": 7253,
      "алқ": 7254,
      "served": 7255,
      "осылаи": 7256,
      "saw": 7257,
      "австр": 7258,
      "text": 7259,
      "activ": 7260,
      "##қызы": 7261,
      "250": 7262,
      "significant": 7263,
      "bow": 7264,
      "reached": 7265,
      "resear": 7266,
      "португалияның": 7267,
      "successful": 7268,
      "81": 7269,
      "##еся": 7270,
      "##егионының": 7271,
      "##ено": 7272,
      "##особ": 7273,
      "откр": 7274,
      "доктор": 7275,
      "различ": 7276,
      "1952": 7277,
      "жән": 7278,
      "##термен": 7279,
      "##elling": 7280,
      "grow": 7281,
      "журналист": 7282,
      "қақп": 7283,
      "sus": 7284,
      "lang": 7285,
      "ul": 7286,
      "шат": 7287,
      "сүиек": 7288,
      "##ауыт": 7289,
      "қоса": 7290,
      "##39": 7291,
      "асты": 7292,
      "##ways": 7293,
      "rh": 7294,
      "##raw": 7295,
      "130": 7296,
      "##таль": 7297,
      "ұиымдастыру": 7298,
      "killed": 7299,
      "fight": 7300,
      "taken": 7301,
      "агр": 7302,
      "##ecut": 7303,
      "жұмырт": 7304,
      "##діру": 7305,
      "heavy": 7306,
      "##ects": 7307,
      "afr": 7308,
      "атқарады": 7309,
      "##мек": 7310,
      "өндіріс": 7311,
      "неск": 7312,
      "мерек": 7313,
      "##жыл": 7314,
      "performed": 7315,
      "өзгерістер": 7316,
      "істер": 7317,
      "##сар": 7318,
      "алуға": 7319,
      "##ходит": 7320,
      "girl": 7321,
      "mix": 7322,
      "word": 7323,
      "action": 7324,
      "сатып": 7325,
      "беинел": 7326,
      "древ": 7327,
      "##иков": 7328,
      "##етикалық": 7329,
      "college": 7330,
      "##тандыру": 7331,
      "соғысы": 7332,
      "фрег": 7333,
      "аппар": 7334,
      "##але": 7335,
      "##ома": 7336,
      "establ": 7337,
      "пон": 7338,
      "##ометр": 7339,
      "шап": 7340,
      "##cent": 7341,
      "конститу": 7342,
      "does": 7343,
      "иегері": 7344,
      "алаш": 7345,
      "проб": 7346,
      "белгісі": 7347,
      "##47": 7348,
      "басқ": 7349,
      "##даиды": 7350,
      "располож": 7351,
      "мәс": 7352,
      "##шылардың": 7353,
      "қорытынды": 7354,
      "##ids": 7355,
      "норман": 7356,
      "82": 7357,
      "ма": 7358,
      "##ster": 7359,
      "іл": 7360,
      "кетеді": 7361,
      "##аться": 7362,
      "##аларда": 7363,
      "режиссер": 7364,
      "стад": 7365,
      "тәрб": 7366,
      "одақ": 7367,
      "##аун": 7368,
      "зер": 7369,
      "алла": 7370,
      "##герлік": 7371,
      "##ирық": 7372,
      "##эль": 7373,
      "adm": 7374,
      "david": 7375,
      "cert": 7376,
      "орындары": 7377,
      "discover": 7378,
      "cut": 7379,
      "##малы": 7380,
      "##тез": 7381,
      "көктем": 7382,
      "біріктір": 7383,
      "кеңінен": 7384,
      "member": 7385,
      "##iated": 7386,
      "##мон": 7387,
      "португалиядағы": 7388,
      "губерн": 7389,
      "mur": 7390,
      "##ena": 7391,
      "##bur": 7392,
      "патша": 7393,
      "отырады": 7394,
      "##ному": 7395,
      "бұрыш": 7396,
      "##шіп": 7397,
      "қаираткер": 7398,
      "директор": 7399,
      "##енные": 7400,
      "##дат": 7401,
      "абс": 7402,
      "император": 7403,
      "ұн": 7404,
      "##егін": 7405,
      "##кан": 7406,
      "әиелдер": 7407,
      "үндістан": 7408,
      "edu": 7409,
      "нің": 7410,
      "практ": 7411,
      "##іміз": 7412,
      "##лерін": 7413,
      "followed": 7414,
      "tom": 7415,
      "қоры": 7416,
      "squad": 7417,
      "1951": 7418,
      "91": 7419,
      "jud": 7420,
      "inform": 7421,
      "##отов": 7422,
      "creat": 7423,
      "ақша": 7424,
      "##ностью": 7425,
      "##be": 7426,
      "жапырақ": 7427,
      "established": 7428,
      "##ынып": 7429,
      "##иканың": 7430,
      "мақсатында": 7431,
      "ном": 7432,
      "келетін": 7433,
      "жабдық": 7434,
      "фрегезия": 7435,
      "##меи": 7436,
      "becom": 7437,
      "проис": 7438,
      "director": 7439,
      "##иса": 7440,
      "денсау": 7441,
      "норм": 7442,
      "engine": 7443,
      "радио": 7444,
      "midd": 7445,
      "көме": 7446,
      "##еров": 7447,
      "стол": 7448,
      "қалыптасқан": 7449,
      "mother": 7450,
      "плат": 7451,
      "ыр": 7452,
      "салып": 7453,
      "бүгін": 7454,
      "нью": 7455,
      "##ox": 7456,
      "істеді": 7457,
      "соврем": 7458,
      "hop": 7459,
      "##head": 7460,
      "сю": 7461,
      "destroy": 7462,
      "##ектор": 7463,
      "таралған": 7464,
      "участ": 7465,
      "points": 7466,
      "өк": 7467,
      "##геи": 7468,
      "##енті": 7469,
      "commission": 7470,
      "reb": 7471,
      "##ateg": 7472,
      "pred": 7473,
      "impro": 7474,
      "принцип": 7475,
      "magaz": 7476,
      "бе": 7477,
      "ям": 7478,
      "originally": 7479,
      "бастаиды": 7480,
      "карл": 7481,
      "indep": 7482,
      "features": 7483,
      "##уан": 7484,
      "92": 7485,
      "##odes": 7486,
      "виз": 7487,
      "##itar": 7488,
      "mal": 7489,
      "##ании": 7490,
      "түсіп": 7491,
      "france": 7492,
      "##цы": 7493,
      "##аяу": 7494,
      "others": 7495,
      "##стен": 7496,
      "australian": 7497,
      "әңгім": 7498,
      "##den": 7499,
      "##ақтың": 7500,
      "##пор": 7501,
      "##тығы": 7502,
      "##oph": 7503,
      "mater": 7504,
      "ital": 7505,
      "##ви": 7506,
      "##альных": 7507,
      "хатшысы": 7508,
      "##вол": 7509,
      "robert": 7510,
      "субр": 7511,
      "##адан": 7512,
      "##ba": 7513,
      "##опр": 7514,
      "##ample": 7515,
      "independ": 7516,
      "##ani": 7517,
      "##ским": 7518,
      "кеңесі": 7519,
      "маңызы": 7520,
      "тақырып": 7521,
      "регионына": 7522,
      "##ature": 7523,
      "субрегионының": 7524,
      "##кии": 7525,
      "футболшы": 7526,
      "тағаиын": 7527,
      "##ило": 7528,
      "жетеді": 7529,
      "шу": 7530,
      "слов": 7531,
      "wid": 7532,
      "сог": 7533,
      "деректер": 7534,
      "##ять": 7535,
      "represent": 7536,
      "tax": 7537,
      "жетті": 7538,
      "лиц": 7539,
      "құрылысы": 7540,
      "cur": 7541,
      "##илі": 7542,
      "лонд": 7543,
      "эв": 7544,
      "able": 7545,
      "дес": 7546,
      "entire": 7547,
      "caused": 7548,
      "##cil": 7549,
      "бұдан": 7550,
      "студент": 7551,
      "mic": 7552,
      "бірт": 7553,
      "##лерді": 7554,
      "оларға": 7555,
      "appeared": 7556,
      "rather": 7557,
      "қыркүиекте": 7558,
      "зв": 7559,
      "көбеи": 7560,
      "##58": 7561,
      "сонда": 7562,
      "компью": 7563,
      "insp": 7564,
      "ур": 7565,
      "##меиді": 7566,
      "жүн": 7567,
      "michael": 7568,
      "ог": 7569,
      "##ript": 7570,
      "##жаи": 7571,
      "located": 7572,
      "петер": 7573,
      "##aval": 7574,
      "болғандықтан": 7575,
      "##ество": 7576,
      "feder": 7577,
      "дала": 7578,
      "##eth": 7579,
      "voc": 7580,
      "сібір": 7581,
      "educ": 7582,
      "шығармалары": 7583,
      "subsequ": 7584,
      "ыды": 7585,
      "##wood": 7586,
      "unc": 7587,
      "##рес": 7588,
      "##33": 7589,
      "civil": 7590,
      "##ground": 7591,
      "gar": 7592,
      "1934": 7593,
      "сақталған": 7594,
      "##emy": 7595,
      "беткеи": 7596,
      "bal": 7597,
      "##құл": 7598,
      "өлшеу": 7599,
      "##66": 7600,
      "характер": 7601,
      "##асу": 7602,
      "green": 7603,
      "tal": 7604,
      "брит": 7605,
      "ут": 7606,
      "prem": 7607,
      "фактор": 7608,
      "washing": 7609,
      "princ": 7610,
      "site": 7611,
      "##уа": 7612,
      "iras": 7613,
      "##тарына": 7614,
      "этом": 7615,
      "ven": 7616,
      "див": 7617,
      "##удің": 7618,
      "1928": 7619,
      "зал": 7620,
      "##ился": 7621,
      "##осы": 7622,
      "feet": 7623,
      "люб": 7624,
      "1932": 7625,
      "кир": 7626,
      "##ville": 7627,
      "population": 7628,
      "қоныс": 7629,
      "##iers": 7630,
      "mart": 7631,
      "##иясына": 7632,
      "паид": 7633,
      "билеу": 7634,
      "әмір": 7635,
      "##enth": 7636,
      "paul": 7637,
      "##реч": 7638,
      "боз": 7639,
      "өлім": 7640,
      "heart": 7641,
      "critics": 7642,
      "radio": 7643,
      "ағын": 7644,
      "против": 7645,
      "лауреаты": 7646,
      "біріне": 7647,
      "выч": 7648,
      "rac": 7649,
      "##гіндегі": 7650,
      "##фа": 7651,
      "##cher": 7652,
      "##оне": 7653,
      "владим": 7654,
      "##enced": 7655,
      "##отр": 7656,
      "білдіреді": 7657,
      "ран": 7658,
      "желез": 7659,
      "ток": 7660,
      "secret": 7661,
      "төб": 7662,
      "sam": 7663,
      "өндір": 7664,
      "сағат": 7665,
      "##дақ": 7666,
      "өлтір": 7667,
      "қана": 7668,
      "##ico": 7669,
      "кале": 7670,
      "ыл": 7671,
      "eastern": 7672,
      "демократ": 7673,
      "ver": 7674,
      "жөнінде": 7675,
      "наст": 7676,
      "177": 7677,
      "##мы": 7678,
      "жапон": 7679,
      "қою": 7680,
      "палат": 7681,
      "мамырда": 7682,
      "##44": 7683,
      "stone": 7684,
      "спек": 7685,
      "sour": 7686,
      "ақыл": 7687,
      "##ительно": 7688,
      "моск": 7689,
      "##анс": 7690,
      "толқын": 7691,
      "украин": 7692,
      "fund": 7693,
      "ауыстыр": 7694,
      "архит": 7695,
      "развит": 7696,
      "отб": 7697,
      "процесс": 7698,
      "##go": 7699,
      "playing": 7700,
      "өндірістік": 7701,
      "жасыл": 7702,
      "interv": 7703,
      "##берг": 7704,
      "##ogn": 7705,
      "свер": 7706,
      "қандаи": 7707,
      "peak": 7708,
      "##дә": 7709,
      "иор": 7710,
      "##imin": 7711,
      "##ование": 7712,
      "##ышев": 7713,
      "сезім": 7714,
      "norm": 7715,
      "ұстан": 7716,
      "шілдеде": 7717,
      "ноб": 7718,
      "вологда": 7719,
      "##here": 7720,
      "##aker": 7721,
      "медицин": 7722,
      "##яс": 7723,
      "111": 7724,
      "минут": 7725,
      "bridge": 7726,
      "##нем": 7727,
      "##аилы": 7728,
      "japanese": 7729,
      "washington": 7730,
      "кит": 7731,
      "ұлыб": 7732,
      "##жет": 7733,
      "аралық": 7734,
      "added": 7735,
      "##меген": 7736,
      "important": 7737,
      "##вел": 7738,
      "##ера": 7739,
      "stage": 7740,
      "жам": 7741,
      "леи": 7742,
      "##спен": 7743,
      "1929": 7744,
      "орденінің": 7745,
      "scene": 7746,
      "цел": 7747,
      "көмегімен": 7748,
      "##уді": 7749,
      "##алия": 7750,
      "clos": 7751,
      "round": 7752,
      "##вар": 7753,
      "600": 7754,
      "жив": 7755,
      "аф": 7756,
      "нев": 7757,
      "rank": 7758,
      "распр": 7759,
      "##илищ": 7760,
      "мешіт": 7761,
      "чемпионатының": 7762,
      "##to": 7763,
      "1935": 7764,
      "formed": 7765,
      "##аққа": 7766,
      "##алось": 7767,
      "##олық": 7768,
      "know": 7769,
      "мел": 7770,
      "exc": 7771,
      "март": 7772,
      "##ыты": 7773,
      "##ament": 7774,
      "вин": 7775,
      "##55": 7776,
      "fa": 7777,
      "прем": 7778,
      "ұлыбритания": 7779,
      "програм": 7780,
      "татар": 7781,
      "шк": 7782,
      "1933": 7783,
      "soon": 7784,
      "примен": 7785,
      "желтоқсанда": 7786,
      "напр": 7787,
      "bay": 7788,
      "алат": 7789,
      "union": 7790,
      "футболдан": 7791,
      "того": 7792,
      "tor": 7793,
      "бұиым": 7794,
      "басы": 7795,
      "##aves": 7796,
      "decided": 7797,
      "pot": 7798,
      "мыр": 7799,
      "остр": 7800,
      "қалдыр": 7801,
      "police": 7802,
      "##cast": 7803,
      "almost": 7804,
      "##осьва": 7805,
      "магнит": 7806,
      "кафедр": 7807,
      "##itor": 7808,
      "алдын": 7809,
      "##ze": 7810,
      "##ального": 7811,
      "жыныстар": 7812,
      "##ландия": 7813,
      "neg": 7814,
      "культур": 7815,
      "киров": 7816,
      "өту": 7817,
      "##ве": 7818,
      "##ально": 7819,
      "republ": 7820,
      "initially": 7821,
      "ташкент": 7822,
      "fell": 7823,
      "mult": 7824,
      "нақ": 7825,
      "fourth": 7826,
      "стандар": 7827,
      "average": 7828,
      "аурулар": 7829,
      "баиқалады": 7830,
      "cup": 7831,
      "казах": 7832,
      "##68": 7833,
      "records": 7834,
      "##шен": 7835,
      "қызы": 7836,
      "серік": 7837,
      "мұхаммед": 7838,
      "##лігіне": 7839,
      "өзбекстан": 7840,
      "pit": 7841,
      "##omm": 7842,
      "##oney": 7843,
      "##альныи": 7844,
      "##ades": 7845,
      "earth": 7846,
      "started": 7847,
      "случ": 7848,
      "алдымен": 7849,
      "жастар": 7850,
      "күшті": 7851,
      "der": 7852,
      "##less": 7853,
      "часть": 7854,
      "әулие": 7855,
      "сух": 7856,
      "дип": 7857,
      "rob": 7858,
      "003": 7859,
      "##раи": 7860,
      "##далды": 7861,
      "##49": 7862,
      "қолдау": 7863,
      "##уля": 7864,
      "арыстан": 7865,
      "вк": 7866,
      "жары": 7867,
      "клубы": 7868,
      "mel": 7869,
      "команда": 7870,
      "dut": 7871,
      "##ma": 7872,
      "##аби": 7873,
      "##ющих": 7874,
      "реал": 7875,
      "қорша": 7876,
      "использу": 7877,
      "behind": 7878,
      "##ivid": 7879,
      "париж": 7880,
      "completed": 7881,
      "guns": 7882,
      "көшп": 7883,
      "времен": 7884,
      "ты": 7885,
      "chief": 7886,
      "ho": 7887,
      "един": 7888,
      "өмірі": 7889,
      "laun": 7890,
      "##ается": 7891,
      "##куб": 7892,
      "ey": 7893,
      "чемпиондары": 7894,
      "которых": 7895,
      "аиырм": 7896,
      "rap": 7897,
      "ниж": 7898,
      "##эм": 7899,
      "inn": 7900,
      "pan": 7901,
      "цвет": 7902,
      "##ламент": 7903,
      "около": 7904,
      "благ": 7905,
      "қалпына": 7906,
      "host": 7907,
      "реи": 7908,
      "##юс": 7909,
      "құралдар": 7910,
      "hen": 7911,
      "comment": 7912,
      "қаңтарда": 7913,
      "техника": 7914,
      "қазанда": 7915,
      "драма": 7916,
      "##маған": 7917,
      "##образ": 7918,
      "##ув": 7919,
      "след": 7920,
      "қағаз": 7921,
      "##emb": 7922,
      "##тация": 7923,
      "құру": 7924,
      "material": 7925,
      "негізделген": 7926,
      "нидер": 7927,
      "##еци": 7928,
      "##рен": 7929,
      "140": 7930,
      "орынбор": 7931,
      "product": 7932,
      "мәрте": 7933,
      "вик": 7934,
      "proble": 7935,
      "шик": 7936,
      "организ": 7937,
      "груп": 7938,
      "строи": 7939,
      "##яч": 7940,
      "##asion": 7941,
      "парламент": 7942,
      "##хани": 7943,
      "wife": 7944,
      "##тты": 7945,
      "ham": 7946,
      "көрсеткіш": 7947,
      "нормандия": 7948,
      "саилан": 7949,
      "##ators": 7950,
      "1919": 7951,
      "один": 7952,
      "қысым": 7953,
      "##далады": 7954,
      "жеткен": 7955,
      "лондон": 7956,
      "##аушы": 7957,
      "##ились": 7958,
      "cho": 7959,
      "ber": 7960,
      "когда": 7961,
      "өнері": 7962,
      "сит": 7963,
      "ул": 7964,
      "уст": 7965,
      "##жи": 7966,
      "##әр": 7967,
      "тарап": 7968,
      "##medi": 7969,
      "суы": 7970,
      "##аларына": 7971,
      "uk": 7972,
      "лог": 7973,
      "##оц": 7974,
      "стадион": 7975,
      "inj": 7976,
      "құқы": 7977,
      "сент": 7978,
      "ост": 7979,
      "фл": 7980,
      "эф": 7981,
      "##шет": 7982,
      "##ending": 7983,
      "ішіндегі": 7984,
      "маидан": 7985,
      "##mp": 7986,
      "##ияны": 7987,
      "scre": 7988,
      "съ": 7989,
      "infant": 7990,
      "##уществ": 7991,
      "##жол": 7992,
      "leading": 7993,
      "##дель": 7994,
      "тамызда": 7995,
      "##iff": 7996,
      "##ios": 7997,
      "lack": 7998,
      "еңбектері": 7999,
      "bir": 8000,
      "##гінді": 8001,
      "над": 8002,
      "research": 8003,
      "##istic": 8004,
      "относ": 8005,
      "council": 8006,
      "орда": 8007,
      "мүи": 8008,
      "баласы": 8009,
      "қарашада": 8010,
      "##аһ": 8011,
      "##авр": 8012,
      "жағында": 8013,
      "тобыл": 8014,
      "государствен": 8015,
      "##тикалық": 8016,
      "өрнек": 8017,
      "langu": 8018,
      "шымкент": 8019,
      "топыр": 8020,
      "##board": 8021,
      "sex": 8022,
      "көше": 8023,
      "кубогының": 8024,
      "quar": 8025,
      "бірқатар": 8026,
      "opened": 8027,
      "damage": 8028,
      "##овка": 8029,
      "барлау": 8030,
      "working": 8031,
      "саласындағы": 8032,
      "педагогикалық": 8033,
      "макс": 8034,
      "##шая": 8035,
      "ені": 8036,
      "сиыр": 8037,
      "least": 8038,
      "colon": 8039,
      "##мақ": 8040,
      "##арда": 8041,
      "individ": 8042,
      "га": 8043,
      "##ological": 8044,
      "##imes": 8045,
      "атқарған": 8046,
      "1931": 8047,
      "запад": 8048,
      "##uit": 8049,
      "fut": 8050,
      "##істік": 8051,
      "##олит": 8052,
      "##iding": 8053,
      "example": 8054,
      "геологиялық": 8055,
      "##кс": 8056,
      "worked": 8057,
      "media": 8058,
      "break": 8059,
      "таулы": 8060,
      "##ift": 8061,
      "через": 8062,
      "жалғастыр": 8063,
      "кач": 8064,
      "1924": 8065,
      "других": 8066,
      "социалистік": 8067,
      "##uk": 8068,
      "appoint": 8069,
      "тасымал": 8070,
      "wanted": 8071,
      "##igned": 8072,
      "##reek": 8073,
      "foc": 8074,
      "##уляр": 8075,
      "вычегда": 8076,
      "##asing": 8077,
      "express": 8078,
      "мінез": 8079,
      "esp": 8080,
      "##ceed": 8081,
      "tradition": 8082,
      "зауыт": 8083,
      "юр": 8084,
      "##ату": 8085,
      "##оның": 8086,
      "quick": 8087,
      "материалдар": 8088,
      "музеи": 8089,
      "bank": 8090,
      "##итіп": 8091,
      "архан": 8092,
      "высок": 8093,
      "қимыл": 8094,
      "fig": 8095,
      "treat": 8096,
      "mary": 8097,
      "##тама": 8098,
      "ach": 8099,
      "жұмыстары": 8100,
      "##унд": 8101,
      "өзенін": 8102,
      "##aur": 8103,
      "городе": 8104,
      "этого": 8105,
      "smith": 8106,
      "eso": 8107,
      "негізі": 8108,
      "rul": 8109,
      "где": 8110,
      "пам": 8111,
      "##кім": 8112,
      "brought": 8113,
      "##юн": 8114,
      "кездесетін": 8115,
      "сөитіп": 8116,
      "өзіндік": 8117,
      "magazine": 8118,
      "жұрт": 8119,
      "##oon": 8120,
      "әрті": 8121,
      "жүлдегері": 8122,
      "##рд": 8123,
      "##абы": 8124,
      "символ": 8125,
      "loss": 8126,
      "news": 8127,
      "##огы": 8128,
      "қатарына": 8129,
      "ханның": 8130,
      "charles": 8131,
      "diffic": 8132,
      "##иелі": 8133,
      "ауылындағы": 8134,
      "difficult": 8135,
      "вст": 8136,
      "тұрақ": 8137,
      "transport": 8138,
      "association": 8139,
      "piec": 8140,
      "шақ": 8141,
      "room": 8142,
      "##ги": 8143,
      "өзг": 8144,
      "##ятель": 8145,
      "##хран": 8146,
      "паиғам": 8147,
      "phys": 8148,
      "ірг": 8149,
      "##ells": 8150,
      "angel": 8151,
      "бөлігінде": 8152,
      "әуе": 8153,
      "түб": 8154,
      "accept": 8155,
      "##ілу": 8156,
      "вес": 8157,
      "##aper": 8158,
      "##pression": 8159,
      "pen": 8160,
      "pur": 8161,
      "дың": 8162,
      "территории": 8163,
      "сир": 8164,
      "must": 8165,
      "close": 8166,
      "бағынады": 8167,
      "лив": 8168,
      "##вад": 8169,
      "рухани": 8170,
      "nomin": 8171,
      "сараи": 8172,
      "##rug": 8173,
      "талдау": 8174,
      "1925": 8175,
      "##сіне": 8176,
      "қатысу": 8177,
      "estim": 8178,
      "vot": 8179,
      "##46": 8180,
      "sett": 8181,
      "##anch": 8182,
      "##eter": 8183,
      "110": 8184,
      "округіне": 8185,
      "ыстық": 8186,
      "##king": 8187,
      "priv": 8188,
      "##іру": 8189,
      "##мож": 8190,
      "##chest": 8191,
      "separ": 8192,
      "дерб": 8193,
      "past": 8194,
      "##дігіне": 8195,
      "кеиіпкер": 8196,
      "grad": 8197,
      "relationship": 8198,
      "түлек": 8199,
      "сырдар": 8200,
      "корея": 8201,
      "шығын": 8202,
      "алты": 8203,
      "хаи": 8204,
      "surf": 8205,
      "ахмет": 8206,
      "әигі": 8207,
      "салу": 8208,
      "тұжыр": 8209,
      "##ическая": 8210,
      "бөлігін": 8211,
      "лев": 8212,
      "##сср": 8213,
      "boy": 8214,
      "тамақ": 8215,
      "шаң": 8216,
      "##аулы": 8217,
      "nar": 8218,
      "сосьва": 8219,
      "studio": 8220,
      "summer": 8221,
      "таза": 8222,
      "проблем": 8223,
      "құрғақ": 8224,
      "##аттардың": 8225,
      "society": 8226,
      "avail": 8227,
      "бот": 8228,
      "иелен": 8229,
      "трансп": 8230,
      "бак": 8231,
      "frank": 8232,
      "теп": 8233,
      "эль": 8234,
      "ави": 8235,
      "ханты": 8236,
      "##icle": 8237,
      "step": 8238,
      "employ": 8239,
      "қазақтар": 8240,
      "weeks": 8241,
      "involved": 8242,
      "##ват": 8243,
      "бюдж": 8244,
      "жүріп": 8245,
      "rain": 8246,
      "чех": 8247,
      "##реи": 8248,
      "көрді": 8249,
      "##цию": 8250,
      "redu": 8251,
      "##тов": 8252,
      "##uel": 8253,
      "##ential": 8254,
      "тұтын": 8255,
      "events": 8256,
      "мүшелері": 8257,
      "crew": 8258,
      "көрсетті": 8259,
      "мұра": 8260,
      "##рас": 8261,
      "sequ": 8262,
      "##альді": 8263,
      "называ": 8264,
      "хром": 8265,
      "соңында": 8266,
      "тірк": 8267,
      "әдістер": 8268,
      "##лон": 8269,
      "fleet": 8270,
      "##itz": 8271,
      "roman": 8272,
      "towards": 8273,
      "уг": 8274,
      "##oul": 8275,
      "shot": 8276,
      "##antic": 8277,
      "tar": 8278,
      "өтіп": 8279,
      "##aut": 8280,
      "##таитын": 8281,
      "generally": 8282,
      "middle": 8283,
      "##57": 8284,
      "неб": 8285,
      "proper": 8286,
      "fly": 8287,
      "еще": 8288,
      "brig": 8289,
      "##нее": 8290,
      "ұрпақ": 8291,
      "##етінің": 8292,
      "табылған": 8293,
      "абд": 8294,
      "district": 8295,
      "қоректен": 8296,
      "##ице": 8297,
      "жік": 8298,
      "##сика": 8299,
      "1921": 8300,
      "салмағы": 8301,
      "1922": 8302,
      "provided": 8303,
      "##бүр": 8304,
      "есімі": 8305,
      "технология": 8306,
      "either": 8307,
      "ана": 8308,
      "конк": 8309,
      "мансии": 8310,
      "выр": 8311,
      "жасында": 8312,
      "respect": 8313,
      "атм": 8314,
      "создан": 8315,
      "лес": 8316,
      "cred": 8317,
      "манс": 8318,
      "pac": 8319,
      "##иств": 8320,
      "type": 8321,
      "##ферен": 8322,
      "шең": 8323,
      "адамға": 8324,
      "дамуы": 8325,
      "әигілі": 8326,
      "басталды": 8327,
      "##альные": 8328,
      "специ": 8329,
      "география": 8330,
      "пир": 8331,
      "speed": 8332,
      "##li": 8333,
      "##ене": 8334,
      "##даның": 8335,
      "сн": 8336,
      "##эт": 8337,
      "жерлерде": 8338,
      "бапкер": 8339,
      "dark": 8340,
      "қарамастан": 8341,
      "##osition": 8342,
      "board": 8343,
      "operation": 8344,
      "allowed": 8345,
      "дөңг": 8346,
      "код": 8347,
      "көпшілік": 8348,
      "recording": 8349,
      "##енного": 8350,
      "##астың": 8351,
      "##улық": 8352,
      "##ming": 8353,
      "акв": 8354,
      "қосылған": 8355,
      "биология": 8356,
      "бик": 8357,
      "отбасы": 8358,
      "чемпионаты": 8359,
      "ұм": 8360,
      "способ": 8361,
      "бұқар": 8362,
      "жасауға": 8363,
      "шаиқас": 8364,
      "көзі": 8365,
      "##ination": 8366,
      "өкімет": 8367,
      "##tim": 8368,
      "troops": 8369,
      "##ибышев": 8370,
      "170": 8371,
      "johnson": 8372,
      "recogn": 8373,
      "мерзім": 8374,
      "##беков": 8375,
      "##ving": 8376,
      "уса": 8377,
      "шол": 8378,
      "торабына": 8379,
      "##инград": 8380,
      "распростран": 8381,
      "##tr": 8382,
      "инф": 8383,
      "андр": 8384,
      "##роф": 8385,
      "800": 8386,
      "navy": 8387,
      "обыч": 8388,
      "plat": 8389,
      "##итания": 8390,
      "doct": 8391,
      "##56": 8392,
      "##бұр": 8393,
      "куибышев": 8394,
      "қалыптастыр": 8395,
      "мағ": 8396,
      "##ардия": 8397,
      "шөгінді": 8398,
      "##ago": 8399,
      "шығу": 8400,
      "##егінде": 8401,
      "му": 8402,
      "части": 8403,
      "былаи": 8404,
      "infantry": 8405,
      "##тім": 8406,
      "assist": 8407,
      "change": 8408,
      "featured": 8409,
      "hours": 8410,
      "яр": 8411,
      "орденімен": 8412,
      "##ғылар": 8413,
      "зиян": 8414,
      "##алась": 8415,
      "##тарында": 8416,
      "##ышлен": 8417,
      "мом": 8418,
      "##gn": 8419,
      "##ыла": 8420,
      "dro": 8421,
      "##оним": 8422,
      "құрамасы": 8423,
      "бөлімі": 8424,
      "кана": 8425,
      "##gar": 8426,
      "##ston": 8427,
      "мұражаи": 8428,
      "##of": 8429,
      "жазды": 8430,
      "scored": 8431,
      "есть": 8432,
      "кня": 8433,
      "color": 8434,
      "##троп": 8435,
      "indian": 8436,
      "операция": 8437,
      "scen": 8438,
      "saint": 8439,
      "##ray": 8440,
      "іле": 8441,
      "үилен": 8442,
      "reach": 8443,
      "training": 8444,
      "flor": 8445,
      "басқармасы": 8446,
      "қолдану": 8447,
      "##ках": 8448,
      "european": 8449,
      "##құ": 8450,
      "неф": 8451,
      "designed": 8452,
      "пу": 8453,
      "мәтін": 8454,
      "franc": 8455,
      "##ольк": 8456,
      "cm": 8457,
      "##овых": 8458,
      "тілінің": 8459,
      "prior": 8460,
      "##fall": 8461,
      "##арх": 8462,
      "##ems": 8463,
      "она": 8464,
      "ауданға": 8465,
      "жолын": 8466,
      "архангель": 8467,
      "##лым": 8468,
      "##жу": 8469,
      "##анның": 8470,
      "кеиіннен": 8471,
      "1926": 8472,
      "быть": 8473,
      "##ауыл": 8474,
      "##ятся": 8475,
      "бөліп": 8476,
      "краснояр": 8477,
      "азаматтық": 8478,
      "thomas": 8479,
      "##ecutive": 8480,
      "мәжбүр": 8481,
      "##алан": 8482,
      "##оля": 8483,
      "жеңі": 8484,
      "отар": 8485,
      "##иннің": 8486,
      "##ико": 8487,
      "guitar": 8488,
      "##естив": 8489,
      "народ": 8490,
      "цар": 8491,
      "##дерімен": 8492,
      "боиында": 8493,
      "поштасы": 8494,
      "##ification": 8495,
      "чем": 8496,
      "##ағыз": 8497,
      "ауылында": 8498,
      "opening": 8499,
      "##ыққа": 8500,
      "дамуына": 8501,
      "believed": 8502,
      "##ume": 8503,
      "қазақстандағы": 8504,
      "atl": 8505,
      "диплом": 8506,
      "immedi": 8507,
      "##erous": 8508,
      "қарым": 8509,
      "placed": 8510,
      "largest": 8511,
      "##елерді": 8512,
      "1927": 8513,
      "regular": 8514,
      "бәрі": 8515,
      "сч": 8516,
      "remov": 8517,
      "пас": 8518,
      "атағы": 8519,
      "владимир": 8520,
      "##му": 8521,
      "market": 8522,
      "##59": 8523,
      "##west": 8524,
      "staff": 8525,
      "##duct": 8526,
      "істеген": 8527,
      "кезеңі": 8528,
      "##32": 8529,
      "құрастыр": 8530,
      "атлет": 8531,
      "страт": 8532,
      "virgin": 8533,
      "суперкуб": 8534,
      "##палы": 8535,
      "бастауы": 8536,
      "кок": 8537,
      "ғалымдар": 8538,
      "##гір": 8539,
      "alex": 8540,
      "lower": 8541,
      "food": 8542,
      "lear": 8543,
      "ерекшелі": 8544,
      "қараш": 8545,
      "беріп": 8546,
      "соғ": 8547,
      "scient": 8548,
      "разр": 8549,
      "highest": 8550,
      "particularly": 8551,
      "pay": 8552,
      "вит": 8553,
      "них": 8554,
      "##емі": 8555,
      "объект": 8556,
      "коллед": 8557,
      "төл": 8558,
      "regard": 8559,
      "feel": 8560,
      "##ography": 8561,
      "committ": 8562,
      "аңғар": 8563,
      "##гент": 8564,
      "қалалар": 8565,
      "xviii": 8566,
      "##icated": 8567,
      "pain": 8568,
      "өскен": 8569,
      "ораи": 8570,
      "additional": 8571,
      "##bor": 8572,
      "scott": 8573,
      "##біт": 8574,
      "мәдениеті": 8575,
      "шөп": 8576,
      "achie": 8577,
      "##еиц": 8578,
      "runs": 8579,
      "ha": 8580,
      "бұлар": 8581,
      "рыб": 8582,
      "come": 8583,
      "##78": 8584,
      "кеиінірек": 8585,
      "оиындары": 8586,
      "victory": 8587,
      "саксон": 8588,
      "2021": 8589,
      "еуропалық": 8590,
      "##хож": 8591,
      "##men": 8592,
      "deal": 8593,
      "шан": 8594,
      "instit": 8595,
      "term": 8596,
      "daugh": 8597,
      "окт": 8598,
      "оқи": 8599,
      "outside": 8600,
      "таңда": 8601,
      "increased": 8602,
      "mcc": 8603,
      "##ғылт": 8604,
      "lake": 8605,
      "дақ": 8606,
      "##ақым": 8607,
      "admin": 8608,
      "pun": 8609,
      "вет": 8610,
      "##nal": 8611,
      "contract": 8612,
      "##ически": 8613,
      "биіктік": 8614,
      "мүд": 8615,
      "металлург": 8616,
      "жәр": 8617,
      "earlier": 8618,
      "##сір": 8619,
      "аумағында": 8620,
      "бұған": 8621,
      "соот": 8622,
      "дегенмен": 8623,
      "deter": 8624,
      "атмосфер": 8625,
      "##масы": 8626,
      "##ышты": 8627,
      "ақпанда": 8628,
      "castle": 8629,
      "mont": 8630,
      "##ларға": 8631,
      "нер": 8632,
      "название": 8633,
      "sb": 8634,
      "##ises": 8635,
      "1923": 8636,
      "battal": 8637,
      "дәрежелі": 8638,
      "заг": 8639,
      "##ением": 8640,
      "wil": 8641,
      "виль": 8642,
      "клет": 8643,
      "жаиық": 8644,
      "##след": 8645,
      "contrib": 8646,
      "кітаптар": 8647,
      "аиырмашыл": 8648,
      "##ership": 8649,
      "exist": 8650,
      "particip": 8651,
      "құнды": 8652,
      "ред": 8653,
      "қып": 8654,
      "мектебі": 8655,
      "goal": 8656,
      "##ishing": 8657,
      "жүиесінің": 8658,
      "дауыс": 8659,
      "факультетін": 8660,
      "арқасында": 8661,
      "##ұн": 8662,
      "атлан": 8663,
      "процестер": 8664,
      "физика": 8665,
      "keep": 8666,
      "соглас": 8667,
      "шығарды": 8668,
      "аитады": 8669,
      "среди": 8670,
      "winds": 8671,
      "beginning": 8672,
      "##амет": 8673,
      "##цияның": 8674,
      "ашылды": 8675,
      "порт": 8676,
      "flag": 8677,
      "күшеи": 8678,
      "##ush": 8679,
      "emp": 8680,
      "##кар": 8681,
      "##ocr": 8682,
      "компьютер": 8683,
      "bird": 8684,
      "quest": 8685,
      "өнеркәсі": 8686,
      "##88": 8687,
      "болаш": 8688,
      "appl": 8689,
      "1000": 8690,
      "acad": 8691,
      "sand": 8692,
      "##есінен": 8693,
      "король": 8694,
      "##key": 8695,
      "вок": 8696,
      "available": 8697,
      "прис": 8698,
      "дав": 8699,
      "##nes": 8700,
      "##31": 8701,
      "##овор": 8702,
      "threat": 8703,
      "novel": 8704,
      "колледж": 8705,
      "##ped": 8706,
      "альбом": 8707,
      "съез": 8708,
      "percent": 8709,
      "wild": 8710,
      "кешен": 8711,
      "дивиз": 8712,
      "қоршаған": 8713,
      "чемпиондар": 8714,
      "ямало": 8715,
      "##них": 8716,
      "mph": 8717,
      "даң": 8718,
      "диск": 8719,
      "абаидың": 8720,
      "одағы": 8721,
      "национ": 8722,
      "##см": 8723,
      "##ites": 8724,
      "торғаи": 8725,
      "##67": 8726,
      "doc": 8727,
      "жердің": 8728,
      "жеңімпазы": 8729,
      "рә": 8730,
      "##ka": 8731,
      "living": 8732,
      "account": 8733,
      "minister": 8734,
      "ірік": 8735,
      "joined": 8736,
      "11520": 8737,
      "env": 8738,
      "anti": 8739,
      "##69": 8740,
      "##овскии": 8741,
      "дерев": 8742,
      "##һар": 8743,
      "calif": 8744,
      "##хоз": 8745,
      "##шие": 8746,
      "постро": 8747,
      "дәрігер": 8748,
      "700": 8749,
      "californ": 8750,
      "тұрды": 8751,
      "ресеидің": 8752,
      "салады": 8753,
      "түсінік": 8754,
      "көрсетілген": 8755,
      "meas": 8756,
      "жеміс": 8757,
      "кездегі": 8758,
      "##ida": 8759,
      "reviews": 8760,
      "өзгерт": 8761,
      "##ния": 8762,
      "##иді": 8763,
      "жазғы": 8764,
      "виде": 8765,
      "##лив": 8766,
      "барып": 8767,
      "күнге": 8768,
      "ny": 8769,
      "saying": 8770,
      "##хат": 8771,
      "conduct": 8772,
      "##ығындағы": 8773,
      "наб": 8774,
      "ескер": 8775,
      "актив": 8776,
      "stop": 8777,
      "taking": 8778,
      "##альц": 8779,
      "жұмс": 8780,
      "литер": 8781,
      "##ship": 8782,
      "түлектері": 8783,
      "viol": 8784,
      "ps": 8785,
      "##құм": 8786,
      "##ky": 8787,
      "plot": 8788,
      "таным": 8789,
      "мамандығы": 8790,
      "flight": 8791,
      "колич": 8792,
      "phot": 8793,
      "кезеңде": 8794,
      "fer": 8795,
      "##wer": 8796,
      "беріледі": 8797,
      "respons": 8798,
      "length": 8799,
      "program": 8800,
      "possible": 8801,
      "##onna": 8802,
      "##ude": 8803,
      "осыған": 8804,
      "relig": 8805,
      "replaced": 8806,
      "сиг": 8807,
      "muse": 8808,
      "заңды": 8809,
      "natural": 8810,
      "промышлен": 8811,
      "чет": 8812,
      "жанындағы": 8813,
      "сөзі": 8814,
      "инженер": 8815,
      "henry": 8816,
      "##тым": 8817,
      "##ha": 8818,
      "области": 8819,
      "қолданылатын": 8820,
      "көкшет": 8821,
      "түп": 8822,
      "shar": 8823,
      "section": 8824,
      "құрлық": 8825,
      "##чин": 8826,
      "##онов": 8827,
      "##ибир": 8828,
      "##теиді": 8829,
      "##орож": 8830,
      "##лығын": 8831,
      "вед": 8832,
      "##hib": 8833,
      "##ұлақ": 8834,
      "##таң": 8835,
      "##aces": 8836,
      "ағз": 8837,
      "future": 8838,
      "##дығына": 8839,
      "##ases": 8840,
      "rights": 8841,
      "сверд": 8842,
      "пес": 8843,
      "##пин": 8844,
      "##ольф": 8845,
      "басқармасының": 8846,
      "nine": 8847,
      "аг": 8848,
      "##ірт": 8849,
      "##скоп": 8850,
      "прок": 8851,
      "films": 8852,
      "архангельск": 8853,
      "осман": 8854,
      "қоиылған": 8855,
      "буын": 8856,
      "kar": 8857,
      "вил": 8858,
      "үм": 8859,
      "появ": 8860,
      "жұлдыздар": 8861,
      "##omp": 8862,
      "қабылдау": 8863,
      "включ": 8864,
      "lines": 8865,
      "дәм": 8866,
      "дүр": 8867,
      "anal": 8868,
      "##ully": 8869,
      "space": 8870,
      "above": 8871,
      "bad": 8872,
      "жетілді": 8873,
      "disp": 8874,
      "көшіп": 8875,
      "кеңістік": 8876,
      "луара": 8877,
      "көкшетау": 8878,
      "қаған": 8879,
      "өздерінің": 8880,
      "млрд": 8881,
      "міндетті": 8882,
      "ілім": 8883,
      "мемлекеттің": 8884,
      "access": 8885,
      "дыбыс": 8886,
      "praised": 8887,
      "##стве": 8888,
      "свердлов": 8889,
      "election": 8890,
      "##щы": 8891,
      "##aded": 8892,
      "жігіт": 8893,
      "мұғалім": 8894,
      "roll": 8895,
      "вест": 8896,
      "басына": 8897,
      "##erson": 8898,
      "abs": 8899,
      "move": 8900,
      "hous": 8901,
      "вои": 8902,
      "##пеи": 8903,
      "аиып": 8904,
      "flood": 8905,
      "аилар": 8906,
      "community": 8907,
      "патр": 8908,
      "рав": 8909,
      "##амыз": 8910,
      "жүреді": 8911,
      "##аза": 8912,
      "клас": 8913,
      "служ": 8914,
      "##ta": 8915,
      "көшір": 8916,
      "polic": 8917,
      "қаитар": 8918,
      "critical": 8919,
      "шірк": 8920,
      "қазақша": 8921,
      "училищ": 8922,
      "##имен": 8923,
      "##обы": 8924,
      "пьес": 8925,
      "##еуге": 8926,
      "бул": 8927,
      "ортасында": 8928,
      "қорғаныс": 8929,
      "рам": 8930,
      "##ga": 8931,
      "көру": 8932,
      "фир": 8933,
      "##оте": 8934,
      "зеин": 8935,
      "##anks": 8936,
      "облысында": 8937,
      "тоқтат": 8938,
      "##ula": 8939,
      "##ока": 8940,
      "1916": 8941,
      "##оящ": 8942,
      "несколько": 8943,
      "##isl": 8944,
      "##oke": 8945,
      "##ищ": 8946,
      "##lement": 8947,
      "қаитал": 8948,
      "уль": 8949,
      "тигіз": 8950,
      "қосылды": 8951,
      "алаңға": 8952,
      "мәлім": 8953,
      "better": 8954,
      "science": 8955,
      "результ": 8956,
      "finished": 8957,
      "профилі": 8958,
      "##идің": 8959,
      "told": 8960,
      "алмады": 8961,
      "жою": 8962,
      "тіркел": 8963,
      "##ула": 8964,
      "ордені": 8965,
      "clear": 8966,
      "көрінеді": 8967,
      "мүсін": 8968,
      "экспеди": 8969,
      "жез": 8970,
      "тит": 8971,
      "отлич": 8972,
      "искус": 8973,
      "face": 8974,
      "швеиц": 8975,
      "thus": 8976,
      "қоныстан": 8977,
      "уз": 8978,
      "приб": 8979,
      "жоңғ": 8980,
      "##berg": 8981,
      "##ларында": 8982,
      "health": 8983,
      "blue": 8984,
      "lik": 8985,
      "germany": 8986,
      "ию": 8987,
      "##200": 8988,
      "субъ": 8989,
      "commerc": 8990,
      "positive": 8991,
      "философия": 8992,
      "minutes": 8993,
      "верх": 8994,
      "саксония": 8995,
      "mex": 8996,
      "роз": 8997,
      "##ате": 8998,
      "previously": 8999,
      "##heast": 9000,
      "ерк": 9001,
      "сегіз": 9002,
      "аимағы": 9003,
      "gro": 9004,
      "captain": 9005,
      "department": 9006,
      "##ections": 9007,
      "##естве": 9008,
      "limited": 9009,
      "жылқы": 9010,
      "##ілуі": 9011,
      "pu": 9012,
      "##орг": 9013,
      "##терден": 9014,
      "шақырым": 9015,
      "##інше": 9016,
      "елеу": 9017,
      "актр": 9018,
      "##ңгір": 9019,
      "площ": 9020,
      "fair": 9021,
      "каж": 9022,
      "##қында": 9023,
      "dig": 9024,
      "reveal": 9025,
      "оинады": 9026,
      "##некті": 9027,
      "##зин": 9028,
      "қалаи": 9029,
      "беибіт": 9030,
      "бразилия": 9031,
      "тапты": 9032,
      "температура": 9033,
      "##43": 9034,
      "ерітін": 9035,
      "бикеш": 9036,
      "sov": 9037,
      "##абот": 9038,
      "dead": 9039,
      "дамыту": 9040,
      "кавказ": 9041,
      "астанасы": 9042,
      "personal": 9043,
      "қараж": 9044,
      "##лерге": 9045,
      "жанар": 9046,
      "##телген": 9047,
      "##емонт": 9048,
      "ақыр": 9049,
      "жедел": 9050,
      "forced": 9051,
      "units": 9052,
      "нос": 9053,
      "##ex": 9054,
      "##off": 9055,
      "conserv": 9056,
      "##ября": 9057,
      "##нош": 9058,
      "##ителеи": 9059,
      "саласында": 9060,
      "services": 9061,
      "##ғынан": 9062,
      "##ано": 9063,
      "##атқа": 9064,
      "ауданның": 9065,
      "уже": 9066,
      "##мар": 9067,
      "бөлек": 9068,
      "parts": 9069,
      "turned": 9070,
      "mach": 9071,
      "going": 9072,
      "lyr": 9073,
      "пирен": 9074,
      "##hem": 9075,
      "##ecess": 9076,
      "chap": 9077,
      "возмож": 9078,
      "қауіпсіздік": 9079,
      "фос": 9080,
      "##ata": 9081,
      "##оника": 9082,
      "көпшілігі": 9083,
      "##жылдық": 9084,
      "kore": 9085,
      "pil": 9086,
      "##қал": 9087,
      "##оме": 9088,
      "##icket": 9089,
      "тірі": 9090,
      "литератур": 9091,
      "museum": 9092,
      "кн": 9093,
      "##ттар": 9094,
      "корол": 9095,
      "box": 9096,
      "болжам": 9097,
      "исслед": 9098,
      "passed": 9099,
      "##anned": 9100,
      "happ": 9101,
      "тюр": 9102,
      "##лаиды": 9103,
      "инвест": 9104,
      "directed": 9105,
      "биологиялық": 9106,
      "##тілді": 9107,
      "нидерланд": 9108,
      "##олн": 9109,
      "##ung": 9110,
      "қызметтерін": 9111,
      "әріп": 9112,
      "бағытталған": 9113,
      "физикалық": 9114,
      "##uter": 9115,
      "бiр": 9116,
      "әсерінен": 9117,
      "interview": 9118,
      "##более": 9119,
      "##iнде": 9120,
      "түсіндір": 9121,
      "например": 9122,
      "##42": 9123,
      "2022": 9124,
      "##pper": 9125,
      "##ством": 9126,
      "жапония": 9127,
      "##амбет": 9128,
      "lord": 9129,
      "пот": 9130,
      "лауаз": 9131,
      "бюджет": 9132,
      "##эл": 9133,
      "бірден": 9134,
      "enough": 9135,
      "тура": 9136,
      "money": 9137,
      "лига": 9138,
      "гим": 9139,
      "##anish": 9140,
      "forest": 9141,
      "blood": 9142,
      "жинағы": 9143,
      "түркия": 9144,
      "cand": 9145,
      "қонды": 9146,
      "##иги": 9147,
      "мәселен": 9148,
      "сок": 9149,
      "1914": 9150,
      "нүкт": 9151,
      "##bury": 9152,
      "құт": 9153,
      "денсаулық": 9154,
      "махаб": 9155,
      "##гіп": 9156,
      "қалалары": 9157,
      "үлес": 9158,
      "можно": 9159,
      "##ergy": 9160,
      "##back": 9161,
      "fore": 9162,
      "паиыз": 9163,
      "тапқан": 9164,
      "шеңбер": 9165,
      "ерекшелен": 9166,
      "наиболее": 9167,
      "broadcast": 9168,
      "виктор": 9169,
      "пиренеи": 9170,
      "profession": 9171,
      "prob": 9172,
      "##лении": 9173,
      "soviet": 9174,
      "fant": 9175,
      "##бел": 9176,
      "##шеи": 9177,
      "guard": 9178,
      "алуан": 9179,
      "тәуелді": 9180,
      "california": 9181,
      "##tered": 9182,
      "лотар": 9183,
      "иг": 9184,
      "пут": 9185,
      "рел": 9186,
      "ended": 9187,
      "беиім": 9188,
      "##sel": 9189,
      "deep": 9190,
      "##ference": 9191,
      "тәртіп": 9192,
      "вв": 9193,
      "##gress": 9194,
      "##деді": 9195,
      "##isc": 9196,
      "қорш": 9197,
      "сенім": 9198,
      "бургом": 9199,
      "female": 9200,
      "дақыл": 9201,
      "сцен": 9202,
      "суд": 9203,
      "жиз": 9204,
      "elements": 9205,
      "burn": 9206,
      "give": 9207,
      "ot": 9208,
      "жазық": 9209,
      "##онда": 9210,
      "beat": 9211,
      "107": 9212,
      "площад": 9213,
      "##илась": 9214,
      "##ability": 9215,
      "конф": 9216,
      "нүк": 9217,
      "населения": 9218,
      "bud": 9219,
      "ете": 9220,
      "##цент": 9221,
      "три": 9222,
      "бәр": 9223,
      "эд": 9224,
      "##тақ": 9225,
      "##ream": 9226,
      "spent": 9227,
      "corn": 9228,
      "қосып": 9229,
      "кеңестік": 9230,
      "##өлі": 9231,
      "аитқанда": 9232,
      "squadron": 9233,
      "тат": 9234,
      "memor": 9235,
      "##дардан": 9236,
      "слав": 9237,
      "терм": 9238,
      "қаза": 9239,
      "театры": 9240,
      "##arily": 9241,
      "пог": 9242,
      "##лих": 9243,
      "##ющии": 9244,
      "другие": 9245,
      "қазақстандық": 9246,
      "overall": 9247,
      "minor": 9248,
      "##астар": 9249,
      "##дарымен": 9250,
      "syn": 9251,
      "square": 9252,
      "жеңімпаз": 9253,
      "омб": 9254,
      "##ть": 9255,
      "##wor": 9256,
      "##онның": 9257,
      "##аков": 9258,
      "##erved": 9259,
      "parl": 9260,
      "восточ": 9261,
      "тіліндегі": 9262,
      "grant": 9263,
      "evidence": 9264,
      "breed": 9265,
      "bord": 9266,
      "жақты": 9267,
      "##reg": 9268,
      "заи": 9269,
      "жарақ": 9270,
      "sometimes": 9271,
      "кест": 9272,
      "##aft": 9273,
      "##кілі": 9274,
      "кәсіби": 9275,
      "trib": 9276,
      "ланд": 9277,
      "қалдық": 9278,
      "##бірек": 9279,
      "##41": 9280,
      "суда": 9281,
      "тараз": 9282,
      "investig": 9283,
      "бүгінгі": 9284,
      "если": 9285,
      "всего": 9286,
      "except": 9287,
      "широк": 9288,
      "бель": 9289,
      "issue": 9290,
      "салт": 9291,
      "liter": 9292,
      "миф": 9293,
      "##val": 9294,
      "study": 9295,
      "грамм": 9296,
      "көрініс": 9297,
      "фестив": 9298,
      "##pped": 9299,
      "томск": 9300,
      "##олют": 9301,
      "##iron": 9302,
      "воины": 9303,
      "жұп": 9304,
      "жазба": 9305,
      "ce": 9306,
      "##°с": 9307,
      "##ilities": 9308,
      "белгісіз": 9309,
      "ordered": 9310,
      "геология": 9311,
      "тұсында": 9312,
      "poor": 9313,
      "debut": 9314,
      "lay": 9315,
      "еті": 9316,
      "##рих": 9317,
      "қосқан": 9318,
      "##elled": 9319,
      "қызметкері": 9320,
      "hero": 9321,
      "victor": 9322,
      "ren": 9323,
      "выб": 9324,
      "##stand": 9325,
      "жарты": 9326,
      "двор": 9327,
      "сабақ": 9328,
      "travel": 9329,
      "қаитадан": 9330,
      "петербург": 9331,
      "##for": 9332,
      "худ": 9333,
      "##пу": 9334,
      "##оты": 9335,
      "баспа": 9336,
      "біраз": 9337,
      "қаиыр": 9338,
      "абсолют": 9339,
      "киев": 9340,
      "##сь": 9341,
      "кеңеи": 9342,
      "аустриядағы": 9343,
      "лег": 9344,
      "appearance": 9345,
      "signed": 9346,
      "асыл": 9347,
      "паидалануға": 9348,
      "сипаты": 9349,
      "имеет": 9350,
      "##як": 9351,
      "обществ": 9352,
      "уақытша": 9353,
      "##бақ": 9354,
      "салдарынан": 9355,
      "үстіне": 9356,
      "сырдария": 9357,
      "кеу": 9358,
      "флор": 9359,
      "алф": 9360,
      "қарулы": 9361,
      "қыст": 9362,
      "комбин": 9363,
      "бүл": 9364,
      "әдіс": 9365,
      "сүрген": 9366,
      "gi": 9367,
      "tv": 9368,
      "шығарған": 9369,
      "##rated": 9370,
      "##usion": 9371,
      "лан": 9372,
      "дән": 9373,
      "tex": 9374,
      "комитеті": 9375,
      "мәні": 9376,
      "##мбез": 9377,
      "өкілдері": 9378,
      "соответ": 9379,
      "есебімен": 9380,
      "бургомистрі": 9381,
      "et": 9382,
      "ox": 9383,
      "your": 9384,
      "##ериал": 9385,
      "ба": 9386,
      "отырды": 9387,
      "бөлініп": 9388,
      "өлеңдер": 9389,
      "мақсаты": 9390,
      "hd": 9391,
      "анд": 9392,
      "##лығымен": 9393,
      "committee": 9394,
      "lin": 9395,
      "##ique": 9396,
      "көшпелі": 9397,
      "##ірім": 9398,
      "сохран": 9399,
      "грам": 9400,
      "орындау": 9401,
      "лаб": 9402,
      "мағына": 9403,
      "судың": 9404,
      "capital": 9405,
      "cer": 9406,
      "пән": 9407,
      "нобель": 9408,
      "ray": 9409,
      "гур": 9410,
      "##еция": 9411,
      "##иты": 9412,
      "musical": 9413,
      "дәреже": 9414,
      "anc": 9415,
      "centre": 9416,
      "иорк": 9417,
      "жш": 9418,
      "пун": 9419,
      "хот": 9420,
      "жарат": 9421,
      "lib": 9422,
      "тұтас": 9423,
      "usually": 9424,
      "##ension": 9425,
      "##асан": 9426,
      "##него": 9427,
      "##дение": 9428,
      "круп": 9429,
      "роберт": 9430,
      "our": 9431,
      "өлшеитін": 9432,
      "administ": 9433,
      "зеинет": 9434,
      "қару": 9435,
      "шикіз": 9436,
      "деңгеиін": 9437,
      "voice": 9438,
      "pict": 9439,
      "##75": 9440,
      "clim": 9441,
      "перм": 9442,
      "композитор": 9443,
      "van": 9444,
      "мерт": 9445,
      "domin": 9446,
      "##oring": 9447,
      "cycl": 9448,
      "капитал": 9449,
      "introduced": 9450,
      "жүике": 9451,
      "education": 9452,
      "дая": 9453,
      "acqu": 9454,
      "жіп": 9455,
      "микр": 9456,
      "##asy": 9457,
      "surface": 9458,
      "##бит": 9459,
      "##uation": 9460,
      "жүиесін": 9461,
      "история": 9462,
      "##ypt": 9463,
      "think": 9464,
      "screen": 9465,
      "ил": 9466,
      "уд": 9467,
      "louis": 9468,
      "##ители": 9469,
      "омбы": 9470,
      "meth": 9471,
      "температурасы": 9472,
      "peter": 9473,
      "ca": 9474,
      "каи": 9475,
      "ою": 9476,
      "өнімді": 9477,
      "парсы": 9478,
      "pow": 9479,
      "christian": 9480,
      "строитель": 9481,
      "жасалады": 9482,
      "mas": 9483,
      "##атында": 9484,
      "language": 9485,
      "шешен": 9486,
      "##лаған": 9487,
      "арнаулы": 9488,
      "##ready": 9489,
      "##исим": 9490,
      "##игор": 9491,
      "journal": 9492,
      "viet": 9493,
      "##98": 9494,
      "pract": 9495,
      "subject": 9496,
      "queen": 9497,
      "вм": 9498,
      "##кон": 9499,
      "##ашы": 9500,
      "перев": 9501,
      "required": 9502,
      "ажырат": 9503,
      "ben": 9504,
      "руб": 9505,
      "##раг": 9506,
      "ғасырларда": 9507,
      "groups": 9508,
      "mr": 9509,
      "approxim": 9510,
      "күмбез": 9511,
      "тудыр": 9512,
      "reception": 9513,
      "##ях": 9514,
      "108": 9515,
      "adap": 9516,
      "corps": 9517,
      "itself": 9518,
      "кемеров": 9519,
      "object": 9520,
      "паидалы": 9521,
      "выст": 9522,
      "валь": 9523,
      "еңбег": 9524,
      "##саи": 9525,
      "##ваи": 9526,
      "##anded": 9527,
      "внут": 9528,
      "сән": 9529,
      "мария": 9530,
      "фараби": 9531,
      "##уют": 9532,
      "background": 9533,
      "bomb": 9534,
      "максим": 9535,
      "болашақ": 9536,
      "ut": 9537,
      "зақым": 9538,
      "##nel": 9539,
      "ішек": 9540,
      "үиі": 9541,
      "тұжырым": 9542,
      "дағ": 9543,
      "рөлі": 9544,
      "##аров": 9545,
      "##edy": 9546,
      "тауар": 9547,
      "кітапхана": 9548,
      "жетекші": 9549,
      "баған": 9550,
      "##гені": 9551,
      "woman": 9552,
      "жылу": 9553,
      "asked": 9554,
      "қолбас": 9555,
      "свет": 9556,
      "виру": 9557,
      "##тед": 9558,
      "##етінен": 9559,
      "##ұрлым": 9560,
      "##едения": 9561,
      "##airs": 9562,
      "constit": 9563,
      "##дав": 9564,
      "##итін": 9565,
      "already": 9566,
      "лотарингия": 9567,
      "lu": 9568,
      "##ану": 9569,
      "##onse": 9570,
      "изоб": 9571,
      "occurr": 9572,
      "##100": 9573,
      "1910": 9574,
      "##уін": 9575,
      "прич": 9576,
      "##баижан": 9577,
      "аиту": 9578,
      "network": 9579,
      "##іі": 9580,
      "диал": 9581,
      "purch": 9582,
      "##ическое": 9583,
      "көбіне": 9584,
      "которои": 9585,
      "lie": 9586,
      "ио": 9587,
      "күші": 9588,
      "клубының": 9589,
      "transfer": 9590,
      "parliam": 9591,
      "##ores": 9592,
      "басталады": 9593,
      "heav": 9594,
      "америкалық": 9595,
      "construct": 9596,
      "нұсқасы": 9597,
      "quickly": 9598,
      "##onst": 9599,
      "бетіне": 9600,
      "##баева": 9601,
      "жеңіске": 9602,
      "шығармашылық": 9603,
      "вп": 9604,
      "##ши": 9605,
      "chic": 9606,
      "score": 9607,
      "долж": 9608,
      "бир": 9609,
      "##акөл": 9610,
      "##ibility": 9611,
      "реки": 9612,
      "environ": 9613,
      "қант": 9614,
      "пласт": 9615,
      "үкіметі": 9616,
      "##теме": 9617,
      "##ective": 9618,
      "date": 9619,
      "amb": 9620,
      "##сем": 9621,
      "##шама": 9622,
      "##wh": 9623,
      "theat": 9624,
      "chall": 9625,
      "jew": 9626,
      "##kn": 9627,
      "##кіші": 9628,
      "ol": 9629,
      "қош": 9630,
      "использов": 9631,
      "медициналық": 9632,
      "чт": 9633,
      "таулары": 9634,
      "##ысу": 9635,
      "қырым": 9636,
      "сапында": 9637,
      "structure": 9638,
      "пре": 9639,
      "occup": 9640,
      "complete": 9641,
      "годы": 9642,
      "##зе": 9643,
      "бірлесті": 9644,
      "бокс": 9645,
      "рак": 9646,
      "ыдыр": 9647,
      "##fl": 9648,
      "посел": 9649,
      "liber": 9650,
      "archit": 9651,
      "certain": 9652,
      "жшс": 9653,
      "parliament": 9654,
      "##вы": 9655,
      "whom": 9656,
      "контр": 9657,
      "contr": 9658,
      "сапар": 9659,
      "sant": 9660,
      "саяс": 9661,
      "students": 9662,
      "антон": 9663,
      "спиральді": 9664,
      "синг": 9665,
      "##яется": 9666,
      "имп": 9667,
[...]
